{
  "version": "1.0",
  "truncation": null,
  "padding": null,
  "added_tokens": [
    {
      "id": 0,
      "content": "<pad>",
      "single_word": false,
      "lstrip": false,
      "rstrip": false,
      "normalized": false,
      "special": true
    },
    {
      "id": 1,
      "content": "<s>",
      "single_word": false,
      "lstrip": false,
      "rstrip": false,
      "normalized": false,
      "special": true
    },
    {
      "id": 2,
      "content": "</s>",
      "single_word": false,
      "lstrip": false,
      "rstrip": false,
      "normalized": false,
      "special": true
    },
    {
      "id": 3,
      "content": "<unk>",
      "single_word": false,
      "lstrip": false,
      "rstrip": false,
      "normalized": false,
      "special": true
    }
  ],
  "normalizer": null,
  "pre_tokenizer": {
    "type": "ByteLevel",
    "add_prefix_space": false,
    "trim_offsets": true,
    "use_regex": true
  },
  "post_processor": {
    "type": "ByteLevel",
    "add_prefix_space": true,
    "trim_offsets": false,
    "use_regex": true
  },
  "decoder": {
    "type": "ByteLevel",
    "add_prefix_space": true,
    "trim_offsets": true,
    "use_regex": true
  },
  "model": {
    "type": "BPE",
    "dropout": null,
    "unk_token": "<unk>",
    "continuing_subword_prefix": null,
    "end_of_word_suffix": null,
    "fuse_unk": false,
    "byte_fallback": false,
    "ignore_merges": false,
    "vocab": {
      "<pad>": 0,
      "<s>": 1,
      "</s>": 2,
      "<unk>": 3,
      "!": 4,
      "'": 5,
      "(": 6,
      ")": 7,
      "*": 8,
      ",": 9,
      "-": 10,
      ".": 11,
      "/": 12,
      "0": 13,
      "1": 14,
      "2": 15,
      "3": 16,
      "4": 17,
      "5": 18,
      "6": 19,
      "7": 20,
      "8": 21,
      "9": 22,
      ":": 23,
      ";": 24,
      "<": 25,
      ">": 26,
      "?": 27,
      "A": 28,
      "B": 29,
      "C": 30,
      "D": 31,
      "E": 32,
      "F": 33,
      "G": 34,
      "H": 35,
      "I": 36,
      "J": 37,
      "K": 38,
      "L": 39,
      "M": 40,
      "N": 41,
      "O": 42,
      "P": 43,
      "Q": 44,
      "R": 45,
      "S": 46,
      "T": 47,
      "U": 48,
      "V": 49,
      "W": 50,
      "X": 51,
      "Z": 52,
      "[": 53,
      "]": 54,
      "a": 55,
      "b": 56,
      "c": 57,
      "d": 58,
      "e": 59,
      "f": 60,
      "g": 61,
      "h": 62,
      "i": 63,
      "j": 64,
      "k": 65,
      "l": 66,
      "m": 67,
      "n": 68,
      "o": 69,
      "p": 70,
      "q": 71,
      "r": 72,
      "s": 73,
      "t": 74,
      "u": 75,
      "v": 76,
      "x": 77,
      "y": 78,
      "z": 79,
      "¡": 80,
      "¢": 81,
      "£": 82,
      "¤": 83,
      "¥": 84,
      "¦": 85,
      "§": 86,
      "¨": 87,
      "©": 88,
      "ª": 89,
      "«": 90,
      "®": 91,
      "¯": 92,
      "°": 93,
      "±": 94,
      "²": 95,
      "³": 96,
      "´": 97,
      "µ": 98,
      "¶": 99,
      "·": 100,
      "¸": 101,
      "¹": 102,
      "º": 103,
      "»": 104,
      "¼": 105,
      "½": 106,
      "¾": 107,
      "¿": 108,
      "Â": 109,
      "Ã": 110,
      "Ì": 111,
      "Ð": 112,
      "Ñ": 113,
      "â": 114,
      "Ċ": 115,
      "č": 116,
      "Ġ": 117,
      "Ģ": 118,
      "ģ": 119,
      "Ĥ": 120,
      "ĥ": 121,
      "Ħ": 122,
      "ħ": 123,
      "Ĩ": 124,
      "ĩ": 125,
      "Ī": 126,
      "ī": 127,
      "Ĭ": 128,
      "ĭ": 129,
      "Į": 130,
      "į": 131,
      "İ": 132,
      "ı": 133,
      "Ĳ": 134,
      "ĳ": 135,
      "Ĵ": 136,
      "ĵ": 137,
      "Ķ": 138,
      "ķ": 139,
      "ĸ": 140,
      "Ĺ": 141,
      "ĺ": 142,
      "Ļ": 143,
      "ļ": 144,
      "Ľ": 145,
      "ľ": 146,
      "Ŀ": 147,
      "ŀ": 148,
      "Ł": 149,
      "ł": 150,
      "Ń": 151,
      "ĠÐ": 152,
      "Ð¾": 153,
      "Ðµ": 154,
      "Ð°": 155,
      "ÑĤ": 156,
      "Ð¸": 157,
      "Ð½": 158,
      "Ñģ": 159,
      "ÑĢ": 160,
      "Ð¾Ð": 161,
      "Ð»": 162,
      "Ñĥ": 163,
      "Ñĭ": 164,
      "ÐµÐ": 165,
      "Ð°Ð": 166,
      "ÑĮ": 167,
      "Ñı": 168,
      "ĠÑģ": 169,
      "ĠÐ²": 170,
      "ĠÐ¿": 171,
      "Ð²": 172,
      "Ð´": 173,
      "ĠÐ½": 174,
      "Ðº": 175,
      "Ñĩ": 176,
      "Ñħ": 177,
      "ĠÐ¼": 178,
      "ÑģÑĤ": 179,
      "Ð¾Ð¹": 180,
      "ÐµÐ½": 181,
      "Ð¼": 182,
      "Ñİ": 183,
      "ĠÑĤ": 184,
      "ÑĪ": 185,
      "ÐµÑĤ": 186,
      "Ð¹": 187,
      "Ð½Ñĭ": 188,
      "ĠÐ´": 189,
      "ĠÐ¾": 190,
      "ĠÐ±": 191,
      "Ð¾Ð»": 192,
      "Ð¾Ð²": 193,
      "Ð°Ð»": 194,
      "ĠÐ¸": 195,
      "ÑĥÐ": 196,
      "ĠÐº": 197,
      "ÐµÑĢ": 198,
      "ĠÐĺ": 199,
      "Ð¾ÑĢ": 200,
      "ÐµÐ»": 201,
      "Ð¸ÑĤ": 202,
      "ĠÐ»": 203,
      "Ð¾Ð¼": 204,
      "ĠÐ³": 205,
      "ĠÐĴ": 206,
      "ÑĨ": 207,
      "Ð¾Ð´": 208,
      "ĠÐ·": 209,
      "ĠÐĿ": 210,
      "ĠÐ¿ÑĢ": 211,
      "Ð¸Ð»": 212,
      "Ð±": 213,
      "ĠÑĢ": 214,
      "ĠÐŁ": 215,
      "Ð¾Ð³": 216,
      "âĢ": 217,
      "Ð·": 218,
      "ĠÐ¡": 219,
      "Ð°Ñģ": 220,
      "Ð°Ð²": 221,
      "ÐµÐ¼": 222,
      "Ð°ÑĤ": 223,
      "Ð½Ð¸": 224,
      "Ð°ÑĢ": 225,
      "Ð°Ð´": 226,
      "Ð°Ð¼": 227,
      "âĢĶ": 228,
      "ĠĠ": 229,
      "Ð½Ð¾": 230,
      "ÐµÐ´": 231,
      "ÐµÑģ": 232,
      "Ð½ÑĭÐ¹": 233,
      "ĠâĢĶ": 234,
      "Ð¿": 235,
      "Ð°Ðº": 236,
      "ÐµÐ¹": 237,
      "Ð³": 238,
      "ÑģÑı": 239,
      "Ð¾Ñģ": 240,
      "ĠÑĥ": 241,
      "Ð°Ð½": 242,
      "..": 243,
      "ĠÐļ": 244,
      "Ð¾ÑĤ": 245,
      "ĠÑģÑĤ": 246,
      "Ð¾Ð½": 247,
      "ĠÐ¢": 248,
      "ĠÐŀ": 249,
      "Ð¸Ð½": 250,
      "ĠÑĩ": 251,
      "Ð¾Ðº": 252,
      "Ð¸Ð²": 253,
      "Ð½Ð¾Ð¹": 254,
      "ĠÐ¶": 255,
      "Ñī": 256,
      "ÐµÐ²": 257,
      "ĠÐ½Ð°": 258,
      "ĠÐ½Ðµ": 259,
      "ĠĊ": 260,
      "ÐµÑĩ": 261,
      "Ð¸Ñħ": 262,
      "ĠÑı": 263,
      "ÑĢÑĥÐ": 264,
      "ÐµÐ½ÑĮ": 265,
      "ÑĥÐ´": 266,
      "Ð½Ð°": 267,
      "Ð¾Ð±": 268,
      "Ð°Ð·": 269,
      "Ð¾ÑģÑĤ": 270,
      "ÐµÐ·": 271,
      "ĠÑģÐ²": 272,
      "ÑĤÐ¾": 273,
      "ÐµÐ±": 274,
      "ÑĭÐ¹": 275,
      "Ð¶": 276,
      "ĠÐľ": 277,
      "Ð¸Ð¼": 278,
      "ĠÑģÐ»": 279,
      "Ð¸ÑĢ": 280,
      "Ð½Ðµ": 281,
      "ĠÐµ": 282,
      "ÐµÐ³": 283,
      "ĠÐĶ": 284,
      "Ð¾Ñİ": 285,
      "Ð¾Ð·": 286,
      "ÑĥÑĤ": 287,
      "ÐµÐ¶": 288,
      "ÐµÑģÑĤ": 289,
      "čĊ": 290,
      "Ð»Ð¸": 291,
      "Ð¸Ð´": 292,
      "ÑıÑĤ": 293,
      "ĠĠĠĠ": 294,
      "ĠÐĳ": 295,
      "ÐºÐ¸": 296,
      "Ð¾Ð¶": 297,
      "ÑİÐ±": 298,
      "ÑĢÐ°": 299,
      "ÑĢÑĥÐ³": 300,
      "Ð¾Ñĩ": 301,
      "ĠÐ¾ÑĤ": 302,
      "Ð°ÑĤÑĮ": 303,
      "ĠÐĵ": 304,
      "ĠÐĹ": 305,
      "ÑĪÑĮ": 306,
      "ÑģÑĮ": 307,
      "ÑĥÑĪ": 308,
      "ĠÑħ": 309,
      "Ð°Ð±": 310,
      "ĠÑĥÐ": 311,
      "ĠÐ³ÑĢ": 312,
      "ÑĥÐ¼": 313,
      "ÐµÐº": 314,
      "Ð½Ñĥ": 315,
      "ÐºÐ°": 316,
      "Ð°Ð¶": 317,
      "Ð¾Ð³Ð¾": 318,
      "Ġ.": 319,
      "Ð´Ð°": 320,
      "ĠÐºÑĢ": 321,
      "ĠÐĲ": 322,
      "Ð»Ñı": 323,
      "ÐµÐ»ÑĮ": 324,
      "ĠÐŁÑĢ": 325,
      "Ð°Ð¹": 326,
      "Â«": 327,
      "ĠÂ«": 328,
      "Â»": 329,
      "Ð°ÑģÑĤ": 330,
      "ĠÐ¾Ð½": 331,
      "ĠÐ£": 332,
      "ÑĭÐ»": 333,
      "ĠÑĤÑĭ": 334,
      "ĠÐĿÐ¾": 335,
      "ĠÐ»ÑİÐ±": 336,
      "ĠÐĿÐµ": 337,
      "ĠÑĨ": 338,
      "ĠÐ¯": 339,
      "ĠÑģÐº": 340,
      "ÑĥÑĩ": 341,
      "ĠÐ²Ñģ": 342,
      "ĠÐ¿Ð¾": 343,
      "Ð¸Ð¹": 344,
      "Ð°Ñı": 345,
      "Ð½ÑĭÑħ": 346,
      "ÐµÐ¿": 347,
      "...": 348,
      "ÑģÐº": 349,
      "Ð¸ÑĤÑĮ": 350,
      "ĠÐ¾Ð±": 351,
      "Ð°Ð¼Ð¸": 352,
      "ĠÐĽ": 353,
      "Ð°Ñħ": 354,
      "ĠÐ§": 355,
      "Ð´Ðµ": 356,
      "ĠÐ¼Ð½Ðµ": 357,
      "ĠÐ¼Ð¾": 358,
      "Ð¾Ð»ÑĮ": 359,
      "ĠÐ»Ð¸": 360,
      "ĠÐ¿Ð¾Ð´": 361,
      "Ð°Ð»Ð¸": 362,
      "ÑĨÐ°": 363,
      "ĠÐĿÐ°": 364,
      "ÑĮÑı": 365,
      "ÑģÑĤÐ²": 366,
      "ĠÑĪ": 367,
      "ĠÑĤÐ²": 368,
      "ÐµÑĨ": 369,
      "Ð¾Ð¿": 370,
      "ĠÐł": 371,
      "Ð°Ð³": 372,
      "ÑĭÑħ": 373,
      "Ð°ÐµÑĤ": 374,
      "ĠÐ¼Ð¾Ð»": 375,
      "Ð³Ð¾": 376,
      "Ð¸Ðº": 377,
      "ĠÑĤÑĢ": 378,
      "ÑĥÑģÑĤ": 379,
      "Ð½ÑĭÐµ": 380,
      "ĠÐ²Ñĭ": 381,
      "Ġ<": 382,
      "Ð»Ð°Ð´": 383,
      "Ð²Ð¸": 384,
      "ĠÐ³Ð¾ÑĢ": 385,
      "ĠÐ¸Ð·": 386,
      "Ð¾Ð³Ð´Ð°": 387,
      "Ð½Ð¸Ðº": 388,
      "ĠÑĢÐ°Ð·": 389,
      "ĠÐ¿Ð»": 390,
      "ĠÐ¿Ð¾Ð»": 391,
      "ĠÐ±ÑĢ": 392,
      "Ð°Ð¿": 393,
      "Ð°Ð»ÑĮ": 394,
      "ĠÑģÐ¼": 395,
      "ĠÐ³Ð»": 396,
      "Ð¸Ð·": 397,
      "ÐµÐ½Ð½ÑĭÐ¹": 398,
      "ÑĥÐ¶": 399,
      "ĠÐºÐ°Ðº": 400,
      "ÑĦ": 401,
      "ÑĥÐº": 402,
      "Ñį": 403,
      "ĠÐķ": 404,
      "ĠÐ²Ð·": 405,
      "ÐºÐ¾": 406,
      "ÐµÑĢÐ´": 407,
      "ÐµÐ½Ñı": 408,
      "ÑĥÑĢ": 409,
      "ÐµÐ½ÑĮÑı": 410,
      "ĠÐ´ÑĢÑĥÐ³": 411,
      "ĠÐ·Ð°": 412,
      "ĠÐ¢Ñĭ": 413,
      "ĠÐļÐ°Ðº": 414,
      "ÑĮÑİ": 415,
      "ĠÑĨÐ°ÑĢ": 416,
      "ĠÑĤÐµÐ±": 417,
      "Ð½Ñı": 418,
      "Ð»Ð°": 419,
      "ĠÐ¡ÑĤ": 420,
      "Ġ[": 421,
      "Â».": 422,
      "ĠÐ¼Ð¸Ð»": 423,
      "ĠÑģÑĤÑĢ": 424,
      "ÑĥÐ¿": 425,
      "Ð½Ð¾Ð²": 426,
      "ÑĥÑİ": 427,
      "ÑĭÐµ": 428,
      "Ð½ÑĭÐ¼": 429,
      "ÐµÑĢÑĤ": 430,
      "ĠÐ¿ÑĢÐ¸": 431,
      "ĠÐ¼Ð¾Ð¹": 432,
      "ÑĥÐ±": 433,
      "ĠÐ±ÐµÐ·": 434,
      "ÑĩÐ°ÑģÑĤ": 435,
      "ĠÐ±Ð»": 436,
      "ÐµÐ»Ð¸": 437,
      "ÐµÑĪ": 438,
      "ÑĭÐ²": 439,
      "ÑĭÐ¼": 440,
      "Ð»Ð¸Ð²": 441,
      "Ð¾ÑģÐ»": 442,
      "ĠÐŀÐ½": 443,
      "Ð°ÑĪ": 444,
      "ĠĠĠĠĠĠĠĠ": 445,
      "ÐµÑĪÑĮ": 446,
      "Ð¾Ñħ": 447,
      "ĠÐĴÑģ": 448,
      "Ð»ÑĮ": 449,
      "Ð°Ð»Ð°": 450,
      "ÑĭÑĪ": 451,
      "ĠÑĥÐ¶": 452,
      "Ð°Ñİ": 453,
      "ÑĭÑĤ": 454,
      "ĠÐ½Ð°Ð´": 455,
      "ĠÐ±ÑĭÐ»": 456,
      "Ð¾ÑģÑĤÐ¸": 457,
      "ÑĥÑħ": 458,
      "ĠÐ¿ÐµÑĢ": 459,
      "ĠÐ¿Ð¾Ðº": 460,
      "ĠÐ½Ð°Ñģ": 461,
      "ĠÐµÐ³Ð¾": 462,
      "ĠÐ¾Ð´": 463,
      "ÐµÑģÑĮ": 464,
      "Ġd": 465,
      "ĠÐ²Ð¾Ð»": 466,
      "Ð¸ÑģÑĤ": 467,
      "Ð½Ð¾Ð³Ð¾": 468,
      "Ð¾Ðµ": 469,
      "ĠÐ´ÑĥÑĪ": 470,
      "ĠÐ¿ÑĢÐµÐ´": 471,
      "Ð°Ð½ÑĮ": 472,
      "Ð½Ð¾Ð¼": 473,
      "ĠÐ·Ð°Ð±": 474,
      "Ð»Ñİ": 475,
      "Ð½Ð°Ñı": 476,
      "ĠÐŀÑĤ": 477,
      "Ð¸Ð»Ð¸": 478,
      "Ð¸ÑĪÑĮ": 479,
      "ÑģÑĤÑĢ": 480,
      "ĠÐ»ÑĮ": 481,
      "ĠÑģÐ²ÐµÑĤ": 482,
      "ĠÐ§ÑĤÐ¾": 483,
      "er": 484,
      "ĠÑģÐµÑĢÐ´": 485,
      "ĠÑĥÐ¼": 486,
      "ĠÐ¥": 487,
      "ÑĢÐ°Ñģ": 488,
      "ÐµÐ³Ð¾": 489,
      "ĠÐ²ÑģÐµ": 490,
      "Ð¸ÑĤÑģÑı": 491,
      "Ð¸Ð»Ð°": 492,
      "ĠÑģÐ¿": 493,
      "ĠÐ²Ð¾": 494,
      "ĠÐ¼ÐµÐ½Ñı": 495,
      "ÐºÑĥ": 496,
      "ÐµÐ½ÑĮÐµ": 497,
      "Ð¸Ñı": 498,
      "Ð¸Ñĩ": 499,
      "ÑĢÐ°Ð²": 500,
      "ĠÑĩÑĤÐ¾": 501,
      "Ð½Ð¾Ñİ": 502,
      "ĠÑģÐ²Ð¾": 503,
      "Ð¸ÑĪ": 504,
      "ÑįÑĤ": 505,
      "Ð½ÐµÐ¹": 506,
      "ĠÐ½Ð¾Ñĩ": 507,
      "ÑĥÐ´ÑĮ": 508,
      "ĠÐ´ÑĢÑĥÐ": 509,
      "ĠÐ¸Ñħ": 510,
      "ĠÑģÑĤÐ°ÑĢ": 511,
      "ÐºÐ¸Ð¹": 512,
      "ĠÐ°": 513,
      "ÐµÑī": 514,
      "ÐºÐ¾Ð¹": 515,
      "Ð¸Ð»ÑģÑı": 516,
      "Ð°ÑģÑĮ": 517,
      "Ã©": 518,
      "ĠÐ½Ð°ÑĪ": 519,
      "ĠÐºÑĢÐ°Ñģ": 520,
      "ĠÐ±ÐµÑģ": 521,
      "Ġl": 522,
      "ÑĨÐµ": 523,
      "ĠÐ¿Ð¾ÑĢ": 524,
      "ĠÑģÐ»Ð°Ð²": 525,
      "ĠÐ¼ÐµÑĩ": 526,
      "ĠÐĵÐ´Ðµ": 527,
      "Ð»Ð¾Ð½": 528,
      "Ð²ÐµÑĤ": 529,
      "ea": 530,
      "ĠÑĥÑĤ": 531,
      "**": 532,
      "ĠÐ±Ð¾Ð³": 533,
      "ĠÑĤÐ²Ð¾": 534,
      "ĠÐ½ÐµÐ±": 535,
      "ÑĢÐµÐ¼": 536,
      "ĠÐ²ÐµÑģ": 537,
      "ĠÐ¼Ð¸ÑĢ": 538,
      "ĠÐ¼Ñĭ": 539,
      "ÑĨÑĭ": 540,
      "ĠÐļÐ¾Ð³Ð´Ð°": 541,
      "ÑĥÑģ": 542,
      "ĠÐ²Ð¸Ð´": 543,
      "ÐµÐ½Ð¸": 544,
      "Ġs": 545,
      "ĠÐ±ÑĥÐ´": 546,
      "ĠÐŁÐ¾Ð´": 547,
      "en": 548,
      "ai": 549,
      "Ð´Ñĥ": 550,
      "ĠÐ·Ð»": 551,
      "Ð¾ÑģÐ¿": 552,
      "Ġp": 553,
      "ĠÐ²ÐµÑĢ": 554,
      "Ð²Ð¾ÑĢ": 555,
      "Ð»ÐµÐ½": 556,
      "ĠÑģÑĤÑĢÐ°": 557,
      "ĠÐ¿ÐµÑĩ": 558,
      "ĠÐ¼Ð¾ÑĢ": 559,
      "ĠÐ»ÐµÑĤ": 560,
      "ĠÑĤÐ°Ðº": 561,
      "ĠÑĤÐ¸Ñħ": 562,
      "Ð½Ð¸Ð¼": 563,
      "ÑīÐµ": 564,
      "ĠÐ´Ð¾Ð»": 565,
      "ĠÐ·Ð²": 566,
      "Ð½Ð¸Ð¹": 567,
      "Ð½ÑĥÐ»": 568,
      "ĠÐĴÑģÐµ": 569,
      "ĠÐ²Ð¾Ð·": 570,
      "Ð¾Ð´Ð¸ÑĤ": 571,
      "es": 572,
      "ĠÐ¤": 573,
      "ÑĢÐ°Ð´": 574,
      "ĠÐ½ÐµÐ²": 575,
      "ĠÐ£Ð¶": 576,
      "ĠÐ½Ð¸Ð¼": 577,
      "ĠÐ¶Ðµ": 578,
      "ĠÐĹÐ°": 579,
      "Ð¾ÑĪ": 580,
      "ĠÐ½Ð¸": 581,
      "Ð¸ÑĤÐµ": 582,
      "Ð°Ð¶Ð´": 583,
      "ĠÐ¾Ñĩ": 584,
      "Ð¾Ð±ÑĢ": 585,
      "ĠÑģÐ»Ð°Ð´": 586,
      "ĠÑĤÐµÐ±Ñı": 587,
      "Ð¸Ðµ": 588,
      "ÑĥÑĤÑĮ": 589,
      "ĠÐ¼Ð¾Ð»Ð¾Ð´": 590,
      "ĠÐ¿ÑĥÑģÑĤ": 591,
      "ÐµÑĤÑģÑı": 592,
      "ĠÑģÑĩÐ°ÑģÑĤ": 593,
      "ĠÑĤÐµÐ¼": 594,
      "Ð¾Ð²Ð¾ÑĢ": 595,
      "ĠÑĢÑĥÐº": 596,
      "an": 597,
      "ĠÐ»ÑİÐ±Ð²Ð¸": 598,
      "ÐµÑİ": 599,
      "ÐµÐ»Ð°": 600,
      "Ð½Ð¾ÑģÑĤ": 601,
      "ĠÑĥÑģ": 602,
      "ÑĭÐ±": 603,
      "ĠÐºÐ¾Ð½": 604,
      "ĠÑĪÑĥÐ¼": 605,
      "ĠÐ½ÐµÑĤ": 606,
      "ĠÐ´Ð»Ñı": 607,
      "Ð¸ÑĤÐµÐ»ÑĮ": 608,
      "ĠÐ³Ð¾Ð»": 609,
      "Ð¾Ð´Ñĭ": 610,
      "Ð°Ð½ÑĮÑı": 611,
      "ĠÐ»ÑİÐ±Ð¾Ð²": 612,
      "ĠÑĤÐ²Ð¾Ð¹": 613,
      "ÐµÑĢÑĮ": 614,
      "ĠÐ¡Ðº": 615,
      "ĠÐ¶Ð¸Ð·": 616,
      "ÑĥÐ³": 617,
      "ĠÑĢÐ°Ð´": 618,
      "Ð½ÑĥÑİ": 619,
      "ÐµÐ½Ð½Ð¾Ð¹": 620,
      "ĠÐ±Ñĭ": 621,
      "ĠÐ¸Ð¼": 622,
      "Ð¸Ñģ": 623,
      "ĠÐ²ÐµÑĩ": 624,
      "ĠÐµÐµ": 625,
      "ĠÑĤÐµÐ±Ðµ": 626,
      "ÑĭÐ½": 627,
      "ĠÐ²Ð´": 628,
      "âĢĻ": 629,
      "Ð²Ð¾": 630,
      "ou": 631,
      "ĠÑİ": 632,
      "Ð»ÐµÑĤ": 633,
      "ĠÐĴÐ¾ÑĤ": 634,
      "Ð°Ð»ÑģÑı": 635,
      "ĠÐŁÐ¾": 636,
      "sp": 637,
      "ĠÐ²Ð°Ñģ": 638,
      "ĠÐ¼Ð¾Ð³": 639,
      "ÑģÑĤÐ°Ð²": 640,
      "ĠÐ¿Ð¾ÑģÐ»": 641,
      "ÑĢÐ°Ñĩ": 642,
      "ĠÐ¼Ð¾ÐµÐ¹": 643,
      "ĠÑĤÐ¾Ð¼": 644,
      "ÐµÐ¼Ñĥ": 645,
      "ĠÐ²Ð·Ð¾ÑĢ": 646,
      "ker": 647,
      "Ð²Ð°": 648,
      "eaker": 649,
      "speaker": 650,
      "ÑĢÐµÐ´": 651,
      "ĠÐ½Ð°Ð¼": 652,
      "ÐºÑĢ": 653,
      "</": 654,
      "ĠÐĸ": 655,
      "ĠÑĤÐ¾Ð±": 656,
      "Ð¶Ñĥ": 657,
      "ÑĤÐµ": 658,
      "ĠÐºÑĢÐ¾Ð²": 659,
      "ĠÐ¿Ð¾ÑĤ": 660,
      "ĠÑģÑĤÐ¸Ñħ": 661,
      "ÐºÐµ": 662,
      "ĠÐ¾Ñģ": 663,
      "ĠÐ¾Ð¿": 664,
      "ÑıÑĤÑĮ": 665,
      "ĠÐ³ÑĢÐ¾Ð·": 666,
      "on": 667,
      "Ð¸ÑĨÐ°": 668,
      "ĠÐ¼ÐµÑĩÑĤ": 669,
      "Ð´ÐµÑģÑĮ": 670,
      "ĠÐ½ÐµÐ¶": 671,
      "ĠÐ´ÐµÐ²": 672,
      "Ð½Ð¾Ðµ": 673,
      "Ð°Ð½ÑĮÐµ": 674,
      "Ð³ÑĢ": 675,
      "Ð¾ÑģÑĤÑĮ": 676,
      "ĠÑĥÐ³": 677,
      "ÑĭÑĤÑĮ": 678,
      "Ð¸ÑģÑĮ": 679,
      "Ð´ÐµÑĤ": 680,
      "ÐºÐ¾Ð²": 681,
      "Ð¼Ñĥ": 682,
      "ĠÐ¾Ð½Ð°": 683,
      "Ð¾Ñı": 684,
      "ÑĥÐ²": 685,
      "ÑıÑī": 686,
      "ÐµÑħ": 687,
      "ÑĥÐ·": 688,
      "ĠÐ³Ð´Ðµ": 689,
      "ĠÐĴÑĭ": 690,
      "ĠÐ¢Ð°Ðº": 691,
      "ĠÐ¶Ð¸Ð²": 692,
      "Ð¸Ð½Ðµ": 693,
      "ĠÐ¦": 694,
      "ÑĢÑı": 695,
      "ĠÐ¿Ð¾Ð²": 696,
      "ĠÑĤÐ°Ð¼": 697,
      "Ġm": 698,
      "ÑĥÐ»": 699,
      "ĠÑģÐ°Ð¼": 700,
      "ĠÑģÐ¾Ð½": 701,
      "Ð°Ð»Ð¾": 702,
      "ĠÐ¿ÑĢÐ°Ð²": 703,
      "ĠÑĢÐ°Ñģ": 704,
      "ĠÑĥÐ´": 705,
      "ĠÐµÐ¹": 706,
      "Ġ>": 707,
      "Ð°Ñĩ": 708,
      "ÑĢÐ°ÑĤ": 709,
      "ĠÑĩÐµÑĢ": 710,
      "ĠÐĽÑİÐ±": 711,
      "qu": 712,
      "Ð¾Ñī": 713,
      "ĠÐ½Ð°Ð¿": 714,
      "te": 715,
      "ĠÐ¼Ð»Ð°Ð´": 716,
      "Ñĳ": 717,
      "Ġ-": 718,
      "Ð¾Ð´Ð°": 719,
      "ĠÑĩÐ°Ñģ": 720,
      "!Â»": 721,
      "Ð¸Ð½Ñĭ": 722,
      "Ð¸Ð±": 723,
      "Ð½ÑĮ": 724,
      "Ð¾ÑĢÐ³": 725,
      "re": 726,
      "ÑĥÐ¹": 727,
      "ĠÑģÐµÐ±": 728,
      "ĠÐ²Ð°ÑĪ": 729,
      "ĠÐĺÐ·": 730,
      "ÑıÑģÑĮ": 731,
      "Ð²Ð¾Ð¹": 732,
      "ĠÐ½ÐµÐ¼": 733,
      "ÑĥÐ¶Ð´": 734,
      "ÑĥÐµÑĤ": 735,
      "ĠÐ·Ð°Ð²": 736,
      "ĠÐĶÐ°": 737,
      "ĠÑħÐ¾Ð»": 738,
      "ĠÐ´ÐµÐ½ÑĮ": 739,
      "ĠÐ·Ð½": 740,
      "....": 741,
      "ĠÑģÐ»ÐµÐ·": 742,
      "ĠÐ¿Ð¾ÑįÑĤ": 743,
      "ĠÐ´ÑĢÑĥÐ¶": 744,
      "?Â»": 745,
      "ÐµÐ½Ð¸Ð¹": 746,
      "ĠÐ²ÐµÑĤ": 747,
      "ĠÐ¼Ð¾Ð¶": 748,
      "ÐµÐ½Ð°": 749,
      "ÑĨÑĥ": 750,
      "ĠÐŀÐ´": 751,
      "ĠÐ¼Ð¾Ð»Ñĩ": 752,
      "ĠÑģÐ¾Ð±": 753,
      "Ð¾Ð»Ð¿": 754,
      "ĠÐ´ÑĢÑĥÐ·": 755,
      "il": 756,
      "Ð½ÐµÑĤ": 757,
      "ĠÑĤÐ¸ÑĪ": 758,
      "ĠÐ±ÐµÑĢ": 759,
      "Ð¾Ð¼Ñĥ": 760,
      "!..": 761,
      "ĠÐ¿Ð¾Ð¼": 762,
      "ĠÐ±Ð»Ð°Ð³": 763,
      "Ġc": 764,
      "ĠÑģÐ¾": 765,
      "ĠÑĤÐ¾": 766,
      "ĠÑĥÐ¿": 767,
      "Ð°ÑİÑĤ": 768,
      ">,": 769,
      "Ġa": 770,
      "ÑĢÐ¸": 771,
      "ÑıÐ¼": 772,
      "ĠÐ½ÐµÑģ": 773,
      "ĠÐ´Ð¾": 774,
      "ĠÐ»Ð¸ÑĢ": 775,
      "Ð¸Ð½Ð°": 776,
      "ĠÐ¿ÐµÑĩÐ°Ð»ÑĮ": 777,
      "ÑĬ": 778,
      "ĠÐŃ": 779,
      "Ð»Ð¾": 780,
      "ĠÐ½Ð°ÑĢ": 781,
      "ÐºÐ¾Ð¼": 782,
      "Ð¾ÑģÐº": 783,
      "Ð¾Ð»ÑĮÐºÐ¾": 784,
      "et": 785,
      "ĠÐ²Ð»": 786,
      "Ð²ÐµÑĢ": 787,
      "Ð¾ÐºÐ¾Ð¹": 788,
      "ÐºÐ¸Ðµ": 789,
      "ÐµÑĤÑĮ": 790,
      "ĠÐļÑĤÐ¾": 791,
      "Ġde": 792,
      "Ð¸Ð¿": 793,
      "ÑģÐºÐ¸Ð¹": 794,
      "ÑĢÐ°Ð½": 795,
      "ĠÐ²ÐµÐ½": 796,
      "Ð¾Ð²Ð¾Ð¹": 797,
      "ÐµÐ»Ð¾": 798,
      "ĠÑģÐ²Ð¾Ð¹": 799,
      "ÑĥÐ´ÑĮÐ±": 800,
      "Ð¡": 801,
      "ĠÐ¿ÐµÐ²": 802,
      "ĠÐ¿Ð¾Ð·": 803,
      "ĠÐĿÐ°Ð´": 804,
      "ĠÐ¡Ð¿": 805,
      "ÐŁ": 806,
      "ĠÐ¼ÑĥÐ·": 807,
      "ÐµÐ»ÐµÑģÑĤ": 808,
      "ĠÐ¨": 809,
      "Ð²Ñĭ": 810,
      "ĠÐ½Ð¾": 811,
      "ĠÐ»ÐµÑģ": 812,
      "âĢĶâĢĶ": 813,
      "ĠÑģÐ²Ð¾Ð±": 814,
      "Ð»ÑıÐ´": 815,
      "ĠÑģÐ¼ÐµÑĢÑĤ": 816,
      "<?": 817,
      "ĠÐ´ÑĥÐ¼": 818,
      "ĠÐ±ÐµÐ´": 819,
      "Ð¾Ð²Ð°": 820,
      "ĠÐºÑĤÐ¾": 821,
      "ĠÐ¿ÑĢÐµÐº": 822,
      "Ð¾ÑģÑĮ": 823,
      "ĠÐ±ÑĢÐ°ÑĤ": 824,
      "ÑĮÐ¼": 825,
      "ĠÐ¿Ð¸ÑĢ": 826,
      "ĠÐ´Ð¾Ð¼": 827,
      "ĠÐºÐ¾ÑĢ": 828,
      "ĠÐľÐ½Ðµ": 829,
      "ĠÐ½ÐµÐ±ÐµÑģ": 830,
      "Ð¸Ð¸": 831,
      "ĠÐ½ÐµÐ¹": 832,
      "Ð¸ÑĤÑĮÑģÑı": 833,
      "ĠÐ¼Ð¸Ð»ÑĭÐ¹": 834,
      "ÐµÑı": 835,
      "Ð½ÐµÐ¼": 836,
      "Ð²Ð°Ð»": 837,
      "ĠÐĴÐ¾": 838,
      "ĠÐĴÐ·": 839,
      "ĠÐ±ÐµÑĢÐµÐ³": 840,
      "eu": 841,
      "ĠÑĦ": 842,
      "ÑģÐ»Ð¸": 843,
      "ÑĢÐ°Ðº": 844,
      "Ð°ÐºÐ¾Ð½": 845,
      "ĠÑģÐµÑĢÐ´ÑĨÐµ": 846,
      "ÑĥÐ²ÑģÑĤÐ²": 847,
      "ĠÐ¿ÐµÑģ": 848,
      "ĠÐ±ÐµÐ»": 849,
      "ĠÐ¸Ñģ": 850,
      "ĠÐĺÐ»ÑĮ": 851,
      "ĠÐŀÐ½Ð°": 852,
      "ĠÑĥÐ·": 853,
      "ĠÐŁÑĢÐµÐ´": 854,
      "ĠÑģÑĩÐ°ÑģÑĤÐ»Ð¸Ð²": 855,
      "ĠÑį": 856,
      "ĠÐ²Ð°Ð¼": 857,
      "ÑİÑĤ": 858,
      "ĠÐ·Ð¾Ð»": 859,
      "ĠÐ¿ÑĢÐ¾ÑģÑĤ": 860,
      "Ð¾ÐºÑĢ": 861,
      "ÑĥÐ´Ð°": 862,
      "ĠÐĳÐ»": 863,
      "Ð¾Ð¶Ð´": 864,
      "ĠÐ½Ð°ÑģÐ»": 865,
      "Ð¸Ð³": 866,
      "Ð¼Ð¾Ð»": 867,
      "ĠÑĢÐ¾Ð´": 868,
      "ĠÑĥÐ½Ñĭ": 869,
      "Ð¾ÑĤÑĮ": 870,
      "ÐµÐ¶Ð¸ÑĤ": 871,
      "ĠÐ³Ð¾ÑĢÐ´": 872,
      "ÐµÐµ": 873,
      "ĠÐ¿Ð¾Ñģ": 874,
      "ĠÐºÑĢÑĥÐ³": 875,
      "ĠÐ¡Ð¼": 876,
      "ĠÐ¢Ð°Ð¼": 877,
      "ĠÐ¢ÐµÐ±": 878,
      "ĠÐµÐ¼Ñĥ": 879,
      "ĠÐ»Ð¸ÑĪÑĮ": 880,
      "ĠÐ¶Ð¸Ð·Ð½Ð¸": 881,
      "ĠÑĤÐ¾Ð±Ð¾Ð¹": 882,
      "ÐĿ": 883,
      "Ġf": 884,
      "ÑĥÐºÐ¸": 885,
      "ĠÐ·Ð½Ð°": 886,
      "ĠÐ¿ÑĢÐ¸Ð²": 887,
      "ĠÐ¿ÑĢÐµÐ»ÐµÑģÑĤ": 888,
      "Ð¸Ð»Ð°ÑģÑĮ": 889,
      "ĠÐĳÐ¾Ð³": 890,
      "ĠÐĳÐµÐ·": 891,
      "ÐµÐ¿ÐµÑĢÑĮ": 892,
      "Ð½ÑıÐ·": 893,
      "<?>": 894,
      "ÑĥÐ½": 895,
      "ĠÑģÑĥÐ´ÑĮÐ±": 896,
      "ĠÐ½ÐµÐ´": 897,
      "ĠÐ¡Ð»": 898,
      "ĠÐ¡Ð²": 899,
      "Ð°ÑĢÑĮ": 900,
      "Ð¿Ð¾Ð»": 901,
      "ÑĢÑĥÐ¶": 902,
      "ĠÑģÐºÐ¾ÑĢ": 903,
      "Ð¸Ð»Ð¸ÑģÑĮ": 904,
      "ÑĢÐµÐ½": 905,
      "Ð»Ðµ": 906,
      "ÑĥÑī": 907,
      "ĠÐ²ÐµÐº": 908,
      "ĠÑĤÐ°Ð¹": 909,
      "ĠÐ´ÐµÑĢ": 910,
      "Ð½Ð¾Ð²ÑĮ": 911,
      "Ð¸Ð¶Ñĥ": 912,
      "ÑģÐ»": 913,
      "ĠÐ¿Ð¾Ð³": 914,
      "ĠÐ±Ð»Ð¸": 915,
      "Ð°Ð²Ð½Ð¾": 916,
      "Ð°Ð½Ð°": 917,
      "ĠÑģÐºÐ°Ð·": 918,
      "ÐĴ": 919,
      "ÑĥÑģÐº": 920,
      "ÑıÐ´": 921,
      "Ð°Ð½Ð½ÑĭÐ¹": 922,
      "Ġqu": 923,
      "ÑĤÐ¾Ð±": 924,
      "ÑıÐ¶": 925,
      "ĠÑĤÐ¾Ð»Ð¿": 926,
      "Ð¾Ð²ÐµÑĤ": 927,
      "ĠÑĥÐ²": 928,
      "Ð¾ÑĤÑĭ": 929,
      "ĠÐ¢Ð¾": 930,
      "ĠÐŀÐ±": 931,
      "ÑģÐºÐ¾Ð¹": 932,
      "ÑģÐºÐ¸Ñħ": 933,
      "ĠÐłÐ°Ð·": 934,
      "Ð½Ð¾ÑģÑĤÐ¸": 935,
      "Ð»ÑĭÐ±": 936,
      "ĠÐ²Ð¾ÑģÑĤ": 937,
      "ĠÐ²Ð¾ÑģÐ¿": 938,
      "ĠÐ´Ð¾ÑĢ": 939,
      "ĠÐºÐ¾Ð»": 940,
      "ĠÐ³Ð¾Ð²Ð¾ÑĢ": 941,
      "Ð¸Ð»ÑĮ": 942,
      "ĠÑģÐ»ÑĭÑĪ": 943,
      "ÐµÐ¶Ð´": 944,
      "ĠÐ³ÑĢÐ¾Ð¼": 945,
      "ĠÐ³Ð»Ð°Ð²": 946,
      "ÑĥÑı": 947,
      "ÑĭÐ´": 948,
      "ĠÐ²Ð¾Ð´": 949,
      "Ð´Ð¾Ñħ": 950,
      "ĠÐ±ÑĭÑĤÑĮ": 951,
      "ÐµÐ»ÑĭÐ¹": 952,
      "ĠÐĿÐµÑĤ": 953,
      "Ð¸Ð½ÑĥÑĤ": 954,
      "ÐµÑģÑĤÑĮ": 955,
      "ĠÑħÐ»Ð°Ð´": 956,
      "ĠÐ³ÑĢÐ¾Ð±": 957,
      "ĠÑĨÐ²ÐµÑĤ": 958,
      "ĠÐ¼Ð¾Ñı": 959,
      "ĠÐ¿Ð»Ð°Ð¼": 960,
      "ent": 961,
      "ĠÑģÐ»Ð°Ð´Ð¾ÑģÑĤ": 962,
      "ÑĢÐ°Ð³": 963,
      "ĠÐ»ÐµÐ³": 964,
      "ĠÐ·ÐµÐ¼": 965,
      "ÐµÐ½ÑĮÐµÐ¼": 966,
      "ĠÐŁÑĢÐ¸": 967,
      "ÐµÑĢÑĤÐ²": 968,
      "ĠÑģÑĤÑĢÐ°ÑģÑĤ": 969,
      "ĠÐ»ÑİÐ±Ð¾Ð²ÑĮ": 970,
      "ÑĢÐ¾Ð²": 971,
      "ĠÐ½Ð°Ð²": 972,
      "ÑĩÐ¸Ð²": 973,
      "ĠÐ´Ð°": 974,
      "Ð°ÑĢÐ¸": 975,
      "ÐµÐ´Ð¸Ð½": 976,
      "Ð¿ÐµÑĩ": 977,
      "ĠÐ¶ÐµÐ»": 978,
      "ĠÐľÐ¾Ð¹": 979,
      "Ð°Ð¶Ð¸": 980,
      "Ð°Ð¶ÐµÐ½": 981,
      "ÑģÐ¼": 982,
      "ĠÐ¼Ð½Ð¾Ð¹": 983,
      "ĠÐ´Ð¸Ð²": 984,
      "Ð¸Ð½Ñĥ": 985,
      "ĠÐ¶ÐµÐ½": 986,
      "ÐµÐ½ÑĮÑİ": 987,
      "ĠÐ·Ð¾Ð»Ð¾ÑĤ": 988,
      "in": 989,
      "ĠÐ½Ð¾Ð²": 990,
      "ĠÐ¼ÐµÐ¶": 991,
      "ĠÐ¾Ðº": 992,
      "ĠÐ¾Ð³": 993,
      "ĠÐ±ÑĥÑĢ": 994,
      "ĠÐ·Ð´ÐµÑģÑĮ": 995,
      "ĠÑĥÐ±": 996,
      "ĠÐ³Ð»Ð°Ð·": 997,
      "ĠÑĥÐ¶Ð°Ñģ": 998,
      "ĠÐ½Ð¾ÑĩÐ¸": 999,
      "Ð½ÑıÐ·ÑĮ": 1000,
      "Ġet": 1001,
      "ÑĭÐ½Ðµ": 1002,
      "ĠÐ²ÑĢÐµÐ¼": 1003,
      "ĠÐ²Ð½Ð¾Ð²ÑĮ": 1004,
      "ĠÐ´Ð°ÑĢ": 1005,
      "ĠÐ¸Ð³ÑĢ": 1006,
      "ÐµÑĢÐº": 1007,
      "ĠÐ·Ð°Ð¼": 1008,
      "ĠÐĿÐ°Ð¿": 1009,
      "ÐµÑģÑĤÐ¸": 1010,
      "Ð½ÑĥÐ²": 1011,
      "ÐµÐ¿ÐµÑĤ": 1012,
      "ĠÐ²Ð¾Ð»Ð½": 1013,
      "ĠÐ±ÑĥÐ´ÐµÑĤ": 1014,
      "ĠÐ¿ÑĢÐµÐºÑĢÐ°Ñģ": 1015,
      "ÑĢÐ¾Ð¼": 1016,
      "ĠÐ¼ÑĢÐ°Ñĩ": 1017,
      "ĠÐ´Ð½Ð¸": 1018,
      "Ð°ÑĤÐµÐ»ÑĮ": 1019,
      "Ð¾Ð½Ð°": 1020,
      "ĠÐ¾Ð´Ð¸Ð½": 1021,
      "ĠÑĤÐ²Ð¾ÐµÐ¹": 1022,
      "ĠÐ½Ð°ÑģÐ»Ð°Ð¶Ð´": 1023,
      "no": 1024,
      "ĠÐ²Ð¾Ñģ": 1025,
      "ĠÐ½ÐµÐ³": 1026,
      "ĠÐķÐ³Ð¾": 1027,
      "ĠÑģÐ²Ð¾ÐµÐ¹": 1028,
      "ait": 1029,
      "ĠÐ·Ð»Ð°ÑĤ": 1030,
      "ĠÐ½ÐµÐ¿": 1031,
      "ĠÐºÐ¾": 1032,
      "ĠÑĩÑĥÐ´": 1033,
      "Ð°Ð·Ð´": 1034,
      "ĠÐ¾ÑĤÐ²": 1035,
      "ĠÐ²Ð¾ÑĢ": 1036,
      "ĠÐ²ÐµÐ»": 1037,
      "ĠÐ¿Ð¾Ñĩ": 1038,
      "ĠÑĢÐ¾Ð·": 1039,
      "ĠÐŁÐ¾Ð»": 1040,
      "ÑĥÐ´ÑĢ": 1041,
      "ĠÐ¼Ð¾Ð¸": 1042,
      "ĠÐ¿ÐµÑĢÐ²": 1043,
      "ĠÑįÑĤ": 1044,
      "ÑıÐ»": 1045,
      "ÑıÑħ": 1046,
      "ĠÐ´ÑĢÐµÐ¼": 1047,
      "ÐµÐ½ÑĮÐ¸": 1048,
      "Ð¸Ð¼Ð¸": 1049,
      "ĠÐĶÐ»Ñı": 1050,
      "ĠÐĹÐ°Ð±": 1051,
      "ĠÐ²Ð´Ð¾Ñħ": 1052,
      "ĠÐ¿Ð¾ÑģÐ»ÐµÐ´": 1053,
      "ĠÐ¼Ð¾Ð¶ÐµÑĤ": 1054,
      "ÑĢÐ¾Ñģ": 1055,
      "ĠÑģÐ¸Ð´": 1056,
      "ĠÑģÐ½Ð¾Ð²": 1057,
      "ĠÐ²Ð¾ÑĤ": 1058,
      "ĠÐ´Ð¾Ð±ÑĢ": 1059,
      "ĠÐ·Ð°ÑĤ": 1060,
      "ĠÐĿÐ¸": 1061,
      "ĠÑĢÐµÐ·": 1062,
      "ĠÐŁÐµÑĢ": 1063,
      "Ð¾ÑģÑģ": 1064,
      "ĠÑĩÐµÐ»": 1065,
      "ĠÑĩÐ°ÑĪ": 1066,
      "ĠÑĩÑĥÐ²ÑģÑĤÐ²": 1067,
      "ĠÐľÑĭ": 1068,
      "ĠĠĠĠĠĠĠĠĠĠĠĠĠĠĠĠ": 1069,
      "ĠÐ´ÑĢÑĥÐ·ÑĮÑı": 1070,
      "ĠÐ²Ð´Ð¾ÑħÐ½Ð¾Ð²": 1071,
      "Ġv": 1072,
      "Ð»ÐµÐ½Ð½ÑĭÐ¹": 1073,
      "Ð¼ÐµÐ½": 1074,
      "ĠÐĴÐ´": 1075,
      "ĠÐĿÐµÐ²": 1076,
      "ĠÑĥÐ»ÑĭÐ±": 1077,
      "ĠÐ²ÐµÑĩÐµÑĢ": 1078,
      "ĠÑģÐ»ÐµÐ·Ñĭ": 1079,
      "ÑĥÑģÐºÐ°Ð¹": 1080,
      "ÑĥÐºÐ°": 1081,
      "ĠÐ¿Ð°ÑĢ": 1082,
      "ĠÐ½Ð¾Ð³": 1083,
      "ĠÐ¼ÐµÐ´": 1084,
      "ĠÐ´Ð²": 1085,
      "ĠÐ´Ð°Ð»ÑĮ": 1086,
      "ĠÐ´Ð½ÐµÐ¹": 1087,
      "ĠÐ·Ð°Ð¿": 1088,
      "ĠÑĥÑģÑĤ": 1089,
      "ĠÑģÑĤÐ¾Ð»": 1090,
      "Ð½ÑĭÐ¼Ð¸": 1091,
      "un": 1092,
      "Ġt": 1093,
      "Ð¸ÑĨ": 1094,
      "ÑĢÐ¾": 1095,
      "ĠÐ½Ð¸Ñħ": 1096,
      "ĠÐ½Ð°Ð³": 1097,
      "ĠÐ¼Ð³": 1098,
      "Ð¼ÑĥÑĢ": 1099,
      "ĠÐ¸Ð»ÑĮ": 1100,
      "ĠÐ¿ÑĢÐ¸Ð·": 1101,
      "Ð°ÐºÐ¾Ð¼": 1102,
      "Ð¾Ð½ÑĮ": 1103,
      "ĠÐ³ÑĢÑĥÑģÑĤ": 1104,
      "ÐºÐ°Ñı": 1105,
      "ÑģÑĤÐ²Ð°": 1106,
      "ÑĭÐ¼Ð¸": 1107,
      "ĠÐ¿ÐµÑĢÐµÐ´": 1108,
      "ĠÐ½Ð¾ÑĩÑĮ": 1109,
      "ĠÐ¼Ð¾ÑĢÐµ": 1110,
      "Ð¢": 1111,
      "ĠÐ²ÐµÐ»Ð¸": 1112,
      "Ð´Ð°Ð»": 1113,
      "ÑģÑĤÑĮ": 1114,
      "ĠÐ¾ÑģÑĤÐ°Ð²": 1115,
      "ĠÐ»ÑĥÑĩ": 1116,
      "ĠÐ·Ð°Ðº": 1117,
      "ĠÐ³ÑĢÑĥÐ´": 1118,
      "ĠÑĤÑĢÑĥÐ´": 1119,
      "ĠÐ³Ð»ÑĥÐ±": 1120,
      "ĠÐ²ÑģÐµÑħ": 1121,
      "ĠÑģÐµÐ±Ðµ": 1122,
      "ĠÐ½Ð°ÑĢÐ¾Ð´": 1123,
      "Ð°Ð½Ð¸": 1124,
      "ÐµÐ½Ð½ÑĭÑħ": 1125,
      "ĠÑĤÐ°": 1126,
      "ĠÑĤÐ¾Ð»ÑĮÐºÐ¾": 1127,
      "ĠÐ´Ð²Ð¾ÑĢ": 1128,
      "Ð¾ÑĤÐ¾ÑĢ": 1129,
      "Ð½Ð¾ÑģÑĤÑĮ": 1130,
      "ÑĢÐµÐ´ÑĮ": 1131,
      "ar": 1132,
      "it": 1133,
      "Ð§": 1134,
      "Ðļ": 1135,
      "ÑĤÐ°Ð½": 1136,
      "Ð½ÑĥÑĤÑĮ": 1137,
      "ĠÑģÐµÐ¹": 1138,
      "ĠÐ²ÐµÐ´": 1139,
      "ĠÐ²ÑģÑĤÑĢ": 1140,
      "ĠÐ¿Ð¾ÑģÑĤ": 1141,
      "ĠÐ¼ÑĥÐ¶": 1142,
      "ĠÐ¼Ð½Ð¾Ñİ": 1143,
      "ĠÑĤÑĮÐ¼": 1144,
      "ĠÐ´Ð°Ð»": 1145,
      "ĠÐ´ÑĥÑħ": 1146,
      "ĠÐ»Ñĥ": 1147,
      "ĠÐ·Ð°Ð´": 1148,
      "ĠÑĢÐµÑĩ": 1149,
      "Ð¾ÑĤÑĢ": 1150,
      "Ð¾ÑĤÐ¾Ð²": 1151,
      "ĠÑģÐ»ÐµÐ´": 1152,
      "ĠÐĵÐ¾ÑĢ": 1153,
      "ĠÐ³Ð»Ð°Ñģ": 1154,
      "ĠÐ¿Ð¾ÐºÐ»Ð¾Ð½": 1155,
      "ĠÐ²ÐµÑģÐµÐ»": 1156,
      "ĠÑģÑĤÑĢÐ°ÑĪ": 1157,
      "is": 1158,
      "Ġj": 1159,
      "ĠÑģÐ½": 1160,
      "ĠÐ¿ÑĭÐ»": 1161,
      "Ð²Ð¸Ð´": 1162,
      "ĠÐ¼ÑĥÑĩ": 1163,
      "Ð¼Ð°Ð½": 1164,
      "ĠÐ´ÑĥÐ±": 1165,
      "ĠÐŁÑĥÑģÐºÐ°Ð¹": 1166,
      "ĠÑĥÐº": 1167,
      "ĠÐµÑģÐ»Ð¸": 1168,
      "Ð°Ð»Ð¸ÑģÑĮ": 1169,
      "ĠÑĨÐ°ÑĢÐµÐ²": 1170,
      "our": 1171,
      "le": 1172,
      "Ġb": 1173,
      "ÑĢÐ°Ð·": 1174,
      "ÑĭÐ¿": 1175,
      "ÑĮÐµ": 1176,
      "ĠÐ²ÐµÑģÑĮ": 1177,
      "ĠÐ¿Ð¾Ð±": 1178,
      "Ð´Ð¸": 1179,
      "ÑĪÐ¸Ð¹": 1180,
      "ĠÐ±Ð¾Ð»": 1181,
      "ĠÐºÐ°Ð¼": 1182,
      "ĠÐ»ÐµÐ½": 1183,
      "ĠÐ·Ð°ÑĢ": 1184,
      "ĠÑĢÐ°Ð²": 1185,
      "Ð½Ð¸Ñħ": 1186,
      "ĠÐ¢Ð²Ð¾Ð¹": 1187,
      "ĠÐĹÐ´ÐµÑģÑĮ": 1188,
      "ĠÐ²ÑģÑĳ": 1189,
      "ÑģÑĤÐ²Ð¾": 1190,
      "ĠÐ³Ð¾Ð»Ð¾Ñģ": 1191,
      "ĠÑģÐµÐ±Ñı": 1192,
      "ĠÑģÐ²Ð¾Ð±Ð¾Ð´": 1193,
      "Ġ(": 1194,
      "ÑĢÑĥ": 1195,
      "ÑĢÐµÐ²": 1196,
      "Ð»ÑĭÐ¹": 1197,
      "ĠÐ²Ð¸Ð¶Ñĥ": 1198,
      "ĠÐ¼ÑĥÐ´ÑĢ": 1199,
      "ÑĪÐµÐ»": 1200,
      "ĠÐ´ÐµÑĤ": 1201,
      "ĠÐ´Ð¾Ñģ": 1202,
      "ĠÐ¾Ð¶": 1203,
      "ĠÑĢÑĭÐ±": 1204,
      "Ð½Ð¸ÑĨÐ°": 1205,
      "Ð½Ð¸ÑĨÑĭ": 1206,
      "ĠÐ¶Ð°ÑĢ": 1207,
      "Ð¾ÑĩÐµÑĤ": 1208,
      "ÐµÐ»ÑĮÐµ": 1209,
      "ĠÐ´ÑĥÑĪÐ¾Ð¹": 1210,
      "ĠÑģÐµÑĢÐ´ÑĨÐ°": 1211,
      "ĠÐ¼Ð¾Ð³Ð¸Ð»": 1212,
      "ĠÐ²Ð¾ÑģÑĤÐ¾ÑĢÐ³": 1213,
      "ÐµÐµÑĤ": 1214,
      "ÑıÐ½": 1215,
      "ĠÑģÐµÐ¼": 1216,
      "ĠÐ²Ð½Ð¸Ð¼": 1217,
      "ÑħÐ¾Ð´Ð¸ÑĤ": 1218,
      "ÐµÐ½Ð½Ð¾": 1219,
      "ÑİÐ¼": 1220,
      "ĠÑĤÐ¾ÑĤ": 1221,
      "ĠÑĤÐµÐ½ÑĮ": 1222,
      "ÑĪÐµ": 1223,
      "ĠÐºÐ°ÑĢ": 1224,
      "ĠÐºÐ¾Ð³Ð´Ð°": 1225,
      "ĠÐ¢Ð²Ð¾": 1226,
      "Ð¸Ð²ÑĭÐ¹": 1227,
      "ĠÑģÐ²Ð¾Ñİ": 1228,
      "ĠÐ¾ÑĤÐ²ÐµÑĤ": 1229,
      "ĠÐ§ÑĤÐ¾Ð±": 1230,
      "ĠÑĤÑĢÐµÐ¿ÐµÑĤ": 1231,
      "ĠÐ²ÑĭÑģ": 1232,
      "Ð²Ð¸Ð¶": 1233,
      "ĠÐ³Ð¾Ð»Ð¾Ð²": 1234,
      "ĠÐ²Ð´ÑĢÑĥÐ³": 1235,
      "ĠÑĥÐ³ÑĢ": 1236,
      "ĠÑħÐ¾Ð»Ð¾Ð´": 1237,
      "ĠÐ´Ð¾ÑĢÐ¾Ð³": 1238,
      "note": 1239,
      "ĠÐ¾ÑģÑĤÑĢ": 1240,
      "ÐµÑĢÐ°": 1241,
      "ĠÐĺÐ»Ð¸": 1242,
      "Ð¾ÑĤÐ²Ð¾ÑĢ": 1243,
      "ĠÑĩÐ¸ÑģÑĤ": 1244,
      "ĠÐĶÑĥÑĪ": 1245,
      "ÐµÑģÑĤÐ²": 1246,
      "Ð¾Ð¶Ðµ": 1247,
      "ĠÐ¾ÑĤÑĢÐ°Ð´": 1248,
      "****": 1249,
      "ĠÑĤÐ¸ÑħÐ¾": 1250,
      "ĠÐ¾ÑĩÐ¸": 1251,
      "ĠÐ¼Ð¾Ð»Ð¾Ð´Ð¾Ð¹": 1252,
      "ĠÑįÑĤÐ¾": 1253,
      "Ðĺ": 1254,
      "Ðŀ": 1255,
      "Ð¸Ñİ": 1256,
      "ĠÐ¿Ð°Ð»": 1257,
      "ĠÐ¸ÑģÐº": 1258,
      "ĠÐŁÐ¾Ðº": 1259,
      "Ð°ÑĤÑĭ": 1260,
      "ĠÐļÐ¾ÑĢ": 1261,
      "ÑĢÐ°ÑģÑĤ": 1262,
      "ĠÐ²ÑģÐµÐ¼": 1263,
      "ĠÐ¼Ð¾Ð»Ð²": 1264,
      "ĠÐ±ÑĢÐ°Ð½": 1265,
      "ĠÑĨÐ°ÑĢÑĮ": 1266,
      "ĠÐ±ÑĭÐ»Ð¾": 1267,
      "ra": 1268,
      "ĠÑģÐ¸Ð»": 1269,
      "ĠÐ¿ÑĥÑĤÑĮ": 1270,
      "ÑħÐ¾Ð´": 1271,
      "ĠÐ¾ÑģÑĤ": 1272,
      "ĠÐ¾Ð·": 1273,
      "ĠÐ³Ð¾Ð½": 1274,
      "ĠÐĴÐµÑģ": 1275,
      "ĠÐ·Ð°Ñģ": 1276,
      "ĠÑĢÑĥÑģ": 1277,
      "ĠÐļÑĢÐ°Ñģ": 1278,
      "ĠÑģÑĤÐ¾": 1279,
      "Ð°ÑĤÑĮÑģÑı": 1280,
      "Ð°Ð¹ÑĤÐµ": 1281,
      "ĠÐłÐ°Ñģ": 1282,
      "ĠÐ±ÑĢÐµÐ³": 1283,
      "Ð¾ÑģÐ»Ð¾Ð²": 1284,
      "ĠÐ´ÑĥÑĪÐ¸": 1285,
      "ĠÐ´ÑĢÑĥÐ¶Ð±": 1286,
      "Ð¼Ð¾Ð»Ð²": 1287,
      "Ð½ÐµÐ²": 1288,
      "ÑĢÐ¸ÑģÑĤ": 1289,
      "Ð»Ð°Ð²": 1290,
      "ĠÐ½ÐµÐ·": 1291,
      "ÑĩÐ¸": 1292,
      "ÑĩÐµÐ½": 1293,
      "ÑĩÐµÐ·": 1294,
      "ĠÑĤÐ¾Ñģ": 1295,
      "ĠÐ±ÐµÐ³": 1296,
      "Ð¾Ð²Ð°Ð»": 1297,
      "ĠÐ³Ð»ÑıÐ´": 1298,
      "ĠÐ¿ÑĢÐ¾Ðº": 1299,
      "ĠÐ¿ÑĢÐµÐ·": 1300,
      "ĠÐ¿ÑĢÐµÐ¶": 1301,
      "ĠÑĢÑĥÑĩ": 1302,
      "ĠÐĶÑĢÑĥÐ³": 1303,
      "ĠÐ¾Ð±ÑĬ": 1304,
      "ĠÑĥÐ¶Ðµ": 1305,
      "Ð½Ð¾Ð¼Ñĥ": 1306,
      "ĠÐ±ÑĥÐ´Ñĥ": 1307,
      "ĠÑĤÐ¾Ð±Ð¾Ñİ": 1308,
      "ĠÑħÐ¾Ð»Ð¼": 1309,
      "ĠÑĤÐ¸ÑĪÐ¸Ð½Ðµ": 1310,
      "Ġil": 1311,
      "Ð°ÐµÑĪÑĮ": 1312,
      "ÑģÐºÐ¸Ðµ": 1313,
      "Ð²Ð¾Ð·": 1314,
      "ÐµÐ½Ð½ÑĭÐµ": 1315,
      "ĠÑĤÐµÑĢ": 1316,
      "ÑĪÐ¸ÑģÑĮ": 1317,
      "ĠÐ´ÑĭÑĪ": 1318,
      "Ð¾Ð»Ð½": 1319,
      "ÑĨÐµÐ¼": 1320,
      "ĠÐ¿ÑĢÐ¾Ñħ": 1321,
      "Ð½Ð¾ÑĪ": 1322,
      "Ð¸Ð½ÑģÑĤÐ²": 1323,
      "ÐµÑĩÐ°ÐµÑĤ": 1324,
      "Ð¸ÑħÐ°": 1325,
      "ĠÑıÑģ": 1326,
      "ĠÐľÐ¾": 1327,
      "ĠÐºÑĢÑĭÐ»": 1328,
      "ĠÐ¼Ð¾Ð¸Ñħ": 1329,
      "ĠÑģÐ¼Ð¸ÑĢ": 1330,
      "ĠÐ±ÐµÐ·ÑĥÐ¼": 1331,
      "ĠÑģÑĤÐ°ÑĢÐ¸Ðº": 1332,
      "ĠÐºÑĢÐ°ÑģÐ°Ð²": 1333,
      "ĠÐºÑĢÐ°ÑģÐ¾ÑĤ": 1334,
      "ĠÑĢÑĥÐºÐ¾Ð¹": 1335,
      "ant": 1336,
      "ĠÐ¿ÐµÐ²ÐµÑĨ": 1337,
      "ĠÐ²ÑĢÐµÐ¼Ñı": 1338,
      "ĠÑī": 1339,
      "ÑĢÐ°Ð¶": 1340,
      "ĠÑģÐ°Ð´": 1341,
      "ĠÐ²Ð¿": 1342,
      "ÑĪÐµÐ±": 1343,
      "ĠÐ¾Ñħ": 1344,
      "ÐµÑĢÐ¶": 1345,
      "ĠÐ³Ð¾ÑģÑĤÐ¸": 1346,
      "ĠÐ·ÑĢ": 1347,
      "ĠÑĢÐ¾Ñī": 1348,
      "ĠÐŁÐ»": 1349,
      "Ð½Ð¾Ñģ": 1350,
      "ĠÐ¢Ð¾Ð³Ð´Ð°": 1351,
      "ĠÑģÐ²ÑıÑĤ": 1352,
      "ĠÐľÐµÐ¶": 1353,
      "Ð»Ð¸ÑģÑĮ": 1354,
      "ĠÐĲÑħ": 1355,
      "Ð°ÑıÑģÑĮ": 1356,
      "ĠÐĽÐ¸ÑĪÑĮ": 1357,
      "ĠÑĤÐ²Ð¾ÑĢ": 1358,
      "ĠÐ¡ÑĤÐ°ÑĢ": 1359,
      "Ġle": 1360,
      "ĠÐ´Ð¾Ð»Ð³Ð¾": 1361,
      "ĠÐ¿ÑĥÑģÑĤÑĭÐ½": 1362,
      "ĠÐ±ÑĭÑģÑĤÑĢ": 1363,
      "ĠÐ¦Ð°ÑĢÑĮ": 1364,
      "ĠÐ½ÐµÑģÑĩÐ°ÑģÑĤ": 1365,
      "ĠÐ²Ð»Ð°ÑģÑĤ": 1366,
      "hea": 1367,
      "ÑĭÐº": 1368,
      "ÑıÐ·": 1369,
      "ĠÑģÑĭ": 1370,
      "ĠÑģÐ¾Ñģ": 1371,
      "ÐºÐ¸Ñħ": 1372,
      "ĠÑĤÑıÐ¶": 1373,
      "ÐµÑĤÐµ": 1374,
      "ĠÐ±Ð¾Ð»ÑĮ": 1375,
      "ÐµÐ»Ðµ": 1376,
      "Ð¾Ð¼Ð¸Ð½": 1377,
      "ĠÐ¿ÑĢÐ°Ð·Ð´": 1378,
      "ĠÐŁÐ°ÑĢ": 1379,
      "Ð½Ð¸Ðµ": 1380,
      "ÐµÐ´ÑĮ": 1381,
      "ĠÐŀÑģÑĤÐ°Ð²": 1382,
      "ĠÐµÑīÐµ": 1383,
      "ÑıÑĤÐµÐ¶": 1384,
      "ĠÑĢÐ°Ð·Ð»": 1385,
      "ĠÐ±Ð»ÐµÐ´": 1386,
      "ĠÐ¥Ð¾ÑĤÑĮ": 1387,
      "ĠÐ±ÐµÑģÐ¿ÐµÑĩ": 1388,
      "ais": 1389,
      "ĠÐ¢ÐµÐ±Ñı": 1390,
      "ÐĶ": 1391,
      "Ð½Ñİ": 1392,
      "Ð´ÑĢÐ°Ð²": 1393,
      "ĠÐ½ÑĭÐ½Ðµ": 1394,
      "ĠÐ¼ÐµÑģÑĤ": 1395,
      "ÐµÐ½Ñĩ": 1396,
      "Ð¼Ð¸": 1397,
      "ĠÑĤÐµÐ¿ÐµÑĢÑĮ": 1398,
      "ÐµÐ»ÐµÐ½": 1399,
      "ĠÐ¿ÑĢÐ¸Ð¼": 1400,
      "ĠÑĥÐµÐ´Ð¸Ð½": 1401,
      "ĠÑģÑĤÐ°Ð½": 1402,
      "Ð¸Ð²Ð¾Ð¹": 1403,
      "ĠÐĵÑĢ": 1404,
      "ÑĭÐ²Ð°Ð»Ð¾": 1405,
      "ĠÐ·Ð°Ð±Ð°Ð²": 1406,
      "ĠÐ½Ð¸Ð¼Ð¸": 1407,
      "ĠÐ¶Ð¸Ð·Ð½ÑĮ": 1408,
      "ĠÐ´ÑĢÑĥÐ·ÐµÐ¹": 1409,
      "head": 1410,
      "ig": 1411,
      "Ð»ÐµÐ´": 1412,
      "Ð²ÐµÑģÑĤ": 1413,
      "ÐºÐ¾Ñİ": 1414,
      "ÐºÑĢÑĥÐ³": 1415,
      "ĠÐ¼ÐµÑĢÑĤÐ²": 1416,
      "ĠÑĤÑĥÐ¼": 1417,
      "Ð¾ÑĢÐ¾Ð½": 1418,
      "ĠÐŁÐ¾ÑĤ": 1419,
      "ÐµÑģÑı": 1420,
      "ĠÐĳÐµÑģ": 1421,
      "Ð»Ð¸Ð²ÑĭÐ¹": 1422,
      "ÐµÑīÐµÑĤ": 1423,
      "ĠÑĤÐ²Ð¾Ð¸": 1424,
      "ĠÑĢÑĥÐºÑĥ": 1425,
      "Ð°ÐºÐ¾Ð½ÐµÑĨ": 1426,
      "ĠÑĢÐµÐ·Ð²": 1427,
      "ĠÐ³ÑĢÑĥÐ´Ð¸": 1428,
      "ÑĤÐ¸": 1429,
      "Ð¸Ñī": 1430,
      "Ð¸ÑĦ": 1431,
      "ÑĢÐµ": 1432,
      "ĠÑģÐµÐ´": 1433,
      "ĠÑģÑĭÐ½": 1434,
      "ĠÐ²ÑĢÐ°Ð³": 1435,
      "Ð´ÑĥÑĤ": 1436,
      "ĠÐ½Ð°Ð¹": 1437,
      "ÑĩÐµÐ¼": 1438,
      "ĠÐ¼ÑĢÐ°Ðº": 1439,
      "ĠÐĺÑģ": 1440,
      "ĠÐĺÑħ": 1441,
      "Ð¾ÑĢÐ¾Ð´": 1442,
      "ĠÐ»Ð°Ð²": 1443,
      "ĠÐ¿ÑĢÐ¸Ð´": 1444,
      "ĠÐ¿ÑĢÐ¾Ñĩ": 1445,
      "ĠÑĢÐµÐº": 1446,
      "Ð¾ÐºÐ¾": 1447,
      "Ð¸ÑħÐ¾Ð¹": 1448,
      "ĠÐľÐµÑĩ": 1449,
      "Ð¸Ð¼Ð¾": 1450,
      "ÐµÐ³Ð´Ð°": 1451,
      "Ð¾Ð·Ð²": 1452,
      "ĠÐ³ÑĢÑĥÐ´ÑĮ": 1453,
      "ĠÐĽÐµÑĤ": 1454,
      "ĠÑĤÑĢÐ¸": 1455,
      "ĠÐ¸Ð·Ð±": 1456,
      "ĠÐ¿Ð»Ð°Ñĩ": 1457,
      "ĠÐķÑīÐµ": 1458,
      "ĠÐĴÑģÑĳ": 1459,
      "ĠÑģÐ²ÐµÑĤÐµ": 1460,
      "Ġla": 1461,
      "ĠÐ¿ÐµÑĩÐ°Ð»Ð¸": 1462,
      "ĠÑĥÐ´Ð°Ð»": 1463,
      "ĠÑĥÐ¿Ð¾": 1464,
      "ĠÐ±Ð»Ð¸Ð·": 1465,
      "ĠÐĴÐ´ÑĢÑĥÐ³": 1466,
      "ĠÑĤÑĮÐ¼Ðµ": 1467,
      "Ð²Ð¾Ð·ÑĮ": 1468,
      ".</": 1469,
      "or": 1470,
      "Ġn": 1471,
      "Ð½Ð°Ñģ": 1472,
      "ÑĢÑĭ": 1473,
      "ÑĢÐµÐ±": 1474,
      "ĠÑģÑĥÐ´": 1475,
      "ĠÑģÐ¸Ñı": 1476,
      "ĠÐ¿Ð¾Ð¶": 1477,
      "ĠÐ¿Ð¾Ð¿": 1478,
      "ĠÐ½Ð¸Ðº": 1479,
      "ĠÐ¼Ð½": 1480,
      "ĠÐ¼Ð°Ð»": 1481,
      "ĠÑĤÐµ": 1482,
      "ĠÐºÐ°Ð·": 1483,
      "ĠÐ»Ñİ": 1484,
      "ĠÐĿÐµÑģ": 1485,
      "ĠÐ¿ÑĢÐ¾Ñģ": 1486,
      "ĠÐ¿ÑĢÐ¾Ð·": 1487,
      "ĠÐ¿ÑĢÐ°Ñħ": 1488,
      "ĠÐŁÑĥÑģÑĤ": 1489,
      "Ð°Ð²ÑĭÐ¹": 1490,
      "ĠÑĩÑĥÐ¶": 1491,
      "ÑĢÑĥÐ·": 1492,
      "ĠÐľÐ¾Ð»": 1493,
      "ÑıÑĤÑģÑı": 1494,
      "ĠÐĹÐ°Ð²": 1495,
      "ÑĥÐ¼ÑĩÐ¸Ð²": 1496,
      "ĠÐłÐ¾ÑģÑģ": 1497,
      "ĠÐ¿Ð»ÐµÐ½": 1498,
      "Ð°Ð½ÑĮÐµÐ¼": 1499,
      "ans": 1500,
      "ĠÑİÐ½Ð¾ÑĪ": 1501,
      "ÑĢÐµÐ´Ð¸": 1502,
      "ĠÑģÐ½Ð¾Ð²Ð°": 1503,
      "Ð»Ð°Ñģ": 1504,
      "ĠÐ¼Ð¸Ð½ÑĥÑĤ": 1505,
      "ÑģÑĤÑĥÐ¿": 1506,
      "ĠÐ¾ÑĢ": 1507,
      "ĠÐ³ÐµÑĢ": 1508,
      "Ð¾Ð´Ð½Ñı": 1509,
      "ĠÐ¿ÑĢÐ¾": 1510,
      "ĠÐ¿ÑĢÐ¾ÑĪ": 1511,
      "ĠÑĢÐ°Ð±": 1512,
      "ĠÐŁÐ¾Ð²": 1513,
      "ĠÐ¡Ð°Ð»": 1514,
      "ÐºÐ°Ñĩ": 1515,
      "ÑģÐºÐ¾Ð³Ð¾": 1516,
      "ĠÐ³Ð»ÑĥÐ¿": 1517,
      "ĠÐ´ÑĢÑĥÐ³Ð°": 1518,
      "ÑĭÐ²Ð°Ð»": 1519,
      "ĠÐ½Ð°Ð´ÐµÐ¶Ð´": 1520,
      "ĠÐ²ÐµÑĢÐ½ÑĭÐ¹": 1521,
      "ĠÑģÑĤÑĢÐ°Ñħ": 1522,
      "ĠÐ·Ð²Ð¾Ð½": 1523,
      "ĠÐ²Ð¾Ð·Ð²": 1524,
      "ĠÐ¿Ð¾ÑĤÐ¾Ð¼": 1525,
      "ĠÐŀÐ´Ð¸Ð½": 1526,
      "ĠÐ¢ÐµÐ±Ðµ": 1527,
      "ĠÐ²ÐµÐ»Ð¸Ñĩ": 1528,
      "Ã¨": 1529,
      "Ðľ": 1530,
      "Ġen": 1531,
      "Ġun": 1532,
      "ĠÑģÐµÑģÑĤ": 1533,
      "ĠÐ½Ð°Ðº": 1534,
      "ĠÐ½Ð¸Ñĩ": 1535,
      "ĠÐ½Ð°ÐºÐ¾Ð½ÐµÑĨ": 1536,
      "ĠÐ¼Ð½Ð¾Ð³Ð¾": 1537,
      "Ð¾Ð²Ð°ÑĤÑĮ": 1538,
      "Ð°Ð»Ð°ÑģÑĮ": 1539,
      "ĠÐºÐ½ÑıÐ·ÑĮ": 1540,
      "Ð¾ÑĢÐ°": 1541,
      "Ð¾ÑĢÐ¾Ð²": 1542,
      "ĠÐŁÐµÑĤ": 1543,
      "ĠÑĩÐµÐ¼": 1544,
      "ÐµÐ²Ð½Ð¸": 1545,
      "ĠÑģÐ»Ð¾Ð²": 1546,
      "Ð¾Ð»ÑĮÐ½Ð¾": 1547,
      "ĠÐ³Ð¾ÑĢÐ¾Ð´": 1548,
      "ĠÐ·Ð°Ð±Ð²": 1549,
      "ÑĢÐ°ÑģÐ½Ð¾": 1550,
      "ĠÐ¾ÑĩÐµÐ¹": 1551,
      "ĠÐ¼ÐµÑĩÑĤÑĭ": 1552,
      "ĠÐĳÐ»Ð°Ð³": 1553,
      "ĠÐ¿Ð¾ÑģÐ»ÐµÐ´Ð½Ð¸Ð¹": 1554,
      "ĠÑĥÐ³ÑĢÑİÐ¼": 1555,
      "],": 1556,
      "Ð½Ð°Ð»": 1557,
      "ÑĢÐ°Ð¼": 1558,
      "Ð»ÐµÐ³": 1559,
      "ĠÑģÐ¾Ð²ÐµÑĤ": 1560,
      "ĠÑĤÐ¾Ð¹": 1561,
      "ÑĪÐ¸": 1562,
      "ĠÐ¾Ð½Ð¸": 1563,
      "Ð¾Ð¼Ð½": 1564,
      "ĠÐ¿ÑĢÐ¾Ð²": 1565,
      "ĠÐ¿ÑĢÐ¸ÑĢ": 1566,
      "ĠÐļÑĢ": 1567,
      "ĠÑģÑĤÐ¾Ð½": 1568,
      "ĠÐŀÐ½Ð¸": 1569,
      "ĠÐŀÐ¿": 1570,
      "Ð¸Ð½Ð¾Ð¹": 1571,
      "ĠÐľÐ°ÑĢ": 1572,
      "ĠÐĳÑĢ": 1573,
      "Ð¾Ð¶Ñĥ": 1574,
      "ĠÐĵÐ¾Ð²Ð¾ÑĢ": 1575,
      "ĠÐ»ÑİÐ±ÐµÐ·": 1576,
      "ĠÑģÐºÑĥÑĩ": 1577,
      "Ð²Ð¸Ð³": 1578,
      "ĠÑĢÐ°Ð·Ð²": 1579,
      "ĠÑĨÐ°ÑĢÐ¸ÑĨÐ°": 1580,
      "ĠÐ±Ð»ÐµÑģ": 1581,
      "Ã©t": 1582,
      "ĠÑģÐ»Ð°Ð²Ñĭ": 1583,
      "ĠÑĢÐ°Ð´Ð¾ÑģÑĤÐ¸": 1584,
      "Ð§ÑĤÐ¾": 1585,
      "ĠÑģÐ½ÐµÐ³": 1586,
      "us": 1587,
      "Ãł": 1588,
      "Ð°ÑĦ": 1589,
      "Ð¸ÑĨÑĭ": 1590,
      "ĠÐ¿Ð°Ð¼": 1591,
      "Ð´ÑĭÑħ": 1592,
      "ĠÐ½ÐµÐ½": 1593,
      "ÑĩÐ¸ÑĤ": 1594,
      "ÐµÐ½Ð½Ð¾Ð¼": 1595,
      "ĠÐ±Ð°ÑĢ": 1596,
      "ĠÐºÐ»": 1597,
      "ĠÐºÐ»Ñİ": 1598,
      "ĠÐ³Ð¾ÑģÐ¿": 1599,
      "ĠĠĠ": 1600,
      "ĠâĢĶâĢĶâĢĶ": 1601,
      "ĠÐ¢ÐµÐ¿ÐµÑĢÑĮ": 1602,
      "ÐµÑĩÐ½Ð¾": 1603,
      "ÐµÐ·Ð´": 1604,
      "ĠÐ¾ÑĤÐºÑĢ": 1605,
      "ĠÑģÐºÐ°Ð¶Ð¸": 1606,
      "ĠÑĢÐ°Ð·Ð³": 1607,
      "Ð¾ÑģÐ»ÐµÐ´": 1608,
      "ĠÑģÐ»Ð°Ð²Ð°": 1609,
      "ĠÑģÑĤÐ¸ÑħÐ¸": 1610,
      "ĠÐ¼Ð¾Ð¶Ð½Ð¾": 1611,
      "el": 1612,
      "me": 1613,
      "ĠI": 1614,
      "ĠčĊ": 1615,
      "ĠÐ²Ð¾Ð¹": 1616,
      "ĠÐ¿Ð°Ð´": 1617,
      "ĠÐ½ÐµÐ³Ð¾": 1618,
      "ÑĩÐµ": 1619,
      "Ð¾Ð²ÐµÐº": 1620,
      "ĠÐ¿ÑĢÐ¾Ð±": 1621,
      "ĠÑĢÐ¾Ð±": 1622,
      "ĠÐ¡ÑĩÐ°ÑģÑĤ": 1623,
      "ĠÐ¡Ð²Ð¾": 1624,
      "Ð°ÑĢÐ¾Ð²": 1625,
      "ĠÐľÐµÐ½Ñı": 1626,
      "ĠÑħÐ»": 1627,
      "ĠÑħÐ¾ÑĤÑĮ": 1628,
      "ÐºÐ°Ñħ": 1629,
      "ĠÐºÑĢÐ°Ð¹": 1630,
      "ĠÐ£Ð²Ñĭ": 1631,
      "ĠÐ¿Ð¾Ñħ": 1632,
      "Ð½ÑıÐ»": 1633,
      "Ð»Ð°Ñĩ": 1634,
      "ĠÑģÑĤÑĢÑĥ": 1635,
      "ĠÑģÐ²Ð¾Ð¸": 1636,
      "Ð½ÑĥÐ»ÑģÑı": 1637,
      "ĠÐºÐ¾Ð½ÑĮ": 1638,
      "ĠÑģÐ¾Ð±Ð¾Ð¹": 1639,
      "ĠÑĤÑĥÐ¼Ð°Ð½": 1640,
      "><?>": 1641,
      "ag": 1642,
      "Ġr": 1643,
      "ÑĢÐµÐ¶": 1644,
      "ÑĢÐ¸Ð´": 1645,
      "ÑĭÑĩ": 1646,
      "ĠÑģÐ¾Ð²": 1647,
      "ĠÑģÐµÑĢ": 1648,
      "ĠÑģÑĥÐ¼": 1649,
      "ĠÑģÑĢÐµÐ´ÑĮ": 1650,
      "ĠÐ½Ð°Ð·": 1651,
      "ÐµÐ½Ñĭ": 1652,
      "ĠÑĤÑĥÑĩ": 1653,
      "ĠÑĤÐ¾Ð³Ð´Ð°": 1654,
      "ÑĪÐ¸Ðµ": 1655,
      "ĠÐ¸ÑģÑĤ": 1656,
      "ĠÐ¸Ð´ÐµÑĤ": 1657,
      "Ð¾ÑĢÐ¶": 1658,
      "ĠÐ³Ð¾ÑĤÐ¾Ð²": 1659,
      "ĠÐĴÐ¸Ð´": 1660,
      "ĠÐĴÐ¾ÑģÐ¿": 1661,
      "Ð¾Ð´ÑĥÑĪ": 1662,
      "ĠÐ¿ÑĢÐ¾Ð¼": 1663,
      "ĠÑĢÑĥÐºÐ°": 1664,
      "ĠÑģÑĤÑĭÐ´": 1665,
      "ĠÑĩÐ°ÑģÑĤ": 1666,
      "Ð¾ÐºÐ¸Ð¹": 1667,
      "ĠÑıÐ·": 1668,
      "ÐµÐ·Ð´Ðµ": 1669,
      "ĠÐľÐ»Ð°Ð´": 1670,
      "ĠÐĶÐ°Ð²Ð½Ð¾": 1671,
      "ĠÑħÐ¾Ñĩ": 1672,
      "ĠÐ¾Ð±Ð»": 1673,
      "ĠÐ§ÐµÑĢ": 1674,
      "ĠÐ¸Ð·Ð¼ÐµÐ½": 1675,
      "ĠÑĢÐ°Ð·Ð´": 1676,
      "ĠÐ³Ð»ÑĥÑħ": 1677,
      "ĠÑģÑĤÑĢÐ°Ð´": 1678,
      "ĠÐ¿ÑĢÐ¸ÑıÑĤ": 1679,
      "ĠÐ±Ð»Ð°Ð¶ÐµÐ½": 1680,
      "ĠÐ¿Ð¾ÐºÐ¾Ð¹": 1681,
      "ĠÐ²Ð¾Ð»Ð½Ñĭ": 1682,
      "ĠÑģÐ²Ð¾Ð¸Ñħ": 1683,
      "ĠÑģÑĤÐ°ÑĢÑĥÑħ": 1684,
      "ĠÐ±ÐµÑģÑģÐ¼": 1685,
      "ĠÑĥÑĤÑĢÐµÐ½": 1686,
      "ĠÐ²Ð¸Ð´Ð¸ÑĤ": 1687,
      "ĠÐ´Ð¾Ð»Ð³": 1688,
      "ĠÐ¤ÐµÐ±": 1689,
      "ĠÐ£Ð¶Ðµ": 1690,
      "Ð¾Ð±ÑĢÐ°Ð¶": 1691,
      "ĠÑĥÑģÐ»": 1692,
      "ĠÑģÐºÐ¾ÑĢÐ¾": 1693,
      "ĠÐ²ÐµÐ»Ð¸Ðº": 1694,
      "ĠÐ»ÑĥÐ½Ð°": 1695,
      "se": 1696,
      "ĠM": 1697,
      "Ð»Ð¾Ð¹": 1698,
      "ÑĥÑģÑĮ": 1699,
      "ÑıÑģ": 1700,
      "ĠÐ²ÑģÑı": 1701,
      "ĠÐ½ÐµÐº": 1702,
      "ĠÐºÐ¾ÑĤÐ¾ÑĢ": 1703,
      "Ð¸ÑĤÐ°": 1704,
      "ĠÐ³Ð¾ÑģÑĤ": 1705,
      "ĠÐĴÐµÐ½": 1706,
      "ĠÐĴÐ¾Ð·": 1707,
      "Ð¸Ð»Ð¾": 1708,
      "Ð°ÑĤÑĭÐ¹": 1709,
      "Ð¸Ð½Ð¾Ð¼": 1710,
      "ÑīÐ¸Ð¹": 1711,
      "ÑĢÑĥÐ±": 1712,
      "Ð¾ÑģÑĤÑĮÑİ": 1713,
      "ĠÐµÑģÑĤÑĮ": 1714,
      "ĠÑģÐºÐ°Ð»": 1715,
      "Ð½Ð¸ÐºÐ¾Ð²": 1716,
      "ĠÑģÑĤÑĢÐ°Ð½": 1717,
      "ĠÐ¾Ð´Ð½Ð°": 1718,
      "ĠÐ´ÑĥÑĪÐ°": 1719,
      "ĠÐ½Ð°ÑĪÐ¸": 1720,
      "ĠÐĸÐ¸Ð²": 1721,
      "ĠÐĽÑİÐ±Ð»Ñİ": 1722,
      "ĠÑģÐ¾Ð±Ð¾Ñİ": 1723,
      "ch": 1724,
      "ut": 1725,
      "Ðĵ": 1726,
      "ĠÃł": 1727,
      "ÑĢÐ¾Ð¿": 1728,
      "Ð»Ð¸Ð½": 1729,
      "ĠÑģÐ¾ÐºÑĢ": 1730,
      "ĠÐ²Ð°Ð¼Ð¸": 1731,
      "ĠÐ²Ð½ÐµÐ¼": 1732,
      "ÐºÐ¾Ð³Ð¾": 1733,
      "ĠÐ±Ð¾Ñı": 1734,
      "ĠÐ±ÐµÐ¶Ð¸ÑĤ": 1735,
      "Ð¾Ð»Ðµ": 1736,
      "ĠÐºÐ°Ð¶Ð´": 1737,
      "ÑĨÐ¾Ð²": 1738,
      "ÑĨÐµÐ¹": 1739,
      "ĠÐ·Ð°ÑģÑĤ": 1740,
      "ĠÑĢÐ¾Ðº": 1741,
      "Ð³Ð»Ñı": 1742,
      "ĠÐļÐ½ÑıÐ·ÑĮ": 1743,
      "Ð¾ÑĤÐ°": 1744,
      "ĠÑģÑĤÐ°Ð»": 1745,
      "ĠÐ¶ÑĥÑĢ": 1746,
      "ĠÐ½Ð°Ñĩ": 1747,
      "ĠÐľÐ¾ÑģÐº": 1748,
      "Ð¸Ð¼ÑĭÐ¹": 1749,
      "ĠÑģÐ»Ð°Ð±": 1750,
      "ÐµÑģÑĤÐ²Ð¾": 1751,
      "ĠÐĲÐ¼ÑĥÑĢ": 1752,
      "ĠÐ»Ð¸ÑģÑĤ": 1753,
      "ĠÐ¿Ð¾Ð»Ðµ": 1754,
      "ÑĦÐ¸ÑĢ": 1755,
      "ĠÐķÐµ": 1756,
      "ĠÐ²Ð·Ð´Ð¾Ñħ": 1757,
      "ÐµÑĪÐµÐ½": 1758,
      "ĠÐ±ÑĭÐ»Ð°": 1759,
      "ĠÐ²Ð¾Ð»ÑĪÐµÐ±": 1760,
      "ĠÐ´ÑĥÑĪÐ¾Ñİ": 1761,
      "ĠÐ¿Ð¾ÑĢÐ¾Ð¹": 1762,
      "ĠÐ¼Ð¸ÑĢÐ°": 1763,
      "ĠÐ²Ð¸Ð´ÐµÐ»": 1764,
      "ĠÐ·Ð²ÑĥÐº": 1765,
      "ĠÑģÑĩÐ°ÑģÑĤÑĮÑı": 1766,
      "ĠÑĢÐ°ÑģÑģ": 1767,
      "ÑıÐ¼Ð¸": 1768,
      "ĠÑģÐ¸Ð´Ð¸ÑĤ": 1769,
      "ĠÐŁÐµÑĢÐµÐ´": 1770,
      "ĠÐ½Ð°Ð³ÑĢÐ°Ð´": 1771,
      "Ð¸ÑĦÐ¼": 1772,
      "ĠÐľÐµÑĩÑĤ": 1773,
      "om": 1774,
      "Ð²ÐµÑī": 1775,
      "ĠÑĤÑĥÑĤ": 1776,
      "Ð¾Ð»Ðº": 1777,
      "Ð¸ÑĤÑı": 1778,
      "ĠÐ»ÐµÐ¶Ð¸ÑĤ": 1779,
      "ĠÐ³ÑĢÐ°": 1780,
      "ĠÐ³Ð½ÐµÐ²": 1781,
      "ĠÐ·Ð¾Ð²": 1782,
      "ĠÐĿÐ°Ñģ": 1783,
      "ĠÐ¿ÑĢÐ¾Ð¿": 1784,
      "Ð°ÐºÑħ": 1785,
      "Ð³Ð½": 1786,
      "Ð¸Ð²Ð¾": 1787,
      "ĠÐ¶Ð¸ÑĤÑĮ": 1788,
      "ÐµÑĩÑĥ": 1789,
      "ĠÑıÐ²": 1790,
      "Ð½ÐµÐµ": 1791,
      "ÐµÐ¶Ð°Ð»": 1792,
      "Ð»Ð¸Ð·": 1793,
      "ĠÐ¾ÑĤÐ´Ð°Ð»": 1794,
      "ĠÐĵÐ»": 1795,
      "ĠÑħÐ¾ÑĤ": 1796,
      "ÑĥÐ¼Ñı": 1797,
      "ĠÑģÐºÑĢ": 1798,
      "ĠÑģÐºÐ°Ð¶": 1799,
      "ĠÐ¾Ð±ÑĢÐ°Ð·": 1800,
      "ÑĥÑİÑĤ": 1801,
      "ĠÐ´ÑĥÑĪÐµ": 1802,
      "ĠÐ½Ð¾ÑĩÐ½Ð¾Ð¹": 1803,
      "ĠÑĤÐ²Ð¾Ð¸Ñħ": 1804,
      "ĠÑĤÐ¸ÑħÐ¸Ð¹": 1805,
      "ĠÐ¿Ð¾ÑģÐ»ÑĥÑĪ": 1806,
      "ĠÐ²Ð·Ð¾ÑĢÑĭ": 1807,
      "ĠÐ½ÐµÐ¶Ð½ÑĭÐ¹": 1808,
      "Ġch": 1809,
      "ĠÐ¾Ð¶Ð¸Ð²": 1810,
      "ce": 1811,
      "Ð¾Ð½Ñĭ": 1812,
      "Ð°Ð½Ñĭ": 1813,
      "Ð¸ÑĨÑĥ": 1814,
      "ÑĢÐ¾Ðº": 1815,
      "ÑıÐ³": 1816,
      "ĠÐ²Ð¾Ð¿": 1817,
      "ĠÐ²ÐºÑĢÑĥÐ³": 1818,
      "Ð²Ñĥ": 1819,
      "ÐµÐ½Ð¸Ñı": 1820,
      "Ð¼ÐµÑĤ": 1821,
      "ÑİÑĪ": 1822,
      "ĠÐ´Ð²Ð°": 1823,
      "ĠÐºÐ¾Ñģ": 1824,
      "ĠÐºÐ¸Ð¿": 1825,
      "ÐµÑĢÐ¸": 1826,
      "ÐµÑĢÐ¿": 1827,
      "ÐµÐ»Ñı": 1828,
      "ĠÐ»Ð°Ñģ": 1829,
      "ĠÐ³Ð¾Ð´": 1830,
      "ĠÐ³ÐµÐ½Ð¸Ð¹": 1831,
      "Ð¸Ð»Ð¾ÑģÑĮ": 1832,
      "ĠÑĢÐ°Ð½": 1833,
      "ĠÐŁÐ¾Ñĩ": 1834,
      "Ð½Ð¸ÑĪÑĮ": 1835,
      "Ð¿Ð»": 1836,
      "ĠÑĩÐ¸ÑĤ": 1837,
      "ĠÐ¶Ð°Ð»": 1838,
      "ÑīÐ¸": 1839,
      "ĠÑģÐ»ÑĥÐ¶": 1840,
      "ÑĥÑĪÐºÐ°": 1841,
      "ĠÐĲÐ¿Ð¾Ð»": 1842,
      "ĠÐ£Ð¼": 1843,
      "ĠÐ»ÑİÐ±Ð¸Ð»": 1844,
      "ĠÐ¼Ð¾Ðµ": 1845,
      "ĠÐ³Ð¾ÑĢÐµ": 1846,
      "ĠÐ¿Ð¾Ð»Ñĥ": 1847,
      "ĠÑĨÐ°ÑĢÑı": 1848,
      "ĠÐ±ÐµÐ·Ð´": 1849,
      "ĠÐ½Ð°Ð´Ð¾": 1850,
      "ĠÐ½Ð°Ð´ÐµÐ¶": 1851,
      "Ġsa": 1852,
      "Ġpr": 1853,
      "ĠÑĢÑĥÐºÐ¾Ñİ": 1854,
      "ĠÐ³ÑĢÐ¾Ð·Ð½ÑĭÐ¹": 1855,
      "ĠÐ¶Ð¸Ð²Ð¾Ð¹": 1856,
      "ĠÑĥÐ´ÐµÐ»": 1857,
      "ĠÑģÐ¼ÐµÑĢÑĤÐ¸": 1858,
      "ĠÐºÐ¾ÑĢÐ°Ð±": 1859,
      "ĠÐ²Ð¾ÑĢÐ¾ÑĤ": 1860,
      "ĠÑĩÐµÐ»Ð¾Ð²ÐµÐº": 1861,
      "ĠÑĥÐ»ÑĭÐ±ÐºÐ¾Ð¹": 1862,
      "ĠÐĲÐ¿Ð¾Ð»Ð»Ð¾Ð½": 1863,
      "?..": 1864,
      "oi": 1865,
      "Ðĳ": 1866,
      "Ġ*": 1867,
      "Ð¾ÑĦ": 1868,
      "Ð¸ÑĨÐµ": 1869,
      "ĠÑģÑĥÐµÑĤ": 1870,
      "ĠÑģÐ¾Ð»Ð½": 1871,
      "Ð²ÑıÑī": 1872,
      "ĠÐ¼Ð¾Ñİ": 1873,
      "ĠÐ¼ÑıÑĤÐµÐ¶": 1874,
      "ĠÐ¼ÐµÑģÑı": 1875,
      "Ð¼Ð¾Ð¶": 1876,
      "ĠÑĤÐµÐ½Ð¸": 1877,
      "ĠÐ´Ð¾Ð²": 1878,
      "ĠÐ´ÐµÐ»": 1879,
      "ĠÐ±Ð¾Ð¶": 1880,
      "Ð°Ð»Ð¾ÑģÑĮ": 1881,
      "ĠÐ¸Ð½": 1882,
      "ĠÐºÐ¾Ð²": 1883,
      "ĠÐ»ÐµÐ½Ð¸": 1884,
      "ĠÐ»ÑĥÐ³": 1885,
      "ĠÐĴÐ¾Ð»": 1886,
      "ĠÑĢÐ¸ÑĦÐ¼": 1887,
      "ĠÐŁÐµÑĩ": 1888,
      "Ð½Ð¸Ð½": 1889,
      "ĠÑĩÐµÑĢÑĤ": 1890,
      "ÐµÐ²Ð¸Ñĩ": 1891,
      "Ð¶Ð°Ð»": 1892,
      "ĠÐľÐ¾ÑĢ": 1893,
      "ÑĢÐ°ÑĪ": 1894,
      "ĠÐĹÐ½": 1895,
      "ÑĥÑĪÐºÐ¸": 1896,
      "ĠÐ»ÑİÐ±Ð»Ñİ": 1897,
      "ĠÑģÐºÐ»Ð¾Ð½": 1898,
      "ĠÐ²ÑģÐ¿": 1899,
      "ĠÐłÐ°Ð´": 1900,
      "ĠÑĢÐ°Ð·Ð±": 1901,
      "ÐºÐ¾ÑĪ": 1902,
      "ĠÑģÑĤÑĢÐ¾Ð³": 1903,
      "ĠÐ±Ð»ÐµÑģÑĤ": 1904,
      "ĠÑģÐµÑĢÐ´ÐµÑĩ": 1905,
      "ĠÑģÐ¿Ð¾ÐºÐ¾Ð¹": 1906,
      "ĠÐĹÐ°ÑĩÐµÐ¼": 1907,
      "ĠÐ¼Ð»Ð°Ð´Ð¾Ð¹": 1908,
      "ĠÐ»Ð¸ÑĢÑĥ": 1909,
      "ĠÑģÐ¼ÐµÑĢÑĤÑĮ": 1910,
      "eur": 1911,
      "ĠÐ·Ð½Ð°Ñİ": 1912,
      "ĠÐ¿ÑĢÐ¸Ð²ÐµÑĤ": 1913,
      "ĠÑģÐºÐ°Ð·Ð°Ð»": 1914,
      "ĠÐ³Ð¾Ð²Ð¾ÑĢÐ¸ÑĤ": 1915,
      "ĠÐ·Ð°Ð´ÑĥÐ¼ÑĩÐ¸Ð²": 1916,
      "ĠÐ¼Ð¾Ð»Ð²Ð¸Ð»": 1917,
      "igra": 1918,
      "!...": 1919,
      "ph": 1920,
      "ui": 1921,
      "Ãª": 1922,
      "ÑĢÐ¾Ð¶": 1923,
      "ĠÐ¿Ð¾Ð½": 1924,
      "ĠÐ¿Ð°ÑģÑĤ": 1925,
      "ĠÐ½Ð°Ð»": 1926,
      "ÑĩÐ°ÑĤ": 1927,
      "ĠÐ¼Ð¸Ð³": 1928,
      "ÐµÑĢÑĭ": 1929,
      "ÐµÐ»Ð¸Ðº": 1930,
      "ĠÐ³ÑĥÑģÑĤ": 1931,
      "ĠÐ³Ð¸Ð±": 1932,
      "ĠÐĴÐ°ÐºÑħ": 1933,
      "ĠÐĿÐ°Ð¼": 1934,
      "ĠÐ¿ÑĢÐ¸Ð½": 1935,
      "ĠÐ¿ÑĢÑıÐ¼": 1936,
      "ĠÑĢÑıÐ´": 1937,
      "ĠÐŁÐ¾Ð¼": 1938,
      "Ð·Ñı": 1939,
      "ĠÐ¡ÐµÑĢÐ´": 1940,
      "Ð°ÑĤÐ°": 1941,
      "ĠÑģÑĤÐ¾ÑĢÐ¾Ð½": 1942,
      "ĠÐ¢ÑĥÑĤ": 1943,
      "ĠÑĩÑĥÐ¶Ð´": 1944,
      "ĠÐ¶ÐµÑģÑĤ": 1945,
      "ĠÑıÑĢ": 1946,
      "ÐµÐ·Ð´Ð°": 1947,
      "ĠÐĳÑĭÐ»": 1948,
      "ĠÐĵÐ²Ð¸Ð´": 1949,
      "ĠÐĹÐ²": 1950,
      "ĠÑħÑĢÐ°Ð½": 1951,
      "ĠÐ³ÑĢÐµÑħ": 1952,
      "ĠÑģÐºÑĢÐ¾Ð¼": 1953,
      "ĠÑĤÑĢÐ¾Ð½": 1954,
      "ĠÐķÐ¹": 1955,
      "ĠÑģÐ¿Ð°Ñģ": 1956,
      "Ð¸ÑĩÐµÑģ": 1957,
      "ĠÐ¼Ð¾ÑĢÑı": 1958,
      "ĠÐŁÐ¾ÑįÑĤ": 1959,
      "ĠÐ¾Ð¿ÑıÑĤÑĮ": 1960,
      "ĠÐĽÑİÐ±Ð¾Ð²": 1961,
      "ĠÑĩÐ°ÑģÑĭ": 1962,
      "........": 1963,
      "ĠÐ¿Ð¾ÑįÑĤÐ°": 1964,
      "ĠÐ¼ÑĥÐ·Ñĭ": 1965,
      "ĠÐ¿ÐµÑģÐµÐ½": 1966,
      "ĠÑĤÐ¾Ð»Ð¿Ð¾Ð¹": 1967,
      "ĠÐĿÐ°Ð¿ÑĢÐ°ÑģÐ½Ð¾": 1968,
      "ĠÐ¼Ð³Ð»Ðµ": 1969,
      "Ð¢Ñĭ": 1970,
      "ĠÑĤÐ°Ð¸Ð½ÑģÑĤÐ²": 1971,
      "ĠÑģÐ¾ÑģÐµÐ´": 1972,
      "ÑĢÑĥÐ·ÑĮÑı": 1973,
      "ĠÐ¡Ð°Ð»ÑĤÐ°Ð½": 1974,
      "ep": 1975,
      "Ġ1": 1976,
      "ÑĢÐ¾Ð³": 1977,
      "ÑĢÐµÐº": 1978,
      "Ð»ÐµÐº": 1979,
      "ÑĭÐ»Ð¸": 1980,
      "ĠÐ²Ð¾Ð»ÑĮ": 1981,
      "ĠÐ¿ÐµÐ½": 1982,
      "ĠÐ½Ð¾Ñģ": 1983,
      "ĠÐ½Ð°Ð±": 1984,
      "ÑĪÐ¸Ñħ": 1985,
      "ĠÐ´Ð¸Ðº": 1986,
      "ĠÐ´ÑĭÐ¼": 1987,
      "ĠÐ±Ð°Ð±": 1988,
      "Ð¾Ð»Ð³Ð¾": 1989,
      "Ð¾Ð²Ð°ÑĢÐ¸": 1990,
      "ĠÐºÑĥÐ¿": 1991,
      "ĠÐºÑĢÑĥÐ¶": 1992,
      "Ð¸ÑĤÐ¾Ð¼": 1993,
      "ĠÐ·Ð°Ð»": 1994,
      "ĠÐ·ÐµÑĢÐº": 1995,
      "ĠÐ¿ÑĢÐ¸Ñħ": 1996,
      "ĠÑĢÑĥÐºÐ¸": 1997,
      "ĠÑĢÐµÐ²Ð½Ð¸": 1998,
      "ĠÐŁÐµÐ²": 1999,
      "Ð°ÑģÑı": 2000,
      "Ð°ÑĢÑĭ": 2001,
      "Ð°ÑĢÐ¸ÑħÐ¾Ð¹": 2002,
      "Ð³Ð¾ÑĢ": 2003,
      "Ð¾Ð½Ð¾Ð¼": 2004,
      "ĠÑĩÐµÐ¼Ñĥ": 2005,
      "ĠÑģÐ²Ð¸Ð´": 2006,
      "ĠÑģÐ²ÑıÑī": 2007,
      "ÐµÐ±ÐµÐ´ÑĮ": 2008,
      "Ð»Ð¸Ðº": 2009,
      "ĠÐĹÐ»": 2010,
      "ĠÐ³ÑĢÐµÐ¼": 2011,
      "ĠÐºÑĢÐ¸Ðº": 2012,
      "ĠÐŁÑĢÐ¸Ð´": 2013,
      "ĠÐŁÑĢÐ¾ÑģÑĤÐ¸": 2014,
      "ÑĥÑĩÐ¸Ð¹": 2015,
      "ĠÐ¼Ð¾ÐµÐ³Ð¾": 2016,
      "Ð°ÐµÑĤÑģÑı": 2017,
      "ĠÐ¼Ð¸Ð»Ð¾Ð¹": 2018,
      "ĠÑģÑĤÑĢÐµÐ»": 2019,
      "Ð»Ð¸Ð²Ð¾": 2020,
      "ĠÑģÐµÑĢÐ´ÑĨÐµÐ¼": 2021,
      "ĠÐ½ÐµÐ²Ð¸Ð½": 2022,
      "ĠÑİÐ½Ð¾ÑģÑĤÐ¸": 2023,
      "ĠÐºÑĢÐ¾Ð²Ð°Ð²": 2024,
      "ĠÐ´ÐµÐ²Ð¸ÑĨÐ°": 2025,
      "ĠÐĽÑİÐ±Ð²Ð¸": 2026,
      "ĠÐ²ÐµÐ½ÐµÑĨ": 2027,
      "Ð¡ÑĤ": 2028,
      "ĠÐ¿Ð¾Ð·Ð°Ð±": 2029,
      "ĠÑģÐ²Ð¾Ð±Ð¾Ð´Ñĭ": 2030,
      "ĠÐ¸ÑģÐ¿": 2031,
      "ĠÐºÑĢÑĥÐ³Ð¾Ð¼": 2032,
      "ÐĿÐµ": 2033,
      "ĠÐ±Ð»Ð¸ÑģÑĤ": 2034,
      "ĠÐ½ÐµÐ³Ð¸": 2035,
      "ĠÐ¼ÑĥÐ´ÑĢÐµÑĨ": 2036,
      "ĠÐ´Ð¾ÑģÑĥÐ³": 2037,
      "igraph": 2038,
      "epigraph": 2039,
      "ur": 2040,
      "ÐĲ": 2041,
      "ÐĹ": 2042,
      "ÑĢÐ¾Ð´": 2043,
      "ÑĮÐµÑĤ": 2044,
      "ĠÐ¿ÑĭÑĪ": 2045,
      "Ð´ÐµÐ¼": 2046,
      "ÐµÐ½Ð½Ð¸Ðº": 2047,
      "ĠÐ´Ð¾ÑģÑĤ": 2048,
      "ĠÐ´Ð²ÐµÑĢ": 2049,
      "Ð¾Ð²ÑĭÐ¹": 2050,
      "Ð¾ÑĢÐ¾Ð¼": 2051,
      "Ð¾ÑĢÐ¾Ð¶": 2052,
      "Ð¾Ð´ÑıÑĤ": 2053,
      "ĠÐĿÐ°ÑĢ": 2054,
      "Ð¾Ð³Ñĥ": 2055,
      "ĠÐ¡Ð¾": 2056,
      "Ð°ÑĤÐ¸": 2057,
      "Ð½Ð¸ÐºÐ°": 2058,
      "ÐµÑģÐ½": 2059,
      "Ð°Ð½ÑĤ": 2060,
      "ĠÐļÐ¸Ð¿": 2061,
      "ĠÐ¶ÐµÑĢÑĤÐ²": 2062,
      "ÑĥÐ´Ñĥ": 2063,
      "ĠÑģÐ²Ð¸ÑĢ": 2064,
      "Ð¶Ðµ": 2065,
      "ĠÑģÐ»Ð¾Ð²Ð°": 2066,
      "ÑıÑĤÐ¸Ñı": 2067,
      "ÑĢÐ°Ñī": 2068,
      "ĠÑħÐ²": 2069,
      "Ð»ÑıÐ»": 2070,
      "ÐµÐ»ÑĮÑı": 2071,
      "ĠÐŁÑĢÐ¸Ð²": 2072,
      "ĠÐŁÑĢÐ¾ÑģÑĤ": 2073,
      "ĠÑĪÐµÐ¿": 2074,
      "Ð¾Ð¿ÑĭÑĤ": 2075,
      "ĠÑĤÑĢÐµÐ²": 2076,
      "ĠÑģÐ¼Ð¾ÑĤÑĢ": 2077,
      "ĠÐķÐ»ÐµÐ½": 2078,
      "ĠÑģÑĤÑĢÐ¾Ð¹": 2079,
      "ĠÑģÑĤÑĢÐµÐ¼": 2080,
      "ĠÐ±ÐµÐ·Ð¼Ð¾Ð»Ð²": 2081,
      "Ð°Ð½ÑĮÐ¸": 2082,
      "ĠÑģÐ²ÐµÑĤÐ°": 2083,
      "ĠÑĥÐ¼ÐµÑĢ": 2084,
      "ĠÐ¥Ð²": 2085,
      "ĠÐ°Ð½": 2086,
      "ĠÐ½Ð°ÑĪÐ¸Ñħ": 2087,
      "ĠÑĤÐ²Ð¾Ñı": 2088,
      "ĠÐ·Ð»Ð¾Ð´": 2089,
      "ĠÐ´Ð¾Ð»Ð¶": 2090,
      "ĠÑĤÐµÐ¼Ð½ÑĭÐ¹": 2091,
      "ĠÐ½ÐµÐ¶Ð½Ð¾Ð¹": 2092,
      "ĠÐ²Ð°ÑĪÐ¸": 2093,
      "ĠÐ¼Ð¾Ð»ÑĩÐ°": 2094,
      "Ġav": 2095,
      "ĠÐ¿ÐµÑĩÐ°Ð»ÑĮÐ½ÑĭÐ¹": 2096,
      "ĠÐ²ÐµÐ½Ñĩ": 2097,
      "ĠÑģÑĥÐ´ÑĮÐ±Ðµ": 2098,
      "ĠÐ´ÐµÑĢÐ¶": 2099,
      "ĠÐ³Ð»Ð°Ð²Ð¾Ð¹": 2100,
      "ĠÐ½Ð°Ð²ÐµÐº": 2101,
      "ĠÐ¶ÐµÐ»Ð°Ð½ÑĮÑı": 2102,
      "ĠÐ¿ÑĢÐµÐºÑĢÐ°ÑģÐ½Ð¾Ð¹": 2103,
      "Ð¾Ð½ÑĮÐºÐ¾": 2104,
      "ĠÐ²ÑģÑĤÑĢÐµÑĤ": 2105,
      "ĠÐ»ÐµÐ½Ð¸Ð²": 2106,
      "ĠÑģÑĤÐ¾Ð¸ÑĤ": 2107,
      "ĠÐĵÐ¾Ð²Ð¾ÑĢÐ¸ÑĤ": 2108,
      "ĠÐ±ÐµÑģÑģÐ¼ÐµÑĢÑĤ": 2109,
      "ĠÐĵÐ²Ð¸Ð´Ð¾Ð½": 2110,
      "as": 2111,
      "Ð¾Ð½Ð¸": 2112,
      "Ð½ÑĥÑĤ": 2113,
      "Ð»Ñĭ": 2114,
      "ĠÑģÐ¸Ð½": 2115,
      "ĠÑģÑĥÑĢ": 2116,
      "ĠÐ¿ÑĥÑĤ": 2117,
      "Ð´Ð²Ð°": 2118,
      "ĠÐ´Ð¸ÑĤÑı": 2119,
      "ĠÐ±Ð¾Ðº": 2120,
      "ĠÐºÐ°Ð¶": 2121,
      "Ð¾ÑĢÑĭ": 2122,
      "ĠÐ»Ð¾Ð²": 2123,
      "ĠÐĴÑģÑı": 2124,
      "ĠÐĴÐµÐ·Ð´Ðµ": 2125,
      "ĠÐĿÐµÐ´": 2126,
      "ĠÐ¿ÑĢÐµÑģÑĤ": 2127,
      "ĠÐŁÐ¾ÐºÑĢ": 2128,
      "ĠÐ¡ÐµÐ¹": 2129,
      "ĠÐ¡ÑĤÐ¾": 2130,
      "Ð°Ð´Ð°": 2131,
      "Ð°Ð¼ÐµÐ½": 2132,
      "Ð³Ð°": 2133,
      "Ð°Ð½Ð¾Ð²": 2134,
      "Ð¾ÑĤÑĢÐ¸": 2135,
      "ĠÑģÐ»ÐµÐ¿": 2136,
      "ĠÐĶÐ¾": 2137,
      "ÐµÑģÑĤÐ²Ð°": 2138,
      "Ð½ÑĥÑģÑĮ": 2139,
      "ĠÐĲÐ½": 2140,
      "ÐµÐ»ÑĮÐ·Ñı": 2141,
      "ĠÐ»ÑİÐ±Ð¸Ð¼": 2142,
      "ĠÐĽÐ¸Ð»Ð°": 2143,
      "ĠÐ¿Ð¾Ð´ÑĢÑĥÐ³": 2144,
      "ĠÐ¼Ð¾Ð»Ð¸ÑĤ": 2145,
      "ĠÐ³Ð¾ÑĢÑĮ": 2146,
      "ÑĥÐºÑĥ": 2147,
      "ĠÐķÐ»Ð¸": 2148,
      "ĠÑĨÐ°ÑĢÑģÑĤÐ²": 2149,
      "ĠÐ¿ÑĢÐ¸Ð±": 2150,
      "ĠÐ±ÐµÑģÐµÐ´": 2151,
      "ĠÐ¿Ð¾ÑĢÐ°": 2152,
      "ĠÑĥÑĤÐµÑĪ": 2153,
      "Ġpour": 2154,
      "ĠÐ¼Ð¾ÑĢÑİ": 2155,
      "ĠÐĴÑģÐµÑħ": 2156,
      "ĠÐ¼Ð¾Ð»Ð¾Ð´Ð°Ñı": 2157,
      "ĠÐºÐ¾Ð½Ñı": 2158,
      "ĠÑĢÐ°Ð´Ð¾ÑģÑĤÑĮ": 2159,
      "ĠÐºÑĢÐ¾Ð²ÑĮ": 2160,
      "ÑĥÐ¶Ð´ÐµÐ½": 2161,
      "ĠÐ²ÐµÑĤÐµÑĢ": 2162,
      "ĠÐ²ÐµÑĤÑĢÐµÐ½": 2163,
      "ĠÐ¿ÐµÑģÐ½Ð¸": 2164,
      "ĠÐ´ÐµÑĢÐ·": 2165,
      "ĠÐ´ÐµÑĢÐµÐ²": 2166,
      "ĠÑģÐ»Ð°Ð´Ð¾ÑģÑĤÑĢÐ°ÑģÑĤ": 2167,
      "ĠÐ´ÑĢÐµÐ¼Ð»ÐµÑĤ": 2168,
      "ĠÐ´ÑĥÐ±ÑĢÐ°Ð²": 2169,
      "ĠÐ¿Ð¾Ð±ÐµÐ´": 2170,
      "ĠÐ´ÑĢÑĥÐ¶Ð±Ñĭ": 2171,
      "ĠÑĩÐ°ÑģÑĤÐ¾": 2172,
      ">*": 2173,
      "ie": 2174,
      "ien": 2175,
      "ment": 2176,
      "tre": 2177,
      "Ð¯": 2178,
      "ĠC": 2179,
      "ĠL": 2180,
      "Ġg": 2181,
      "ÑģÐµ": 2182,
      "ÑĢÐµÐ»": 2183,
      "Ð»ÐµÐ¹": 2184,
      "ĠÑģÐ±": 2185,
      "ĠÑģÐ¾Ð³": 2186,
      "ĠÑģÐµÐ²": 2187,
      "ĠÐ²Ð°Ð¶": 2188,
      "ĠÐ²Ð»Ð°Ð´": 2189,
      "ĠÐ¿Ð¾Ð¹": 2190,
      "ĠÐ¿ÐµÑī": 2191,
      "ĠÐ¿Ð¸Ñģ": 2192,
      "ĠÐ½Ð¾Ð¶": 2193,
      "ĠÐ½Ð°Ð¼Ð¸": 2194,
      "ÐºÐ¸Ð¼": 2195,
      "ĠÑĤÐ¾Ð¿": 2196,
      "ĠÐ´Ð°Ð²Ð½Ð¾": 2197,
      "ĠÐ´ÑĢÐµÐ²": 2198,
      "ĠÐ¾ÐºÑĢ": 2199,
      "ĠÐ±Ð¾": 2200,
      "ĠÐ±Ð°Ð»": 2201,
      "ĠÐ±Ð¾ÑĢ": 2202,
      "ĠÐ±ÑĥÐ´ÑĮ": 2203,
      "ĠÐºÑĢÐ°": 2204,
      "ĠÐĺÑĤ": 2205,
      "Ð¾ÑĢÐ¾ÑĤ": 2206,
      "Ð¾ÑĢÐ¾ÑĪ": 2207,
      "Ð¸ÑĤÑĭ": 2208,
      "ĠÐ»ÑĥÐº": 2209,
      "ĠÐĴÐµÑĤ": 2210,
      "ÑĨÐµÐ»": 2211,
      "ÑĨÐ°ÑĤÑĮ": 2212,
      "ĠÐ·Ð¾Ð²ÐµÑĤ": 2213,
      "ĠÐ·Ð´ÑĢÐ°Ð²": 2214,
      "ĠÐĿÐ°ÑĤ": 2215,
      "ĠÑĢÐ°ÑĤ": 2216,
      "ĠÑĢÐµÑĪ": 2217,
      "ĠÑĢÑĥÐ¼Ñı": 2218,
      "ÐµÐ´Ð¸": 2219,
      "ÐµÑģÐ°": 2220,
      "ĠÐļÐ¾Ð½": 2221,
      "ĠÐļÑĥÐ´Ð°": 2222,
      "ĠÐŀÑģ": 2223,
      "Ð¸Ð½ÑĥÐ»": 2224,
      "ĠÑĩÑĤÐ¾Ð±": 2225,
      "ĠÑģÐ»ÑĥÑĪ": 2226,
      "Ð½ÐµÑİ": 2227,
      "ĠÐĳÑĭÑĤÑĮ": 2228,
      "ĠÐ¾ÑĤÐº": 2229,
      "ĠÐ¾ÑĤÐ¿": 2230,
      "Ð°ÑĤÑĮÑı": 2231,
      "ĠÐĹÐ°ÐºÐ¾Ð½": 2232,
      "ĠÑħÑĢ": 2233,
      "ĠÑħÐ²Ð°Ð»": 2234,
      "ĠÐ³ÑĢÐµÑĪ": 2235,
      "Ð´Ð°ÐµÑĤ": 2236,
      "ĠÐºÑĢÐµÑģÑĤ": 2237,
      "ĠÐĲÐ»ÑĮ": 2238,
      "ĠÐ£Ð·": 2239,
      "ĠÐ»ÑİÐ±Ð¸ÑĤÑĮ": 2240,
      "ĠÐ²ÑģÑİ": 2241,
      "ÑģÐºÑĥÑİ": 2242,
      "ĠÐ¾Ð±ÐµÐ´": 2243,
      "ĠÐĿÐ°ÑĪ": 2244,
      "ĠÑĪÐ°ÑĤ": 2245,
      "ĠÐ²ÑĭÐ¿": 2246,
      "ĠÐ³Ð¾ÑĢÐ¸ÑĤ": 2247,
      "ĠÐ¸Ð·Ð³Ð½": 2248,
      "ĠÐ¿Ð¾Ð»Ñı": 2249,
      "ĠÐ¿Ð¾Ð»ÐµÑĤ": 2250,
      "ĠÐ±ÑĢÐ¾Ñģ": 2251,
      "ĠÐ²Ð·Ð´": 2252,
      "ĠÐ´ÑĢÑĥÐ³Ð¾Ð¹": 2253,
      "ĠÐ¡ÑĤÐ°Ð»": 2254,
      "ĠÐ¿ÑĢÐ¸ÑģÑĤ": 2255,
      "ÑĭÐ²Ð°ÑĤÑĮ": 2256,
      "Ð¾ÑģÐ»ÑĥÑĪ": 2257,
      "ĠÐ²Ð¾Ð»Ð½Ð°": 2258,
      "ĠÐ°ÑĢ": 2259,
      "ĠÑĥÑĤÐ¾Ð¼": 2260,
      "ĠÐ±ÑĥÐ´ÑĤÐ¾": 2261,
      "Ġpl": 2262,
      "ĠÐ¤Ð°Ð²": 2263,
      "ĠÑģÑĤÐ¸ÑħÐ¾Ð²": 2264,
      "ĠÐŀÐ´Ð½Ð°": 2265,
      "ĠÐŃÑĢ": 2266,
      "ĠÐ¡Ð²Ð¾Ð±": 2267,
      "ĠÐ²Ð¾ÑģÐ¿Ð¾Ð¼Ð¸Ð½": 2268,
      "ĠÐ¿ÐµÑĢÐ²ÑĭÐ¹": 2269,
      "ĠÐ²Ð´Ð¾ÑħÐ½Ð¾Ð²ÐµÐ½ÑĮÑı": 2270,
      "ĠÐ¼ÐµÐ´Ð²": 2271,
      "Ð¸ÑĨÐµÐ¹": 2272,
      "ĠÑĢÑĭÐ±ÐºÐ°": 2273,
      "ĠÐºÐ°ÑĢÑĤ": 2274,
      "ĠÐŁÐ°ÑĢÐ½Ð°Ñģ": 2275,
      "ĠÐĺÑģÑĩÐµÐ·": 2276,
      "ĠÐ¿Ð°Ð¼ÑıÑĤ": 2277,
      "ĠÐĽÑİÐ±Ð¾Ð²ÑĮ": 2278,
      "II": 2279,
      "ĠS": 2280,
      "ĠÃ©t": 2281,
      "Ð¸Ð½Ð¾": 2282,
      "Ð½ÐµÑģ": 2283,
      "ÑĢÐ¾Ð¹": 2284,
      "ÑĭÑģ": 2285,
      "ÑĮÐ¸": 2286,
      "ĠÑģÐ°ÑĤ": 2287,
      "ĠÐ²Ð¼": 2288,
      "ĠÐ²Ð¸Ð½": 2289,
      "ĠÐ½ÑĢÐ°Ð²": 2290,
      "ĠÐ½ÐµÐ¼Ñĥ": 2291,
      "ÐºÐ°Ð¼Ð¸": 2292,
      "ÑĩÐ°Ñģ": 2293,
      "ĠÐ¼Ð°ÑĤ": 2294,
      "ÑģÑĤÐ°Ð»": 2295,
      "ÐµÑĤÑĭ": 2296,
      "Ð¾Ð»ÐµÐ²Ð¸Ñĩ": 2297,
      "ÐµÑĢÐµ": 2298,
      "ÐµÑĢÐ¾Ð¼": 2299,
      "Ð¾ÑĢÐµ": 2300,
      "Ð¸ÑĤÑĭÐ¹": 2301,
      "ĠÐ»Ð°Ð´": 2302,
      "ĠÐ³ÑĥÐ±": 2303,
      "Ð¾Ð´Ñĥ": 2304,
      "Ð¾Ð´Ð¸Ð»": 2305,
      "Ð¾Ð´Ð°ÑĢ": 2306,
      "ĠÐ·ÐµÐ»ÐµÐ½": 2307,
      "ĠÐ¿ÑĢÐ¸Ðº": 2308,
      "Ð¸Ð»Ð¾Ñģ": 2309,
      "Ð¸Ð»ÑĥÐ¹": 2310,
      "Ð±ÑĥÐ´ÑĮ": 2311,
      "ĠÑĢÐ¾Ð¿": 2312,
      "ĠÑĢÐ¾Ð¶Ð´": 2313,
      "ĠÐŁÐ¾Ð³": 2314,
      "Ð³ÑĢÐ°": 2315,
      "ĠÐļÐ¾Ð»": 2316,
      "ĠÐļÐ¾Ð¼Ñĥ": 2317,
      "ĠÐļÐ¾ÑĤÐ¾ÑĢ": 2318,
      "ĠÑģÑĤÑĥÐ¿": 2319,
      "ĠÐ¢Ð²": 2320,
      "Ð¸Ð½ÑĥÐ²": 2321,
      "Ð¾ÐºÐ¾Ð¼": 2322,
      "Ð½Ð°Ñĩ": 2323,
      "ĠÑģÐ²Ð¾Ðµ": 2324,
      "ĠÐĶÑĢÑĥÐ·ÑĮÑı": 2325,
      "ÑĢÐ°Ð½Ð¸": 2326,
      "ĠÐ¾ÑĤÑĩ": 2327,
      "Ð½ÑĥÐ»Ð¸": 2328,
      "Ð½ÑĥÐ»Ð°": 2329,
      "ĠÑĨÐµÐ»": 2330,
      "ĠÑĨÐµÐ¿": 2331,
      "ĠÐ¾Ð±Ð¸Ð´": 2332,
      "ĠÐ¾Ð±Ð¼Ð°Ð½": 2333,
      "Ð¾Ð»ÑĮÐ±": 2334,
      "Ð¾Ð»ÑĮÐ·": 2335,
      "ÑģÑĤÐ²ÑĥÐ¹": 2336,
      "ĠÑĪÐ°Ð»": 2337,
      "ĠÑĤÐ²ÐµÑĢÐ´": 2338,
      "ĠÐ³Ð¾ÑĢÑı": 2339,
      "ĠÐķÐ²": 2340,
      "ÑĭÐ²Ð°ÐµÑĤ": 2341,
      "Ð»Ð¸Ð²Ð¾Ð¹": 2342,
      "ĠÐ¿ÐµÑĢÑģÑĤ": 2343,
      "Ġdes": 2344,
      "ĠÑĥÐ¼Ð¸Ð»": 2345,
      "ĠÑĥÑĤÑĢÐ°": 2346,
      "ĠÐ¼ÑĭÑģ": 2347,
      "ÐµÐ½Ð¸Ðµ": 2348,
      "Ġson": 2349,
      "Ð»ÐµÐ½Ð½Ð¾": 2350,
      "ĠÑĤÐµÐ¼Ð½Ð¾": 2351,
      "ĠÐ¶Ð¸Ð·Ð½": 2352,
      "ĠÐ¾Ð¿Ð°Ñģ": 2353,
      "ĠÐ¦Ð°ÑĢ": 2354,
      "ĠÐ¿Ð¸ÑĢÐ¾Ð²": 2355,
      "ĠÐ´Ð¾Ð¼Ð¾Ð¹": 2356,
      "ĠÐĳÐ»Ð°Ð¶ÐµÐ½": 2357,
      "ĠÐ³Ð¾ÑĢÐ´ÑĭÐ¹": 2358,
      "ĠÐ¼ÐµÐ¶Ð´Ñĥ": 2359,
      "ĠÑĢÐ¾Ð·Ñĭ": 2360,
      "ĠÐ´Ð¾Ð±ÑĢÑĭÐ¹": 2361,
      "ĠÑĨÐ°ÑĢÐµÐ²Ð½Ð°": 2362,
      "ĠÐ¼Ð¾Ð³Ð¸Ð»Ñĭ": 2363,
      "ĠÐĶÑĥÑĪÐ°": 2364,
      "ĠÐ¾Ð±ÑĬÑıÑĤÐ¸Ñı": 2365,
      "ĠÐĳÐ»Ð°Ð³Ð¾ÑģÐ»Ð¾Ð²": 2366,
      "ĠÐ»ÑİÐ±ÐµÐ·Ð½ÑĭÐ¹": 2367,
      "ĠÐºÐ°Ð¶Ð´ÑĭÐ¹": 2368,
      "ĠÐ³ÑĢÐ°ÑĨ": 2369,
      "ĠÐ¿Ð¾Ð»ÑĥÐ½Ð¾": 2370,
      "Ð¾Ð²Ð°ÑĢÐ¸Ñī": 2371,
      ">.": 2372,
      "am": 2373,
      "ti": 2374,
      "ĠE": 2375,
      "ÑĤÐ¾ÑĢ": 2376,
      "Ð½Ð°Ð²": 2377,
      "Ð»ÐµÐ½ÑĮÑı": 2378,
      "ÑĥÐ»Ñı": 2379,
      "ĠÑģÐ½Ðµ": 2380,
      "ĠÑģÑĥÐ¿": 2381,
      "ĠÑģÐµÐ½Ð¸": 2382,
      "ĠÐ²ÑĢ": 2383,
      "ĠÐ²ÐµÑī": 2384,
      "Ð²Ð¾Ð»": 2385,
      "ÑĩÑĥÐ²ÑģÑĤÐ²": 2386,
      "ÐµÐ½Ð½Ð°Ñı": 2387,
      "ÑİÐ´Ð°": 2388,
      "ÑĪÐ»Ð¸": 2389,
      "ĠÐ±ÑĭÐ²Ð°Ð»Ð¾": 2390,
      "Ð°Ð»Ð¾Ð¼": 2391,
      "ĠÐ¸Ñī": 2392,
      "ÐµÑĢÑĥ": 2393,
      "ÐµÑĢÐ½Ð¾Ð¹": 2394,
      "ĠÐĺÐ¼": 2395,
      "Ð¾ÑĢÑĤ": 2396,
      "ĠÐ·Ð°ÐºÐ¾Ð½": 2397,
      "ĠÐŁÐ°ÑģÑĤ": 2398,
      "ĠÐ¡Ð°Ð¼": 2399,
      "ÐµÐ¼ÐµÐ½": 2400,
      "Ð½Ð¸ÐºÐ¸": 2401,
      "Ð½Ð¸ÑĨÐµ": 2402,
      "Ð³ÐµÐ»": 2403,
      "Ð°Ð½ÐµÑĤ": 2404,
      "ĠÐļÐ»": 2405,
      "ĠÐļÐ°ÑĢ": 2406,
      "ĠÐ¢ÐµÐ¼": 2407,
      "ĠÐŀÐ³": 2408,
      "ĠÑĩÐµÑģÑĤÑĮ": 2409,
      "Ð¾ÐºÐ°": 2410,
      "Ð¾ÐºÑĥÑĩ": 2411,
      "ĠÑģÐ²ÐµÑĢ": 2412,
      "ĠÐľÐ¸Ð½ÑĥÑĤ": 2413,
      "ÐµÐ³Ð¾Ð´Ð½Ñı": 2414,
      "Ð¸Ð´ÐµÐ»": 2415,
      "ĠÐĳÐµÐ´": 2416,
      "ĠÐĳÑĥÐ´": 2417,
      "ĠÐĳÐµÐ³": 2418,
      "ĠÐ³ÑĢÑı": 2419,
      "ÑĥÐ¼Ð¸ÑĢ": 2420,
      "Ð»ÑıÐ½ÑĥÑģÑĮ": 2421,
      "Ð°Ð¹ÑģÑı": 2422,
      "ĠÐ¯Ð²": 2423,
      "ÑĥÑĩÐ¸ÑĤ": 2424,
      "ÑģÑĤÐ²Ð¾Ð¼": 2425,
      "ĠÑĪÐ¸ÑĢ": 2426,
      "Ð²Ð¸Ð¶Ñĥ": 2427,
      "ĠÐ¿Ð¾Ð»Ð½Ð¾": 2428,
      "ĠÑģÐ¼ÐµÑħ": 2429,
      "ĠÐ¡ÑĤÐ¸Ñħ": 2430,
      "ÑĭÐ²ÐµÑĤ": 2431,
      "Ð°ÑĪÐ°": 2432,
      "ĠĠĠĠĠĠĠĠĠĠĠĠ": 2433,
      "Ð°ÑİÑģÑĮ": 2434,
      "ĠÐ¿Ð¾ÐºÑĢ": 2435,
      "ĠÐ¿Ð¾ÐºÐ¾ÑĢ": 2436,
      "Ġdans": 2437,
      "ĠÐ·Ð°Ð±Ð¾ÑĤ": 2438,
      "ĠÐŀÑĤÐ²": 2439,
      "ĠÑģÐµÑĢÐ´ÑĨÑĥ": 2440,
      "ĠÑģÐ²Ð¾ÐµÐ³Ð¾": 2441,
      "ĠÑģÑĤÐ°ÑĢÑĭÐ¹": 2442,
      "ĠÐ°Ð»": 2443,
      "ĠÐºÑĢÐ°ÑģÐ¾ÑĤÑĭ": 2444,
      "Ġles": 2445,
      "ĠÑģÐ»Ð°Ð²Ñĥ": 2446,
      "ĠÐ±ÑĥÐ´ÐµÑĪÑĮ": 2447,
      "ĠÐ·Ð»Ð¾Ð±": 2448,
      "ĠÑĥÑģÑĭÐ¿": 2449,
      "ĠÐ¡ÐºÐ°Ð¶Ð¸": 2450,
      "ĠÑİÐ½ÑĭÑħ": 2451,
      "ĠÐ¾Ð¿ÑĥÑģÑĤ": 2452,
      "ĠÐ´ÐµÐ²Ð°": 2453,
      "ĠÐ·Ð½Ð°ÐºÐ¾Ð¼": 2454,
      "ĠÐ¼Ð¾Ð»ÑĩÐ°Ð»": 2455,
      "ĠÐ±Ð»Ð°Ð³Ð¾ÑģÐ»Ð¾Ð²": 2456,
      "ĠÐ¡Ð¿ÐµÑĪ": 2457,
      "ĠÐ¸ÑģÑĩÐµÐ·": 2458,
      "ĠÐ½ÐµÐ´Ð²Ð¸Ð¶": 2459,
      "ĠÐ½Ð°ÑģÐ»Ð°Ð¶Ð´ÐµÐ½ÑĮÑı": 2460,
      "ĠÑĩÑĥÐ²ÑģÑĤÐ²Ð°": 2461,
      "ĠÐ¾Ð·Ð°ÑĢ": 2462,
      "ĠÐľÐ¾Ð¸": 2463,
      "ĠÑģÐ²ÑıÑĤÐ¾Ð¹": 2464,
      "ĠÐ»ÑİÐ´": 2465,
      "ĠÑİÐ½Ð¾ÑĪÐ°": 2466,
      "ĠÐ½Ð°ÐºÐ°Ð·": 2467,
      "ĠÐ¾Ð±Ð»Ð°Ðº": 2468,
      "ĠÐ¼ÐµÑģÑıÑĨ": 2469,
      "al": 2470,
      "ĠJ": 2471,
      "Ġh": 2472,
      "ÑģÐºÐ°Ñı": 2473,
      "Ð»Ð¾Ð²": 2474,
      "Ð»Ð¾Ð¼": 2475,
      "Ð»Ð°Ð³": 2476,
      "Ð»ÐµÐ½ÑĮÐµ": 2477,
      "ÑĮÐµÐ¼": 2478,
      "ĠÑģÐ½Ð°": 2479,
      "ĠÑģÐµÐ½ÑĮÑİ": 2480,
      "ĠÑģÑĢÐµÐ´Ð¸": 2481,
      "ĠÐ²Ð¾Ð´Ñĭ": 2482,
      "ĠÐ½Ð¸Ð·": 2483,
      "ÑĩÐ°": 2484,
      "ÑĩÐµÑĤ": 2485,
      "ĠÐ¼Ð°Ð»Ð¾": 2486,
      "ÐµÐ½ÑĤ": 2487,
      "ÐµÐ½Ð½ÑĭÐ¼": 2488,
      "ÑİÑģÑĮ": 2489,
      "ĠÑĤÐµÑģ": 2490,
      "ĠÑĤÐµÐº": 2491,
      "ĠÑĤÐ¾Ð³Ð¾": 2492,
      "ĠÑĤÐ¾ÑĢÐ³": 2493,
      "ĠÑĤÑĢÑĥÐ±": 2494,
      "ÑĪÐ»Ð°": 2495,
      "ĠÐ´Ð¾Ð±": 2496,
      "ĠÐ´Ð½Ñı": 2497,
      "ĠÐºÑĥÐ´Ð°": 2498,
      "ĠÐĴÐ¾ÑģÑĤ": 2499,
      "ĠÐ·Ð¸Ð¼": 2500,
      "ĠÐĿÐµÐ±": 2501,
      "ĠÐĿÐµÐ¿": 2502,
      "ĠÐ¿ÑĢÐ¾Ð´": 2503,
      "Ð¸Ð»Ñĭ": 2504,
      "ĠÑĢÐ¾Ñģ": 2505,
      "ĠÐŁÐ°Ð²": 2506,
      "Ð½Ð¸Ð±ÑĥÐ´ÑĮ": 2507,
      "ĠÐ¢ÑĢ": 2508,
      "ÑīÐ¸Ñħ": 2509,
      "Ð¸ÑĢÐ°ÐµÑĤ": 2510,
      "ĠÐĶÐ°Ð´": 2511,
      "Ð¾Ð·Ð´": 2512,
      "ĠÐĳÐµÐ»": 2513,
      "Ð¾ÑĩÑĮ": 2514,
      "Ð°Ð¶Ðµ": 2515,
      "ĠÑģÐºÐ²Ð¾Ð·ÑĮ": 2516,
      "ĠÐ²ÑģÐ»ÐµÐ´": 2517,
      "ĠÐ¿Ð¾ÐµÑĤ": 2518,
      "Ð´ÐµÑĪÑĮ": 2519,
      "ĠÑĪÐµÐ»": 2520,
      "ĠÑĪÑĥÑĤ": 2521,
      "Ġ<-": 2522,
      "ĠÐ¸Ð·ÑĥÐ¼": 2523,
      "ĠÐ¿Ð¾Ð»ÐµÐ¹": 2524,
      "ĠÑģÐ¼ÐµÐ»": 2525,
      "ÑĮÑİÑĤ": 2526,
      "ĠÐ¿ÑĢÐ¸Ð³": 2527,
      "ĠÐ·Ð°Ð±ÑĭÐ²": 2528,
      "ĠÐ²Ð¾Ð¾Ð±ÑĢÐ°Ð¶": 2529,
      "ÐºÑĥÑģ": 2530,
      "ĠÑģÐ²Ð¾Ð¸Ð¼": 2531,
      "ĠÐ²ÐµÑģÐµÐ»Ð¾": 2532,
      "ĠÐ¼Ð¸ÑĢÐµ": 2533,
      "ĠÐ²Ð¸Ð´Ð½Ð¾": 2534,
      "Ġse": 2535,
      "Ġpar": 2536,
      "ĠÐ£Ð¶ÐµÐ»ÑĮ": 2537,
      "ÐµÑİÑĤ": 2538,
      "ĠÑĥÑģÐ¿": 2539,
      "ĠÑĢÐ°Ð´Ð¸": 2540,
      "ĠÐ²ÐµÑĩÐ½Ð¾": 2541,
      "ĠÐ¿Ð¾Ð²ÐµÑĢ": 2542,
      "ĠÐ·Ð°Ð²Ð¸ÑģÑĤ": 2543,
      "ĠÐ±Ð»Ð°Ð³Ð¾ÑĢÐ¾Ð´": 2544,
      "ĠÐ¿ÐµÐ²ÑĨÐ°": 2545,
      "ĠÐ¿Ð¾Ð·Ð´": 2546,
      "Ð¼Ð¾Ð»Ð²Ð¸": 2547,
      "ĠÑĥÐ½ÑĭÐ»ÑĭÐ¹": 2548,
      "ĠÐ¿Ð¾Ð³Ð¸Ð±": 2549,
      "ĠÑģÐ»ÑĭÑĪÑĥ": 2550,
      "ĠÐ³Ð»Ð°Ð·Ð°": 2551,
      "ĠÐ½ÐµÑģÑĩÐ°ÑģÑĤÐ½ÑĭÐ¹": 2552,
      "ĠÐŁÑĥÑģÑĤÑĮ": 2553,
      "ĠÑĢÐ°Ð·Ð³Ð¾Ð²Ð¾ÑĢ": 2554,
      "ĠÐ¡ÑĩÐ°ÑģÑĤÐ»Ð¸Ð²": 2555,
      "ĠÑħÐ¾ÑĩÑĥ": 2556,
      "ĠÐ½ÐµÐºÐ¾Ð³Ð´Ð°": 2557,
      "ĠÐ¸Ð½Ð¾Ð³Ð´Ð°": 2558,
      "Ð¸Ð»Ð¾ÑģÐ¾ÑĦ": 2559,
      "ĠÐķÐ²ÑĢÐ¾Ð¿": 2560,
      "Ð½ÐµÑĤÑģÑı": 2561,
      "Ð½Ð¾Ð´ÑĥÑĪ": 2562,
      "Ð»ÐµÑĩ": 2563,
      "Ð»ÑıÑĤ": 2564,
      "ÑĥÐ»ÑĮ": 2565,
      "ÑıÐµÑĤ": 2566,
      "ĠÑģÐ°Ð±": 2567,
      "ĠÐ²Ð¾Ð½": 2568,
      "ĠÐ²Ð¸Ð½Ð¾": 2569,
      "Ð²Ð¸Ð½": 2570,
      "ÑĩÐ¸Ðº": 2571,
      "ÑħÐ¸Ñī": 2572,
      "ĠÑĤÐ¾Ð»": 2573,
      "ĠÑĤÐºÐ°Ñĩ": 2574,
      "ĠÑĤÐ¾ÑĢÐ¶": 2575,
      "ĠÐ´Ð°Ð¶Ðµ": 2576,
      "ĠÐ¾ÐºÐ¾ÑĪ": 2577,
      "ĠÐ¸Ð»Ð¸": 2578,
      "ĠÐºÐ¸ÑģÑĤ": 2579,
      "ÐµÑĢÐ·": 2580,
      "Ð¾ÑĢÐ¾": 2581,
      "ĠÐ»Ð¾Ð±": 2582,
      "ĠÐ»Ð¾Ð¶": 2583,
      "ĠÐĴÐ¾Ð´": 2584,
      "ÑĨÐ¾": 2585,
      "ĠÐĿÐ°Ð²": 2586,
      "ĠÐĿÐ¸Ðº": 2587,
      "ĠÐŁÐ¾Ñģ": 2588,
      "ĠÐŁÐ¾ÑģÐ»ÐµÐ´": 2589,
      "Ð¾Ð³Ð°": 2590,
      "ĠÐ¡ÑĢÐµÐ´Ð¸": 2591,
      "Ð°Ð²Ñĭ": 2592,
      "Ð°Ð²Ð»ÐµÐ½": 2593,
      "Ð°ÑĤÐµ": 2594,
      "Ð½Ð¸ÑĨ": 2595,
      "Ð°ÑĢÐ¸ÑĤ": 2596,
      "Ð¾ÑģÑĥÐ´": 2597,
      "ĠÑĥÐ»ÐµÑĤ": 2598,
      "Ð°Ð½Ð´": 2599,
      "ĠÐļÑĢÑĥÐ³": 2600,
      "ĠÐļÑĥÐ¿": 2601,
      "Ð¾ÑĤÐµ": 2602,
      "ĠÑģÑĤÐµÐ½": 2603,
      "Ð¸Ð²Ñĭ": 2604,
      "ÑīÐµÐ¹": 2605,
      "ĠÐ½Ð°Ñħ": 2606,
      "ĠÐ½ÐµÐ¸Ð·": 2607,
      "ÐµÑĩÑĮ": 2608,
      "Ð°Ð·Ð°Ð»": 2609,
      "ÑĤÐ¾Ñİ": 2610,
      "ĠÐĶÐµÑĢÐ¶": 2611,
      "Ð¾Ð·Ñı": 2612,
      "ĠÐĵÐµÑĢ": 2613,
      "ĠÐºÑĢÐ¸Ñĩ": 2614,
      "Ð»ÑıÐ¶Ñĥ": 2615,
      "ĠÐŁÑĢÐ¾Ð²": 2616,
      "ÑĭÐ»Ð°": 2617,
      "ÑĭÐ»ÑģÑı": 2618,
      "ĠÑĨÐµÐ½": 2619,
      "ĠÐ²ÑģÐµÐ¹": 2620,
      "ĠÐ¿Ð¾Ð½Ð¸Ðº": 2621,
      "ĠÐ¾Ð±Ð¾": 2622,
      "ĠÐ¾Ð±Ð½": 2623,
      "ĠÐ¼Ð¾Ñī": 2624,
      "ĠÐ¼Ð¾Ð¸Ð¼": 2625,
      "ĠÐ»Ð¸Ðº": 2626,
      "ĠÐ¿Ð¾Ð´ÑĭÐ¼": 2627,
      "ĠÐłÐ¸Ð¼": 2628,
      "ĠÐ³Ð¾ÑĢÐµÑģÑĤ": 2629,
      "ĠÐ¿Ð»ÐµÑĩ": 2630,
      "ĠÐ¿Ð»ÐµÐ½Ñı": 2631,
      "ĠÐ´ÑĢÑĥÐ³Ð¸": 2632,
      "ĠÐ¼Ð¸Ð»ÑĭÑħ": 2633,
      "ĠÐ¿ÑĢÐ¸ÑİÑĤ": 2634,
      "ĠÐ±ÐµÐ·Ð²ÐµÑģÑĤ": 2635,
      "ÑĭÑĤÑĭÐ¹": 2636,
      "ĠÐ¾Ð´Ð½Ð¾Ð¹": 2637,
      "Ð¸ÑģÑĤÑĭÐ¹": 2638,
      "Ð»ÑİÑĤ": 2639,
      "***": 2640,
      "ĠÐ±Ð¾Ð³Ð¾Ð²": 2641,
      "ĠÐ±Ð¾Ð³Ð°ÑĤÑĭ": 2642,
      "ĠÐ¼Ð¾ÑĢÐµÐ¼": 2643,
      "Ð¾ÑĪÐ»Ð¸": 2644,
      "ĠÐ¾ÑĩÐµÐ½ÑĮ": 2645,
      "ĠÑģÐ»Ð°Ð´ÐºÐ¾": 2646,
      "ĠÐ¿ÑĥÑģÑĤÑĭÐ½Ðµ": 2647,
      "ĠÑĤÐµÐ¼Ð½Ð¾Ð¹": 2648,
      "ĠÐ»ÑİÐ±Ð¾Ð²ÑĮÑİ": 2649,
      "ĠÐ¡ÐºÐ²Ð¾Ð·ÑĮ": 2650,
      "ous": 2651,
      "ĠÐ¼ÐµÑĩÑĤÐ°Ð½ÑĮÑı": 2652,
      "ĠÐ¿ÑĢÐ°Ð²Ð¾": 2653,
      "ĠÐ¿ÑĢÐ°Ð²Ð´": 2654,
      "ÑĢÐ°ÑĤÐ°": 2655,
      "ĠÐ½Ð°Ð¿ÑĢÐ°Ñģ": 2656,
      "ĠÐ·Ð½Ð°Ð»": 2657,
      "ĠÐ»Ð¸ÑĢÐµ": 2658,
      "ĠÐ²Ð»ÑİÐ±": 2659,
      "ĠÐ¡Ð¿Ð°Ñģ": 2660,
      "ĠÐ·Ð½Ð°ÐµÑĪÑĮ": 2661,
      "ĠÐ¿Ð°ÑĢÑĥÑģ": 2662,
      "Ð¾ÑĤÐ²Ð¾ÑĢÐµÑĨ": 2663,
      "ĠÐļÑĢÐ°ÑģÐ°Ð²": 2664,
      "ĠÑĤÐ¾ÑģÐºÐ¾Ð¹": 2665,
      "ĠÐ·Ð°Ð±Ð°Ð²Ñĭ": 2666,
      "ĠÐĿÐµÑģÑĩÐ°ÑģÑĤ": 2667,
      "ĠÐłÐ¾ÑģÑģÐ¸Ð¸": 2668,
      "Ġune": 2669,
      "ĠÑĥÑģÐ»ÑĭÑĪ": 2670,
      "ĠÐ³Ð¾ÑģÑĤÐµÐ¹": 2671,
      "ĠÐ°Ð½Ð³ÐµÐ»": 2672,
      "ĠÐºÐ°Ð¶ÐµÑĤÑģÑı": 2673,
      "Ġplus": 2674,
      "ĠÐ¾Ð±ÑĬÑıÑĤÐ¸ÑıÑħ": 2675,
      "ier": 2676,
      "ne": 2677,
      "Ðł": 2678,
      "ĠV": 2679,
      "Ġ****": 2680,
      "Ð¾ÑįÑĤ": 2681,
      "ÑĤÐµÑģÑĮ": 2682,
      "Ð¸Ð¶": 2683,
      "Ð½Ð¾Ð¶": 2684,
      "Ð»ÐµÐ¼": 2685,
      "ÑĭÑĢ": 2686,
      "ÑĭÑģÐ»": 2687,
      "ÑĮÐµÑĤÑģÑı": 2688,
      "ĠÑģÐ¾Ð»": 2689,
      "ĠÑģÐµÐ»": 2690,
      "ĠÐ²ÑģÑĤ": 2691,
      "ĠÐ¿ÐµÐ»": 2692,
      "ĠÐ¿Ð¾Ñİ": 2693,
      "ĠÐ¿Ð¸ÑĪ": 2694,
      "Ð´Ð°Ð»Ð¸": 2695,
      "Ð´Ð¾ÑĢÐ¾Ð²": 2696,
      "ĠÐ½ÑĥÐ¶": 2697,
      "ÑĩÑĥ": 2698,
      "ĠÐ¼Ñĩ": 2699,
      "ĠÐ¼Ð¾Ð»ÑĮÐ±": 2700,
      "Ð¾Ð¹Ð´ÐµÑĤ": 2701,
      "Ð¼ÐµÑĪ": 2702,
      "ĠÑĤÐ¾Ð½": 2703,
      "ĠÐ´ÐµÐ½": 2704,
      "ĠÐ´ÑĥÑĢ": 2705,
      "ĠÐ´ÑĢÐ¾Ð¶": 2706,
      "ĠÐ¾Ð½Ð¾": 2707,
      "ĠÐ¾ÐºÐ¾Ð²": 2708,
      "ĠÐ±Ð¾Ð¹": 2709,
      "ĠÐ±Ð¸ÑĤ": 2710,
      "ĠÐ±ÑĥÐ¹": 2711,
      "Ð¾Ð²Ñĥ": 2712,
      "ĠÐºÑĥÐ´": 2713,
      "ĠÐºÑĥÑģÑĤ": 2714,
      "ĠÐºÐ°Ð¿": 2715,
      "ĠÐĺÐ³ÑĢ": 2716,
      "Ð¾Ð´Ðµ": 2717,
      "ĠÐ¿ÑĢÐ¸ÑĤ": 2718,
      "Ð±Ð¸": 2719,
      "ĠÐŁÐ¾Ð¹": 2720,
      "ĠÐŁÐ¾Ð¿": 2721,
      "Ð½Ð¸Ð·": 2722,
      "Ð°Ð´Ñĭ": 2723,
      "Ð°Ð½Ð½Ð¾Ð¹": 2724,
      "ĠÐļÐ¾Ð»ÑĮ": 2725,
      "ĠÑĩÐµÑģÑĤ": 2726,
      "Ð¾ÐºÑĢÑĥÐ³": 2727,
      "ĠÐ¶Ð¸Ð»": 2728,
      "ĠÐ¶ÑĢÐµÐ±": 2729,
      "ĠÐ½ÐµÑĩ": 2730,
      "ÐµÐ½ÑĮÐºÐ°": 2731,
      "ÑĥÐ´Ð¾": 2732,
      "ĠÐľÐ¸Ð¼Ð¾": 2733,
      "Ð¸Ð¼ÑģÑı": 2734,
      "ĠÐĳÑĭÐ²Ð°Ð»Ð¾": 2735,
      "ĠÐ¾ÑĤÐ´": 2736,
      "ĠÐĵÐ»ÑıÐ´": 2737,
      "ĠÐĹÐ°Ð´": 2738,
      "ĠÐĹÐ°Ð¿": 2739,
      "ĠÑħÐ¾ÑĩÐµÑĤ": 2740,
      "ĠÑħÐ¾Ð·Ñı": 2741,
      "ĠÐºÑĢÑĥÑĤ": 2742,
      "ĠÐºÑĢÐµÐ¿": 2743,
      "ĠÐĲÑĢÐ¸ÑģÑĤ": 2744,
      "ĠÐ»ÑİÐ±Ñı": 2745,
      "ĠÐ²ÑģÐº": 2746,
      "ĠÐ¿Ð¾ÑĪÐµÐ»": 2747,
      "ÑģÐºÐ¸Ð¼": 2748,
      "ÑģÐºÐ¾Ñİ": 2749,
      "ĠÐ§ÑĥÑĤÑĮ": 2750,
      "ĠÐ¼Ð¾ÐµÐ¼": 2751,
      "ĠÑĤÑĢÐµÐ¿": 2752,
      "ĠÑĢÐ°Ð·ÑĥÐ¼": 2753,
      "ĠÐ²Ð·Ð³Ð»Ñı": 2754,
      "ĠÐ¼Ð¸Ð»Ð°Ñı": 2755,
      "ĠÐ¼Ð¸Ð»ÑĭÐµ": 2756,
      "ĠÐ¿ÑĢÐ¸ÑĪÐµÐ»": 2757,
      "ÑĥÐ±Ð¾Ðº": 2758,
      "ĠÐ±ÐµÐ·Ð¼Ð¾Ð»Ð²Ð¸": 2759,
      "Ð¾ÑģÑĤÐ¸Ð³": 2760,
      "ĠÐ´ÑĥÑĪÑĥ": 2761,
      "ĠÐ¿ÑĢÐµÐ´ÐµÐ»": 2762,
      "ĠÐŀÑĤÐºÑĢ": 2763,
      "ĠÑģÐ¿Ð¾ÑĢ": 2764,
      "Ã©e": 2765,
      "ĠÐ±ÐµÑģÑĨ": 2766,
      "ĠÐ²ÐµÑģÐ½Ñĭ": 2767,
      "ĠÐ²ÐµÑģÐµÐ»ÑĭÐ¹": 2768,
      "ĠÐ¼ÑĭÑģÐ»": 2769,
      "ÑĥÑģÐ°ÑĢ": 2770,
      "Ġses": 2771,
      "ĠÑĤÐ¸ÑħÐ¾Ð½ÑĮÐºÐ¾": 2772,
      "ĠÐ·Ð²ÑĥÐºÐ¸": 2773,
      "ĠÐ·Ð²ÐµÐ·Ð´": 2774,
      "Ð½ÑĥÐ»Ð°ÑģÑĮ": 2775,
      "ĠÐ½ÐµÐ²ÐµÑģÑĤ": 2776,
      "ĠÐ½ÐµÐ²Ð¾Ð»ÑĮ": 2777,
      "and": 2778,
      "ĠÐ»ÑİÐ±Ð¾Ð²Ð½Ð¸Ðº": 2779,
      "ĠÐ¡ÐºÐ°Ð¶": 2780,
      "ĠÑĢÐ°Ð´Ð¾ÑģÑĤ": 2781,
      "ĠÐ¸Ð¼Ð¸": 2782,
      "ĠÐºÑĢÐ¾Ð²Ð¸": 2783,
      "ĠÑģÑĤÐ¸ÑħÐ°Ð¼Ð¸": 2784,
      "ĠÑĥÐ³Ð¾Ð»": 2785,
      "ÑĢÑıÑħ": 2786,
      "Ġma": 2787,
      "Ġme": 2788,
      "ĠÑĢÐ°ÑģÐ¿": 2789,
      "que": 2790,
      "Ġ->": 2791,
      "ĠÐ²Ð°ÑĪÐ¸Ñħ": 2792,
      "ĠÐ¿Ð¾Ð¼Ð½Ð¸ÑĪÑĮ": 2793,
      "Ġau": 2794,
      "ĠÐ¿ÐµÑĩÐ°Ð»ÑĮÐ½Ð¾Ð¹": 2795,
      "ĠÐ¡Ð¿Ð¾ÐºÐ¾Ð¹": 2796,
      "ĠÐ±ÐµÑĢÐµÐ³Ð¾Ð²": 2797,
      "ĠÐ¡Ð¼Ð¸ÑĢ": 2798,
      "Ġque": 2799,
      "ĠÑģÑĤÑĢÐ°ÑģÑĤÐ¸": 2800,
      "ĠÐ²Ð¾ÑģÑħÐ¸Ñī": 2801,
      "ĠÑĩÑĥÐ´Ð¾": 2802,
      "ĠÐ¾ÑĤÐ²ÐµÑĩ": 2803,
      "ĠÐ²Ð¾ÑĢÐ¾Ð½": 2804,
      "ĠÐ»ÑĥÑĩÑĪÐµ": 2805,
      "Ġje": 2806,
      "ĠÐ´ÐµÑĤÐ¸": 2807,
      "ĠÐ²ÑĭÑģÐ¾Ðº": 2808,
      "ĠÐ³Ð¾Ð»Ð¾Ð²Ð¾Ñİ": 2809,
      "ĠÐŁÐ¾ÐºÐ°": 2810,
      "ĠÑĢÐ¾ÑīÐ¸": 2811,
      "ĠÐ»Ð°Ð²ÑĢ": 2812,
      "ĠÐ¿ÑĢÐ¾ÑĩÑĮ": 2813,
      "ĠÑĩÑĥÐ¶Ð¾Ð¹": 2814,
      "ĠÑģÐ»Ð¾Ð²Ð¾": 2815,
      "ĠÐ½ÐµÐ½Ð°Ð²": 2816,
      "ĠÐºÐ»ÑİÑĩ": 2817,
      "ĠÐ³Ð¾ÑģÐ¿Ð¾Ð´": 2818,
      "ĠÐ³Ð¾ÑģÐ¿Ð¾Ð´Ð°": 2819,
      "ĠIl": 2820,
      "ĠÑĤÑĥÑĩÐ¸": 2821,
      "ĠÑģÑĤÐ°ÑĢÑĥÑħÐ°": 2822,
      "Ð¼Ð¾Ð¶Ð½Ð¾": 2823,
      "ĠÐŁÐµÑĩÐ°Ð»ÑĮ": 2824,
      "ĠÐ·ÐµÑĢÐºÐ°Ð»ÑĮ": 2825,
      "ĠÑĢÐµÐ²Ð½Ð¸Ð²": 2826,
      "Ð¡ÑĤÐ¸Ñħ": 2827,
      "ĠÐļÐ¸Ð¿ÑĢÐ¸Ð´": 2828,
      "ĠÐĺÑĤÐ°Ðº": 2829,
      "ĠÐ²Ð¼ÐµÑģÑĤ": 2830,
      "ĠÐŀÑĤÐ²ÐµÑĩÐ°ÐµÑĤ": 2831,
      "ĠÑĤÐºÐ°ÑĩÐ¸ÑħÐ°": 2832,
      "ac": 2833,
      "la": 2834,
      "ri": 2835,
      "vi": 2836,
      "Ġes": 2837,
      "Ð°Ð½Ð¸Ð¹": 2838,
      "ÑĤÐ°Ð¹": 2839,
      "ÑģÐµÐ¼": 2840,
      "ÑģÐ¿": 2841,
      "ÑĢÐµÑĤ": 2842,
      "ÑĢÐ¾Ð±": 2843,
      "ÑĢÐ¾ÑĪ": 2844,
      "Ð»ÑĭÑħ": 2845,
      "ĠÑģÐ¾Ð´": 2846,
      "ĠÑģÑĢÐ°Ð¶": 2847,
      "ĠÑģÑİÐ´Ð°": 2848,
      "ĠÐ²Ð½": 2849,
      "Ð²Ð¸Ð»": 2850,
      "ĠÐ¼ÑĢÐ°Ð¼": 2851,
      "ÐµÐ½Ð½Ñĭ": 2852,
      "ÐµÐ½ÐµÐ¹": 2853,
      "ĠÑĤÐ¾Ñĩ": 2854,
      "ĠÐ´Ð¾Ð¶Ð´": 2855,
      "ĠÐ´Ð»Ð¸Ð½": 2856,
      "ĠÐºÐµÐ¼": 2857,
      "ĠÐºÐ¾ÑģÑĤ": 2858,
      "ĠÐºÐ»Ð°Ð´": 2859,
      "ĠÐºÑĥÐ¼Ð¸ÑĢ": 2860,
      "ÐµÑĢÑģ": 2861,
      "ĠÐĴÐ°Ð¼": 2862,
      "ĠÐĴÐ»Ð°Ð´": 2863,
      "ÑĨÐ¾Ð¼": 2864,
      "Ð¾Ð´Ð¸ÑĤÑĮ": 2865,
      "ĠÐ·ÐµÐ²": 2866,
      "ĠÐĿÐµÐ¼": 2867,
      "ĠÐ¿ÑĢÐ¾Ð»": 2868,
      "ĠÐ¿ÑĢÐ¾ÑĤ": 2869,
      "ĠÑĢÑĭ": 2870,
      "ĠÑĢÑĥÐ±": 2871,
      "ĠÑĢÐ¾ÑģÑģ": 2872,
      "ĠÐŁÐ¾Ð·Ð²": 2873,
      "Ð¾Ð³Ð¸": 2874,
      "ĠÐ¡ÑĢÐµÐ´ÑĮ": 2875,
      "Ð°ÑĢÐ°": 2876,
      "Ð°Ð´Ñĥ": 2877,
      "ĠÑĥÐºÑĢ": 2878,
      "Ð¾ÑĤÐ¾Ð¹": 2879,
      "ĠÑģÑĤÐµÐº": 2880,
      "ĠÐ¢Ð°": 2881,
      "ĠÐ¢Ð¾Ð¼": 2882,
      "ĠÑĩÑĥÑĤÑĮ": 2883,
      "ĠÐ¶ÐµÐ»Ð°": 2884,
      "ÐµÐ²Ð¾Ð¹": 2885,
      "ĠÐľÐ¸Ð»": 2886,
      "ĠÐĶÐµÐ²": 2887,
      "Ð¾Ð¶Ð°Ð»": 2888,
      "ĠÐĲÐ²": 2889,
      "ĠÐŁÑĢÐ¸ÑĪ": 2890,
      "Â»,": 2891,
      "ĠÑĨÐµÐ»ÑĭÐ¹": 2892,
      "ĠÐ²ÑģÐµÐ³Ð¾": 2893,
      "ĠÐ²ÑģÐµÐ³Ð´Ð°": 2894,
      "ĠÐ»Ð¸Ð¿": 2895,
      "Ð²Ð¸ÑģÑĤ": 2896,
      "ĠÐ³Ð¾ÑĢÑĭ": 2897,
      "ĠÐ¸Ð·Ð¼": 2898,
      "ĠÐ±ÑĢÐ¾Ð´Ð¸ÑĤ": 2899,
      "ĠÐºÐ°ÐºÐ¾Ð¹": 2900,
      "ÑĥÐºÐ¾Ð¹": 2901,
      "ÑįÐ·": 2902,
      "ĠÐķÐ¼Ñĥ": 2903,
      "Ð½ÑıÐ²": 2904,
      "Ð»Ð°ÑĪ": 2905,
      "ĠÐ¡ÑĤÐ°Ð¼": 2906,
      "ĠÐ¿Ð¾ÐºÑĢÐ¾Ð²": 2907,
      "ĠÐ¿ÑĢÐµÐ´Ð¾": 2908,
      "ĠÐ·Ð°Ð±Ð»": 2909,
      "ĠÐŀÑĤÐ´": 2910,
      "ÑĢÐ°Ð²ÐµÐ´": 2911,
      "ĠÐ½Ð¾ÑĩÑĮÑİ": 2912,
      "ÐµÑīÑĥÑĤ": 2913,
      "Ã©c": 2914,
      "ĠÑģÐ»Ð°Ð²Ð¾Ð¹": 2915,
      "ĠÐ±Ð¾Ð³Ñĥ": 2916,
      "ĠÐ±Ð¾Ð³Ð¾Ð¼": 2917,
      "ĠÐ½ÐµÐ±Ð¾": 2918,
      "ĠÐ·Ð²ÐµÐ·Ð´Ð°": 2919,
      "ĠÐ²Ð¾Ð·Ð´": 2920,
      "ĠÑģÐ»Ð°Ð´ÐºÐ¸Ð¹": 2921,
      "ĠÐ¼Ð¾Ð»Ð¾Ð´ÑĭÑħ": 2922,
      "ĠÑģÑĩÐ°ÑģÑĤÑĮÐµ": 2923,
      "Ð½Ð¾ÑģÑĤÑĮÑİ": 2924,
      "ĠÑĥÑģÐµÑĢÐ´": 2925,
      "ĠÐ²ÐµÑĩÐ½ÑĭÐ¹": 2926,
      "ĠÐ²ÐµÑĩÐ½Ð¾Ð¹": 2927,
      "ĠÑĤÐ¾Ð¼Ð½ÑĭÐ¹": 2928,
      "ĠÐ¾ÑģÐ»": 2929,
      "ÑıÑĤÑĮÑģÑı": 2930,
      "ĠÐ´ÐµÐ²Ñĭ": 2931,
      "ĠÐĴÑĭÑģ": 2932,
      "Ð½ÑĮÐµ": 2933,
      "ĠÐ·Ð½Ð°ÑĤ": 2934,
      "ĠÐ·Ð½Ð°ÑĤÑĮ": 2935,
      "ĠÐ»Ð¸ÑĢÑĭ": 2936,
      "Ð»Ð¾Ð½Ð¸": 2937,
      "Ð¾ÑģÐºÐ»Ð¾Ð½": 2938,
      "Ð¡Ð²ÑıÑī": 2939,
      "ĠÐĿÐ°Ð´ÐµÐ¶Ð´": 2940,
      "ĠÐ»ÐµÑģÑĥ": 2941,
      "ĠÐ¡Ð¼Ð¾ÑĤÑĢ": 2942,
      "ĠÐ¿ÑĢÐµÐ»ÐµÑģÑĤÐ½Ð¾Ð¹": 2943,
      "ĠÑģÐºÐ°Ð·Ð°ÑĤÑĮ": 2944,
      "ĠÐ·ÐµÐ¼Ð»Ð¸": 2945,
      "ĠÑģÑĤÑĢÐ°ÑģÑĤÐµÐ¹": 2946,
      "ĠÐ¾ÑĤÐ²ÐµÑĩÐ°ÐµÑĤ": 2947,
      "ĠÑĩÐ°ÑĪÑĥ": 2948,
      "ĠÑĩÐ°ÑĪÐµÐ¹": 2949,
      "ĠĠĠĠĠĠĠĠĠĠĠĠĠĠĠĠĠĠĠĠ": 2950,
      "ĠÐ¿Ð°ÑĢÐ½Ð°Ñģ": 2951,
      "ĠÐ´Ð²ÐµÑĢÑĮ": 2952,
      "ĠÐ´Ð°Ð»ÐµÐº": 2953,
      "ĠÐ±Ð¾Ð»Ðµ": 2954,
      "ĠÑĢÐ°Ð²Ð½Ð¾Ð´ÑĥÑĪ": 2955,
      "ĠÐ²Ð¾ÑģÑĤÐ¾ÑĢÐ³Ð¾Ð¼": 2956,
      "ĠÐ³Ð¾Ð»Ð¾Ð²Ñĥ": 2957,
      "ĠÐ³Ð»ÑıÐ´Ð¸ÑĤ": 2958,
      "ĠÐ¿ÑĢÐµÐ·ÑĢ": 2959,
      "ĠÐ±Ð¾Ð»ÑĮÑĪ": 2960,
      "ĠÐ¼ÑĢÐ°ÐºÐµ": 2961,
      "Ã¨s": 2962,
      "ĠÐ½Ð¸ÑĩÐµÐ³Ð¾": 2963,
      "ĠÑĥÐ³ÑĢÑİÐ¼ÑĭÐ¹": 2964,
      "ĠÐ¿ÑĢÐ¸ÑĢÐ¾Ð´Ñĭ": 2965,
      "ĠÑģÐ¾Ð²ÑģÐµÐ¼": 2966,
      "ĠÑģÑĥÐ¼ÑĢÐ°Ðº": 2967,
      "ĠÑĢÑĥÐºÐ°Ñħ": 2968,
      "ĠÑıÐ·ÑĭÐº": 2969,
      "ĠÑĢÐ¾ÐºÐ¾Ð²Ð¾Ð¹": 2970,
      "ĠÑģÐ¾Ð»Ð½ÑĨÐµ": 2971,
      "ĠÑģÐ°ÑĤÐ¸ÑĢ": 2972,
      "ĠÐļÑĥÐ¿Ð¸Ð´": 2973,
      "ĠÐ±ÐµÐ·Ð¼Ð¾Ð»Ð²Ð¸Ð¸": 2974,
      "Ð¡Ð²ÑıÑīÐµÐ½Ð½Ð¸Ðº": 2975,
      "de": 2976,
      "Ð£": 2977,
      "ĠâĢ": 2978,
      "ÐµÑĦÐ¸ÑĢ": 2979,
      "ÑĤÑĭ": 2980,
      "ÑĤÐ°Ð½Ð°": 2981,
      "Ð¸ÐµÐ¼": 2982,
      "Ð¸ÐºÐ°": 2983,
      "Ð½Ð¾Ð³": 2984,
      "ÑĢÐ¸ÑĤ": 2985,
      "ÑĢÐ·": 2986,
      "ÑĢÑĥÐ´": 2987,
      "ÑıÐ»Ð°": 2988,
      "ĠÑģÐµÐ½ÑĮ": 2989,
      "ĠÑģÑĥÐ»": 2990,
      "ĠÐ¿ÑıÑĤ": 2991,
      "ÐºÑĥÑİ": 2992,
      "ĠÐ¼ÑĥÑĤ": 2993,
      "ĠÐ¼Ð¸Ð¼Ð¾": 2994,
      "ĠÑĤÐ°Ð±": 2995,
      "ÐµÑĤÐµÐ»": 2996,
      "ĠÐ´Ð¸": 2997,
      "ĠÐ´ÐµÐ´": 2998,
      "Ð¾Ð»Ð¾Ð´": 2999,
      "Ð¾Ð²Ñĭ": 3000,
      "Ð¾Ð²ÐµÐ´": 3001,
      "Ð¾Ð²ÑĭÑħ": 3002,
      "ĠÐºÐ°Ñĩ": 3003,
      "ÐµÐ»ÑĭÑħ": 3004,
      "ĠÐ»ÐµÐ¶": 3005,
      "ĠÐĴÐµÑĩ": 3006,
      "ĠÐĴÐ½ÐµÐ¼": 3007,
      "ĠÐ·Ð°Ñħ": 3008,
      "ĠÐ·Ð°Ð³": 3009,
      "ĠÐĿÐ¾Ñĩ": 3010,
      "ĠÐĿÐ°ÑģÑĤ": 3011,
      "Ð±Ñĭ": 3012,
      "ĠÑĢÐ¾": 3013,
      "ĠÑĢÐ°ÑģÑĤ": 3014,
      "ĠÐŁÐ¾ÑĢ": 3015,
      "âĢĿ": 3016,
      "ĠÐ¡Ð²ÐµÑĤ": 3017,
      "ĠÐ¡ÑĥÐ´ÑĮÐ±": 3018,
      "ÐµÐ¼Ð»ÐµÑĤ": 3019,
      "Ð°ÑĢÐµÐ¼": 3020,
      "Ð°Ð´Ð¾Ð¹": 3021,
      "Ð°Ð¼Ð¿": 3022,
      "ÐµÑģÑģ": 3023,
      "Ð°ÐºÐ°": 3024,
      "ĠÑĥÑħ": 3025,
      "ĠÑĥÑģÑĤÑĢ": 3026,
      "ĠÐļÐ»ÑıÐ½ÑĥÑģÑĮ": 3027,
      "ĠÑģÑĤÐ¾Ð»ÑĮ": 3028,
      "ĠÐ¢Ð¸Ñħ": 3029,
      "ĠÐŀÐº": 3030,
      "ĠÐŀÑħ": 3031,
      "Ð¸Ð²Ñĥ": 3032,
      "Ð¸Ð²Ð°ÑĤÑĮ": 3033,
      "ĠÐ¶ÐµÐ½Ð°": 3034,
      "ÐµÐ²ÐµÑĤ": 3035,
      "ĠÑıÐ´": 3036,
      "Ð¾ÑģÑĤÐ¾Ð¹": 3037,
      "ÐµÐ·Ñĭ": 3038,
      "ĠÐľÐ¾Ð³": 3039,
      "Ð¸ÑĢÐ°Ð»": 3040,
      "ĠÐĶÐ¾Ð²": 3041,
      "ĠÐĶÐ¾Ð»Ð³Ð¾": 3042,
      "Ð¾ÑİÑģÑĮ": 3043,
      "ÑĥÑĤÑĢÑĥ": 3044,
      "Ð»Ð¸Ð¶": 3045,
      "ĠÐĳÐ°ÑĢ": 3046,
      "ĠÐĳÐ°Ð±": 3047,
      "ĠÐĳÐ»Ð¸Ð·": 3048,
      "ÐºÐ¸Ñı": 3049,
      "Ð¾Ð¶Ð¸ÑĤ": 3050,
      "Ð¾ÑĩÐºÐ¸": 3051,
      "ĠÐ¾ÑĤÐµÑĨ": 3052,
      "ĠÐĵÐ¾ÑĤÐ¾Ð²": 3053,
      "ĠÐĹÐ°Ðº": 3054,
      "ĠÐĹÐµÐ²": 3055,
      "ÑĥÑĪÐ¾Ðº": 3056,
      "ÐºÐ°ÐµÑĤ": 3057,
      "ĠÐŁÑĢÐµÐº": 3058,
      "ĠÐ£ÑĤ": 3059,
      "ĠÐ£Ðº": 3060,
      "ĠÐ£Ð²Ð¸Ð´": 3061,
      "ÑģÐºÐ°Ð·": 3062,
      "ĠÐĽÑİ": 3063,
      "ĠÐ§ÐµÐ¼": 3064,
      "ĠÑĢÐ°Ð·ÑĢ": 3065,
      "ĠÑĢÐ°Ð·Ð¼": 3066,
      "ĠÐ¿Ð»ÐµÐ¼": 3067,
      "ĠÐ±ÑĢÐ¾Ð´": 3068,
      "ĠÐ¼Ð¸Ð»Ð¾Ð³Ð¾": 3069,
      "ĠÑģÑĤÑĢÐ°Ð¶": 3070,
      "ÐµÑĪÑĮÑģÑı": 3071,
      "Ð¾ÐµÑİ": 3072,
      "ĠÐ·Ð°Ð±Ð¾ÑĤÑĭ": 3073,
      "Ð»ÑİÑģÑĮ": 3074,
      "ĠÐ¥Ð»": 3075,
      "ĠÐ¥Ð¾ÑĤ": 3076,
      "ĠÑģÐ¿Ð¸ÑĤ": 3077,
      "ĠÐ°Ñħ": 3078,
      "Ġlui": 3079,
      "ĠÐ±Ð¾Ð³Ð°": 3080,
      "ĠÐ²ÐµÑģÐµÐ»ÑĮÐµ": 3081,
      "Ġpeu": 3082,
      "ĠÐ²ÐµÑĢÑĪ": 3083,
      "ĠÐ»ÐµÑĤÐ¸ÑĤ": 3084,
      "ĠÐ´Ð¾Ð»Ð¸Ð½Ñĭ": 3085,
      "ĠÐ²Ð¾Ð·ÑĮÐ¼": 3086,
      "Ð°Ð¶Ð´Ñĭ": 3087,
      "Ð¾Ð±ÑĢÐ°Ð·": 3088,
      "ĠÐ¿ÑĥÑģÑĤÑĮ": 3089,
      "ĠÐ±ÑĭÐ»Ð¸": 3090,
      "ĠÐĸÐµÐ»": 3091,
      "ĠÐ¿Ð¾ÑĤÐ¾Ðº": 3092,
      "ĠÐ³ÑĢÐ¾Ð·Ð½Ð¾": 3093,
      "ĠÑĥÐ³Ð°Ñģ": 3094,
      "ÑıÑīÐ¸Ð¹": 3095,
      "ĠÐ¦Ð²ÐµÑĤ": 3096,
      "ĠÑģÐ°Ð¼Ð°": 3097,
      "ĠÐ·Ð°Ð²ÐµÑĤ": 3098,
      "ĠÐ·Ð°Ð²Ð¸Ð´": 3099,
      "ĠÐ²ÐµÑĤÑħ": 3100,
      "ĠÐ¼Ð¾Ð»ÑĩÐ°Ð½ÑĮÐ¸": 3101,
      "ĠÐ½Ð°ÑĢÐ¾Ð´Ð°": 3102,
      "ĠÐ¿Ð¾Ð·Ð¾ÑĢ": 3103,
      "ĠÐ¨ÑĥÐ¼": 3104,
      "ĠÐ»ÐµÑģÐ°": 3105,
      "ĠÐ´ÑĥÐ¼Ð¾Ð¹": 3106,
      "ĠÐ½ÐµÐ±ÐµÑģÐ°": 3107,
      "ĠÐĴÐ·Ð´Ð¾Ñħ": 3108,
      "ĠÑĦÐ¾Ð½": 3109,
      "ĠÐ¸ÑģÐ¿Ð¾Ð»": 3110,
      "ĠÑģÑĩÐ°ÑģÑĤÐ»Ð¸Ð²Ð¾Ð¹": 3111,
      "ĠÑģÑĩÐ°ÑģÑĤÐ»Ð¸Ð²ÑĭÐ¹": 3112,
      "ĠÐĳÐµÐ·ÑĥÐ¼": 3113,
      "ĠÑģÐºÐ°Ð·Ð°Ð»Ð°": 3114,
      "ĠÑĥÐ²ÐµÐ½Ñĩ": 3115,
      "ĠÐºÐ¾Ð»ÐµÑģ": 3116,
      "ĠÑģÐ»ÑĭÑĪÐ¸ÑĤ": 3117,
      "ĠÐ³Ð»Ð°Ð²Ñĥ": 3118,
      "ĠÐ¿Ð»Ð°Ð¼ÐµÐ½Ð½Ð¾Ð¹": 3119,
      "ĠÑģÐ»Ð°Ð´Ð¾ÑģÑĤÐ½Ð¾Ð¹": 3120,
      "ĠÐ´Ð¸Ð²Ð¾": 3121,
      "ĠÐ·Ð¾Ð»Ð¾ÑĤÐ¾Ð¹": 3122,
      "ĠÐ¾ÐºÑĢÑĥÐ¶": 3123,
      "ĠÐ½Ð°ÑģÐ»Ð°Ð¶Ð´ÐµÐ½ÑĮÐµ": 3124,
      "ĠÐ½Ð°ÑģÐ»Ð°Ð¶Ð´ÐµÐ½Ð¸Ð¹": 3125,
      "ĠÑĩÑĥÐ´ÐµÑģ": 3126,
      "ĠÐĴÐ´Ð°Ð»Ð¸": 3127,
      "ĠÐ¿ÑĢÐ¸Ð·ÑĢÐ°Ðº": 3128,
      "ĠÐ²ÐµÐ´ÐµÑĤ": 3129,
      "ĠÐ¢Ð²Ð¾Ð¸": 3130,
      "ĠÐļÐ¾ÑĢÐ°Ð±": 3131,
      "ĠÐ¿ÑĢÐ¾ÐºÐ»ÑıÑĤ": 3132,
      "ĠÐ¿ÑĢÐ¾ÑħÐ»Ð°Ð´": 3133,
      "ĠÐ¿ÑĢÐ¾ÑħÐ¾Ð´Ð¸ÑĤ": 3134,
      "ĠÐ²Ð¿ÐµÑĢ": 3135,
      "ĠÐ·ÑĢÐ¸ÑĤ": 3136,
      "Ð´ÑĢÐ°Ð²ÑģÑĤÐ²ÑĥÐ¹": 3137,
      "ĠÑĥÐµÐ´Ð¸Ð½ÐµÐ½Ð½ÑĭÐ¹": 3138,
      "ĠÑĥÐµÐ´Ð¸Ð½ÐµÐ½ÑĮÑı": 3139,
      "ort": 3140,
      "ĠÐ¼Ð½Ð¾Ð³": 3141,
      "ĠÐ±Ð»ÐµÑģÐº": 3142,
      "ĠÐ½ÐµÐ½Ð°ÑģÑĤ": 3143,
      "ĠÑħÐ»Ð¾Ð¿": 3144,
      "ĠÑģÑĥÐ¼ÑĢÐ°Ñĩ": 3145,
      "ĠÐ³Ð»ÑĥÑħÐ¾Ð¹": 3146,
      "ĠÐ²Ð½ÐµÐ¼Ð»ÐµÑĤ": 3147,
      "ĠÐ³Ð¸Ð±ÐµÐ»ÑĮ": 3148,
      "ĠÐ±Ð°Ð±Ð¾Ð¹": 3149,
      "ĠÐ±Ð¾ÐºÐ°Ð»": 3150,
      "ĠÑģÑĥÐ¿ÑĢÑĥÐ³": 3151,
      "Ð¡ÑĤÐ¸ÑħÐ¾ÑĤÐ²Ð¾ÑĢÐµÑĨ": 3152,
      "ĠÐ¼ÑĢÐ°Ð¼Ð¾ÑĢ": 3153,
      "ĠâĢľ": 3154,
      "),": 3155,
      ").": 3156,
      "at": 3157,
      "mp": 3158,
      "ois": 3159,
      "Ð¾Ð¸Ð»": 3160,
      "ÐµÐ¾ÑĢÐ³": 3161,
      "ÑĤÑĢÐ°": 3162,
      "Ð½Ð°Ð´": 3163,
      "Ð½Ð°Ð»Ð¸": 3164,
      "Ð½ÐµÐ³Ð¾": 3165,
      "ÑĥÑĢÐ°": 3166,
      "ÑĭÐ·": 3167,
      "ÑĭÐ³": 3168,
      "ÑĭÑĤÐ¾": 3169,
      "ĠÑģÐµ": 3170,
      "ĠÑģÑĬ": 3171,
      "ĠÑģÐ¸Ð»ÑĮ": 3172,
      "ĠÑģÐºÐ°Ñĩ": 3173,
      "ĠÐ²Ð²": 3174,
      "ĠÐ²Ð¸Ð½Ð°": 3175,
      "ĠÐ²ÐµÑģÑĤÑĮ": 3176,
      "ĠÐ¿Ð¸": 3177,
      "ĠÐ¿ÐµÐ¿": 3178,
      "Ð²Ð°ÑĤ": 3179,
      "Ð²Ð¾Ñİ": 3180,
      "ĠÐ½ÐµÐ»ÑĮÐ·Ñı": 3181,
      "ÐµÐ½ÑĢÐ°Ð²": 3182,
      "ĠÑĤÐ¾ÑĢ": 3183,
      "ĠÑĤÐ¾ÑģÐº": 3184,
      "ĠÑĤÑıÐ³": 3185,
      "ĠÐ´Ð°Ð²": 3186,
      "ĠÐ¾Ð²": 3187,
      "ĠÐ±ÐµÐ¶": 3188,
      "ĠÐ±Ð°Ð³": 3189,
      "Ð¾Ð²ÑĭÐ¼": 3190,
      "ĠÐºÐ¾Ð³Ð¾": 3191,
      "ĠÐºÐ»Ð¸Ðº": 3192,
      "ĠÐºÑĥÐ±Ð¾Ðº": 3193,
      "ÐµÑĢÐ½ÑĭÐ¹": 3194,
      "ĠÐĺÐ´ÐµÑĤ": 3195,
      "Ð¾ÑĢÐ²": 3196,
      "ÐµÐ»Ñİ": 3197,
      "ÐµÐ»ÐµÐ¹": 3198,
      "Ð¸ÑĤÐµÑģÑĮ": 3199,
      "ĠÐ»Ð¾Ð¶Ðµ": 3200,
      "Ð¾Ð¼Ð°": 3201,
      "ĠÐ³Ð¸Ð¼": 3202,
      "ĠÐ³Ð¾Ð´Ñĭ": 3203,
      "ĠÐĴÐ¾Ñģ": 3204,
      "ĠÐĴÐµÑģÑĮ": 3205,
      "Ð¾Ð´Ð¸": 3206,
      "Ð¾Ð´Ð¸Ð»Ð°": 3207,
      "ĠÐĿÑĥ": 3208,
      "ĠÐ¿ÑĢÐ¾ÑĢ": 3209,
      "ĠÐ¿ÑĢÐµÐ²": 3210,
      "ĠÐ¿ÑĢÐ¾Ñī": 3211,
      "ĠÑĢÐµÐ´": 3212,
      "ĠÐŁÐ¸Ð½": 3213,
      "ĠÐŁÐ¾Ð·": 3214,
      "ĠÐŁÐ¾ÑĢÐ°": 3215,
      "ĠÐŁÐ¾ÑģÐ»ÑĥÑĪ": 3216,
      "ĠÐ¡Ð¸Ð´": 3217,
      "Ð°Ð²Ð°": 3218,
      "Ð½Ð¸Ñı": 3219,
      "Ð½Ð¸Ð³": 3220,
      "Ð³Ð¸": 3221,
      "Ð³Ð»ÑıÐ´": 3222,
      "ĠÑĥÑĢ": 3223,
      "ĠÐļÐ¾Ð³Ð¾": 3224,
      "Ð¾ÑĤÑĥ": 3225,
      "ĠÑģÑĤÑĥÑĩ": 3226,
      "ĠÑģÑĤÐµÐ¿": 3227,
      "ĠÐŀÑģÑĤ": 3228,
      "Ð¸Ð½Ñı": 3229,
      "Ð¸Ð½ÐµÑĤ": 3230,
      "ĠÐ¶Ð´Ñĥ": 3231,
      "ĠÐ¶Ð´ÐµÑĤ": 3232,
      "ÐµÐ²Ð°ÑĤÑĮ": 3233,
      "Ð¾Ð±Ð½Ð¾": 3234,
      "ĠÑģÐ²Ð¸ÑģÑĤ": 3235,
      "ĠÐľÐµÐ´": 3236,
      "ĠÑģÐ»Ð¸ÑĪ": 3237,
      "ĠÐĶÐµÐ»ÑĮ": 3238,
      "ĠÐĶÐ°Ð¹": 3239,
      "ÑĥÑĤÑģÑı": 3240,
      "ÑĥÑĤÑĭÐ»": 3241,
      "ĠÐ¾ÑĤÐµÑĩ": 3242,
      "ĠÐĵÐ°Ð»": 3243,
      "ĠÐĵÐ¸Ð¼": 3244,
      "ĠÐĵÐ»Ð°Ð²": 3245,
      "ĠÐĵÐµÐ¾ÑĢÐ³": 3246,
      "ĠÐĹÐµÐ¼": 3247,
      "ÑĥÑĪÐµÐº": 3248,
      "ÑĥÑĪÐºÑĥ": 3249,
      "ĠÑħÐ¸ÑĤ": 3250,
      "ĠÑħÐ¾ÑĢÐ¾ÑĪ": 3251,
      "Ð°Ð±Ð²": 3252,
      "Ð´Ð°Ñı": 3253,
      "ĠÐĲÐ»": 3254,
      "ĠÐŁÑĢÐ¾": 3255,
      "ĠÐŁÑĢÐ¸Ð±": 3256,
      "ĠÐ£Ñģ": 3257,
      "ĠÐ£Ð²": 3258,
      "ĠÐ£Ð¿": 3259,
      "ĠÐ£Ð»ÑĭÐ±": 3260,
      "ĠÐ»ÑİÐ±Ð¸ÑĪÑĮ": 3261,
      "ĠÑĨÐµÑĢÐº": 3262,
      "ĠÐ¿Ð¾ÑĨÐµÐ»": 3263,
      "ĠÐ¾Ð±ÐµÑī": 3264,
      "ĠÐ¾Ð±Ð½Ð¸Ð¼": 3265,
      "ĠÐ»Ð¸ÑĪ": 3266,
      "ĠÐ¿Ð¾Ð´Ð°ÑĢ": 3267,
      "Ð°Ð»Ð¸Ñĩ": 3268,
      "ÑģÑĤÐ²Ðµ": 3269,
      "ÑģÑĤÐ²Ñĥ": 3270,
      "ÐµÑĨÑĭ": 3271,
      "ĠÐ¿Ð¾Ð»Ð½Ð°": 3272,
      "Ð°Ð»ÑĮÐ½ÑĭÐ¹": 3273,
      "ĠÑģÐ¼ÐµÑİ": 3274,
      "ĠÐ³Ð»ÑĥÑĪ": 3275,
      "ĠÐķÑģÑĤÑĮ": 3276,
      "ĠÐķÐ´Ð²Ð°": 3277,
      "ĠÑĨÐ°ÑĢÑİ": 3278,
      "Ð½ÑıÐ¶": 3279,
      "ĠÐ¡ÑĤÑĢÐ°ÑĪ": 3280,
      "ĠÐ¼Ð¸Ð»ÐµÐµ": 3281,
      "ĠÐ±ÐµÐ·Ð¼": 3282,
      "ĠĠĠĠĠĠĠĠĠ": 3283,
      "ĠÐĴÑģÐµÐ³Ð´Ð°": 3284,
      "ÑĭÑĤÑĭ": 3285,
      "ĠÐ¾Ð´Ð½": 3286,
      "Ġdu": 3287,
      "Ð¸ÑĪÑĮÑģÑı": 3288,
      "ĠÐ¥Ð²Ð°Ð»": 3289,
      "ĠÐ²Ð¾Ð¸Ð½ÑģÑĤÐ²": 3290,
      "ĠÐ±Ð¾Ð³Ð¸": 3291,
      "ĠÐ½ÐµÐ±ÑĢÐµÐ¶": 3292,
      "ĠÐ¼Ð¸ÑĢÐ½ÑĭÐµ": 3293,
      "ĠÐ¼ÑĭÑģÐ»Ð¸": 3294,
      "Ġsur": 3295,
      "ĠÐ½ÐµÐ²ÐµÐ´": 3296,
      "ĠÐ½ÐµÐ²Ð¸Ð´": 3297,
      "Ð¾ÑĪÐ»Ð°": 3298,
      "ĠÐ¾ÑĩÐ°ÑĢÐ¾Ð²": 3299,
      "ĠÑĪÑĥÐ¼Ð¸ÑĤ": 3300,
      "ĠÐ¡ÐºÐ»Ð¾Ð½": 3301,
      "ĠÐ¸Ð¼ÐµÐ½Ð¸": 3302,
      "ĠÐ¾ÑģÐµÐ½": 3303,
      "onn": 3304,
      "ont": 3305,
      "ĠÐ½ÐµÐ¶Ð½Ð¾": 3306,
      "ĠÑĢÐ°ÑģÐº": 3307,
      "ĠÐ¼Ð»Ð°Ð´Ð¾ÑģÑĤÑĮ": 3308,
      "Ð½ÑĮÐ¸": 3309,
      "ÑĥÐ¶Ð´ÐµÐ½ÑĮÑı": 3310,
      "ĠÑĤÐ¸ÑĪÐ¸": 3311,
      "ĠÐ»Ð¸ÑĢÐ°": 3312,
      "ĠÐ±ÐµÐ´Ð½ÑĭÐ¹": 3313,
      "ĠÐ±ÑĢÐ°ÑĤÐ°": 3314,
      "eux": 3315,
      "ĠÐ¿ÑĢÐ¾ÑģÑĤÐ¾Ð¹": 3316,
      "ĠÐ½Ð°ÑģÐ»ÐµÐ´": 3317,
      "ĠÐĳÐ¾Ð³Ð°": 3318,
      "ĠÑĤÐ¾Ð»Ð¿Ñĭ": 3319,
      "Ð´Ð¾ÑħÐ½ÑĥÑĤÑĮ": 3320,
      "ĠÐ»ÐµÐ³ÐºÐ¸Ð¹": 3321,
      "ĠÑģÑĤÑĢÐ°ÑģÑĤÑĮÑİ": 3322,
      "ĠÐ·Ð¾Ð»Ð¾ÑĤÑĭÐµ": 3323,
      "ine": 3324,
      "ĠÐ¾ÐºÐ½Ð¾Ð¼": 3325,
      "ĠÑĥÐ¶Ð°ÑģÐ½ÑĭÐ¹": 3326,
      "ĠÐĹÐ°Ð±ÑĭÐ²": 3327,
      "ĠÐ´Ð°Ð»ÑĮÐ½ÑĭÐ¹": 3328,
      "ĠÐ¼Ð³Ð½Ð¾Ð²": 3329,
      "ĠÑĢÐµÑĩÑĮ": 3330,
      "ĠÐ·Ð°ÑĢÑı": 3331,
      "ĠÐ´ÐµÑĤÐµÐ¹": 3332,
      "ĠÐ¾Ð¶Ð¸Ð´": 3333,
      "ĠÑĤÐ¾ÑĤÑĩÐ°Ñģ": 3334,
      "ĠÐ¾ÑģÑĤÑĢÐ¾Ð²": 3335,
      "ĠÐ½ÐµÐ·Ð°Ð±Ð²": 3336,
      "ĠÐ¿ÑĢÐ¾ÐºÐ°Ð·": 3337,
      "ĠÑĤÐµÑĢÐ¿": 3338,
      "ĠÐºÑĢÐ°ÑģÐ¾ÑĤÐ¾Ð¹": 3339,
      "ĠÑīÐ¸ÑĤ": 3340,
      "Ð½Ð¾ÑģÐ¸ÑĤ": 3341,
      "ĠÐľÐµÐ¶Ð´Ñĥ": 3342,
      "ĠÐĳÐµÑģÐ¿ÐµÑĩ": 3343,
      "ĠÐ¿ÑĢÐ¸Ð´ÐµÑĤ": 3344,
      "ĠÐ¿Ð»Ð°ÑĩÐµÑĤ": 3345,
      "ĠÐ»ÑİÐ´Ð¸": 3346,
      "ĠÐ½Ð°Ð´ÐµÐ¶Ð´Ñĭ": 3347,
      "ĠÐŀÐ¿ÑıÑĤÑĮ": 3348,
      "ĠâĢĶâĢĶâĢĶâĢĶâĢĶ": 3349,
      "ĠÑģÐµÑĢÐµÐ±": 3350,
      "ĠÑĥÑĤÑĢÐµÐ½Ð½ÐµÐ¹": 3351,
      "ĠÐĴÐ°ÐºÑħÐ°": 3352,
      "ĠÐŁÑĢÐ¸Ð´Ð¸": 3353,
      "ĠÐ¥Ð²Ð¾ÑģÑĤ": 3354,
      "ĠÐ·Ð»Ð¾Ð´ÐµÐ¹": 3355,
      "Ġavait": 3356,
      "ĠÐ¿ÑĥÑĤÐ½Ð¸Ðº": 3357,
      "ĠÐ¼ÑĭÑģÐ»ÑĮ": 3358,
      "ĠÐ»Ð¾Ð±Ð·": 3359,
      "ĠÐļÑĢÑĥÐ³Ð¾Ð¼": 3360,
      "ĠÐ¶ÑĢÐµÐ±Ð¸Ð¹": 3361,
      "ĠÑģÐ»Ð¸ÑĪÐºÐ¾Ð¼": 3362,
      "?...": 3363,
      "ec": 3364,
      "os": 3365,
      "Ðķ": 3366,
      "ĠA": 3367,
      "ĠN": 3368,
      "ĠÐ®": 3369,
      "ÐµÐ¸": 3370,
      "Ð°ÐµÐ¼": 3371,
      "Ð°Ð½Ð¾": 3372,
      "Ð¸ÑģÑı": 3373,
      "Ð½ÑĮÑı": 3374,
      "ÑĢÑĭÐ¹": 3375,
      "ÑĮÑĤÐµ": 3376,
      "ÑıÐ²": 3377,
      "ĠÑģÐ¸Ñħ": 3378,
      "ĠÑģÐ¾Ð¿": 3379,
      "ĠÑģÐ¾Ð±ÑĢ": 3380,
      "ĠÑģÐ¾Ð·Ð´": 3381,
      "ĠÐ²Ð¾Ð²": 3382,
      "ĠÐ²Ð°Ð»": 3383,
      "ĠÐ²ÑĭÑħ": 3384,
      "ĠÐ²Ð¾Ð¶Ð´": 3385,
      "ĠÐ²ÐºÑĥÑģ": 3386,
      "ĠÐ¿ÐµÑģÑĤ": 3387,
      "ĠÐ¿ÑĮÑı": 3388,
      "ĠÐ¿Ð¾ÑģÐ¿": 3389,
      "Ð²ÑıÑĤ": 3390,
      "Ð´Ð°ÑĤÑĮ": 3391,
      "ĠÐ¼Ð°ÑĤÑĮ": 3392,
      "ĠÐ¼ÐµÑĪ": 3393,
      "Ð¼Ð°ÑĤ": 3394,
      "ÑİÐ´Ñĥ": 3395,
      "ĠÑĤÐµÑħ": 3396,
      "ĠÑĤÐ¾Ð²Ð°ÑĢÐ¸Ñī": 3397,
      "ÑĪÐµÐ¹": 3398,
      "ÑĪÐµÑİ": 3399,
      "ĠÐ´Ð¾Ð³": 3400,
      "ĠÐ´ÑĭÑħ": 3401,
      "ĠÐ´ÐµÐ»Ð¾": 3402,
      "ĠÐ´ÐµÐ»Ðµ": 3403,
      "ĠÐ±ÑĢÐ°Ð½Ð¸": 3404,
      "Ð¾Ð»ÑİÐ±": 3405,
      "ĠÐºÐ°ÑĤ": 3406,
      "ĠÐºÐ¾Ð»ÑĮ": 3407,
      "ĠÐºÐ»Ð¾Ð½": 3408,
      "ÐµÑĢÐ¾Ð¹": 3409,
      "ÐµÑĢÐºÐ¾Ð²": 3410,
      "ĠÐ»Ð¸Ñħ": 3411,
      "ĠÐ»ÐµÐ±ÐµÐ´ÑĮ": 3412,
      "ĠÐ³Ð¾Ð´Ð°": 3413,
      "ĠÐ³Ð¾ÑģÑĥÐ´": 3414,
      "ĠÐĴÐ¼": 3415,
      "ĠÐĴÐ°ÑĪ": 3416,
      "ĠÐĴÑģÑĤÑĢ": 3417,
      "ĠÐĴÐºÑĢÑĥÐ³": 3418,
      "ĠÐĴÐµÐ»Ð¸Ðº": 3419,
      "ÑĨÐµÐ²": 3420,
      "ĠÐĿÐ¸Ñĩ": 3421,
      "ĠÐŁÐ°Ð´": 3422,
      "ĠÐŁÐ¾Ð±": 3423,
      "ĠÐ¡Ð²Ð¾Ð¹": 3424,
      "Ð°Ð²Ð¾Ð¹": 3425,
      "Ð°Ð²Ð¸Ð»": 3426,
      "Ð°Ð´Ð¸": 3427,
      "ÐµÐ´Ð¾Ð¹": 3428,
      "Ð¿ÐµÑĢ": 3429,
      "Ð¿Ð¸Ñģ": 3430,
      "Ð°ÐºÐ¾Ð²": 3431,
      "ĠÑĥÑĩÐ°ÑģÑĤ": 3432,
      "Ð°Ð½Ðµ": 3433,
      "ĠÐļÐ°Ñĩ": 3434,
      "ĠÑģÑĤÑĥÐ´": 3435,
      "ĠÐ¢Ð¾Ð»Ð¿": 3436,
      "ĠÐ¢Ð¾ÑģÐº": 3437,
      "ĠÐ¢Ð¾Ð»ÑĮÐºÐ¾": 3438,
      "Ð¸Ð½ÑĮ": 3439,
      "ĠÑĩÐµÑĤ": 3440,
      "Ð¾ÐºÑĢÐ°ÑĤ": 3441,
      "Ð¸Ð²Ð°": 3442,
      "Ð¸Ð²Ð°Ð»": 3443,
      "Ð¸Ð²ÑĭÑħ": 3444,
      "ĠÐ¶Ð°Ð´": 3445,
      "ĠÐ½Ð°ÑģÑĤ": 3446,
      "ÐµÑĩÐµÑĤ": 3447,
      "ÐµÐ·Ð²": 3448,
      "Ð¸ÑĢÐ°ÑĤÑĮ": 3449,
      "ĠÐµÑİ": 3450,
      "ĠÐµÐ¶": 3451,
      "ĠÐĶÐ¾ÑĢ": 3452,
      "Ð¸Ð´Ñĭ": 3453,
      "Ð¸Ð´ÐµÐ½ÑĮÐµ": 3454,
      "ĠÐĳÑĥÐ´ÑĮ": 3455,
      "Ð¾ÑĩÐµÐº": 3456,
      "ĠÐĹÐ°ÑĤ": 3457,
      "ĠÑħÐ¾Ð´Ð¸ÑĤ": 3458,
      "ÐºÐ°ÑİÑĤ": 3459,
      "Ð»ÑıÐµÑĤ": 3460,
      "ĠÐ£ÑģÐ»": 3461,
      "ÑĭÐ»Ð°ÑģÑĮ": 3462,
      "ÐµÐ¿ÐµÐ½": 3463,
      "ĠÐ¿Ð¾Ð´Ð½ÑıÐ»": 3464,
      "ÑģÑĤÐ²ÑĥÐµÑĤ": 3465,
      "Ð°Ð³Ð¸": 3466,
      "ĠÐ²ÑĭÑĪ": 3467,
      "ĠÐ²ÑĭÐ·": 3468,
      "ĠÐ¸Ð·Ð´Ð°Ð»Ð¸": 3469,
      "ĠÐ±ÑĢÐ°Ð½ÑĮ": 3470,
      "Ð°Ð»ÑĮÐ½Ð¾Ð¹": 3471,
      "ĠÑģÐ¼ÐµÐ»Ð¾": 3472,
      "ĠÐºÐ°ÐºÐ¾Ðµ": 3473,
      "ĠÐķÑģÐ»Ð¸": 3474,
      "ĠÐ²Ð·Ð³Ð»ÑıÐ´": 3475,
      "ĠÐ´ÑĢÑĥÐ³Ñĥ": 3476,
      "ĠÑĨÐ°ÑĢÐ¸": 3477,
      "ĠÐ¼Ð¸Ð»ÐµÐ¹": 3478,
      "ĠÑģÑĤÑĢÐ¾Ð³Ð¾": 3479,
      "ÐµÑĪÑĥ": 3480,
      "ĠÐ¿Ð¾ÐºÐ¾Ñı": 3481,
      "ĠÐ²Ð¾Ð»Ðµ": 3482,
      "ĠÐ¿ÑĢÐµÐ´Ð¼ÐµÑĤ": 3483,
      "ĠÐŀÑĤÑĢÐ°Ð´": 3484,
      "ÑĢÐ°Ð²Ð½": 3485,
      "ĠÐ½Ð°ÑĪÐ°": 3486,
      "ĠÐ½Ð°ÑĪÐµÐ¹": 3487,
      "ĠÐºÑĢÐ°ÑģÐ¾Ð¹": 3488,
      "ĠÐ½ÐµÐ±Ð°": 3489,
      "ĠÐ²ÐµÑģÐµÐ»ÑĮÑı": 3490,
      "ÐµÐ½Ð¸ÐµÐ¼": 3491,
      "Ð»ÐµÐ½Ð½ÑĭÑħ": 3492,
      "ĠÐ¿ÐµÑĩÐ°ÑĤÑĮ": 3493,
      "ĠÐ»ÐµÑĤÐ°": 3494,
      "ĠÐ·Ð²ÑĥÑĩ": 3495,
      "ĠÐ¤Ð¾Ð½": 3496,
      "ĠÐ£Ð¶ÐµÐ»Ð¸": 3497,
      "ĠÐºÐ¾Ð½ÐµÑĨ": 3498,
      "ĠÐºÐ¾Ð½ÐµÑĩÐ½Ð¾": 3499,
      "Ð¸ÑĤÐµÐ»ÑĮÐ½ÑĭÐ¹": 3500,
      "ĠÐ³Ð¾Ð»ÑĥÐ±": 3501,
      "ĠÐ³Ð¾Ð»Ð¾Ð²Ð¾Ð¹": 3502,
      "ĠÐ¡ÐºÐ¾ÑĢÐ¾": 3503,
      "ĠÐ¸Ð¼Ñı": 3504,
      "ĠÐ¼Ð¾Ð³Ð¸Ð»ÑĮ": 3505,
      "ĠÑĤÐ¾Ð¼Ð½Ð¾Ð¹": 3506,
      "ĠÑģÑĤÐ¸ÑħÐ°Ð¼": 3507,
      "ĠÐ¿Ð¾Ð²Ð°ÑĢÐ¸ÑħÐ¾Ð¹": 3508,
      "Ġmais": 3509,
      "ĠÑĥÐ´Ð°ÑĢ": 3510,
      "ĠÐ·Ð½Ð°Ð¼ÐµÐ½": 3511,
      "ĠÑĤÐ¸ÑĪÐ¸Ð½Ñĭ": 3512,
      "ĠÑĤÐ¸ÑĪÐ¸Ð½Ð°": 3513,
      "ĠÐ¿Ð¾Ð¼Ð½": 3514,
      "ĠÐ»ÐµÑģÐ¾Ð²": 3515,
      "ĠÑģÐ²Ð¾Ð±Ð¾Ð´Ð°": 3516,
      "ĠÐ¿ÑĢÐµÐºÐ»Ð¾Ð½": 3517,
      "ĠÐ½ÐµÐ±ÐµÑģÐ½Ð¾Ð¹": 3518,
      "ÐµÑıÐ»": 3519,
      "ĠÐĴÐ·Ð³Ð»Ñı": 3520,
      "ĠÑĦÐ¸": 3521,
      "ĠÑĥÐ½ÑĭÐ»Ð¾Ð¹": 3522,
      "ĠÐ¿Ð¾ÑģÐµÑĤ": 3523,
      "ĠÐĳÐµÐ·Ð¼Ð¾Ð»Ð²": 3524,
      "ĠÐŀÐ±Ð¼Ð°Ð½": 3525,
      "ĠÐ³Ð¾Ð²Ð¾ÑĢÐ¸Ð»": 3526,
      "ĠÑģÐ»ÑĭÑĪÐ°Ð»": 3527,
      "ĠÐ³Ð»Ð°Ð²Ð¾Ñİ": 3528,
      "ĠÐ¿Ð»Ð°Ð¼ÐµÐ½": 3529,
      "ĠÐ¿Ð»Ð°Ð¼ÐµÐ½ÑĮ": 3530,
      "int": 3531,
      "ĠÐ½Ð¾Ð²ÑĭÐ¹": 3532,
      "ĠÐ²Ð´Ð¾ÑħÐ½Ð¾Ð²ÐµÐ½Ð½ÑĭÐ¹": 3533,
      "ĠÐ´Ð²Ðµ": 3534,
      "ĠÑĥÑģÑĤÐ°Ð»": 3535,
      "ĠÐ¿ÑĢÐ¸Ð·Ð½": 3536,
      "ĠÐ³ÑĢÑĥÑģÑĤÐ¸": 3537,
      "ĠÐ¿Ð¾ÑģÑĤÐµÐ»Ðµ": 3538,
      "ĠÐ¼ÑĥÐ¶Ð¸Ðº": 3539,
      "ĠÐ¿Ð¾ÐºÐ»Ð¾Ð½Ð¾Ð¼": 3540,
      "ĠÐ²Ð½Ð¸Ð¼Ð°ÐµÑĤ": 3541,
      "ĠÐ¢Ð²Ð¾ÐµÐ¹": 3542,
      "ĠÐ´Ð¾ÑĢÐ¾Ð³Ñĥ": 3543,
      "ĠÐ¾ÑģÑĤÑĢÐ¾Ð²Ð°": 3544,
      "ĠÐ¿ÑĢÐµÐ¶Ð´Ðµ": 3545,
      "ĠÐ¿ÑĢÐµÐ¶Ð½Ð¸Ñħ": 3546,
      "ĠÑĢÑĥÑĩÐµÐ¹": 3547,
      "ĠÐĶÑĢÑĥÐ³Ð¾Ð¹": 3548,
      "ĠÑıÑģÐ½ÑĭÐ¹": 3549,
      "ĠÐºÑĢÐ°ÑģÐ°Ð²Ð¸ÑĨÐ°": 3550,
      "ĠÑģÑĭÐ½Ð°": 3551,
      "ĠÑģÐµÐ´Ð¾Ð¹": 3552,
      "ĠÐ½Ð¸ÐºÑĤÐ¾": 3553,
      "ĠÐ½Ð¸ÐºÐ¾Ð³Ð´Ð°": 3554,
      "ĠÐĹÐ°Ð²Ð¸Ð´": 3555,
      "ĠÐ²Ð¾Ð·Ð²ÑĭÑĪ": 3556,
      "ĠÐ¿Ð°Ð¼ÑıÑĤÑĮ": 3557,
      "ĠÐĴÐ¸Ð´Ð¸ÑĤ": 3558,
      "ĠÐĴÐ¾Ð»ÑĪÐµÐ±": 3559,
      "ĠÐľÐ¾ÑĢÑĦ": 3560,
      "ĠÐĹÐ½Ð°ÐºÐ¾Ð¼": 3561,
      "ĠÑģÐµÑĢÐ´ÐµÑĩÐ½Ð¾Ð¹": 3562,
      "ĠÐ³ÑĥÑģÑĤÐ¾Ð¹": 3563,
      "ĠÐĿÐ°ÑĢÐ¾Ð´": 3564,
      "ĠÐķÐ»ÐµÐ½Ð°": 3565,
      "ĠÐ³Ð¾ÑĢÑĮÐºÐ¾": 3566,
      "ĠÐ¤Ð°Ð²Ð½": 3567,
      "ĠÐ¼ÐµÐ´Ð²ÐµÐ´": 3568,
      "ĠÑĢÐ¾Ð¿Ð¾ÑĤ": 3569,
      "ĠÐ¾Ð±Ð¼Ð°Ð½ÑĩÐ¸Ð²": 3570,
      "ĠÐ³ÑĢÐ°ÑĨÐ¸Ð¹": 3571,
      "ĠÐ¡ÑĤÐ¸ÑħÐ¸": 3572,
      "ĠÐ»ÑİÐ´ÐµÐ¹": 3573,
      "ĠJe": 3574,
      "ĠÑĤÐ¾ÑĢÐ¶ÐµÑģÑĤÐ²": 3575,
      "ĠÐŁÐ¾ÑģÐ¼": 3576,
      "ĠÐ·ÐµÑĢÐºÐ°Ð»ÑĮÑĨÐµ": 3577,
      "ÑĤÐ°Ð¹Ð½Ðµ": 3578,
      "ĠÐŁÐ¾Ð·Ð²Ð¾Ð»ÑĮ": 3579,
      "ĠÐĳÐ°Ð±Ð°ÑĢÐ¸ÑħÐ¾Ð¹": 3580,
      "ĠÐĵÐµÐ¾ÑĢÐ³Ð¸Ð¹": 3581,
      "ĠÐ±ÐµÐ·Ð¼ÑıÑĤÐµÐ¶": 3582,
      "ĠÐ½ÐµÐ²ÐµÐ´Ð¾Ð¼": 3583,
      "ir": 3584,
      "iv": 3585,
      "ol": 3586,
      "ovi": 3587,
      "ux": 3588,
      "ĠD": 3589,
      "Ġe": 3590,
      "Ġo": 3591,
      "Ð°ÑīÐµ": 3592,
      "ÑĤÐ°Ð»": 3593,
      "Ð½Ð°ÐºÐ¾Ð¼": 3594,
      "ÑģÐ°": 3595,
      "Ð»ÑĥÑĪ": 3596,
      "Ð»Ð°ÑģÑĤ": 3597,
      "Ð»ÐµÑİ": 3598,
      "ÑĥÐ½Ð°": 3599,
      "ÑıÐ»Ð¸": 3600,
      "ÑıÐ½ÐµÑĤ": 3601,
      "ĠÑģÐµÑĤ": 3602,
      "ĠÑģÐ¶": 3603,
      "ĠÑģÐ¾Ñħ": 3604,
      "ĠÑģÐ½Ð¾Ð¼": 3605,
      "ĠÑģÐµÐ³Ð¾Ð´Ð½Ñı": 3606,
      "ĠÐ²Ð¸ÑĤ": 3607,
      "ĠÐ²Ð¾ÐºÑĢÑĥÐ³": 3608,
      "ĠÐ¿ÐµÑĤ": 3609,
      "ĠÐ¿Ð¸ÑĤÑĮ": 3610,
      "ĠÐ¿Ð¸ÑĤÐ¾Ð¼": 3611,
      "ĠÐ½ÐµÑĢ": 3612,
      "ÐºÐ°Ð¼": 3613,
      "ÐºÑĥÑĪ": 3614,
      "ÐºÑĥÐ¿": 3615,
      "ÑĩÐ°Ð»ÑģÑı": 3616,
      "ÑĩÐµÑĢÐ°": 3617,
      "ĠÐ¼Ð¾Ð½": 3618,
      "ĠÐ¼Ð°Ð»ÑĮ": 3619,
      "ĠÐ¼Ð¸Ð½ÑĥÐ²": 3620,
      "ÐµÐ½ÐµÑĢ": 3621,
      "ÐµÐ½Ð½Ð¾Ð³Ð¾": 3622,
      "ÑİÑħ": 3623,
      "ĠÑĤÑĥ": 3624,
      "ĠÑĤÐµÐ»": 3625,
      "ĠÑĤÐµÐ»Ð¾": 3626,
      "ÐµÑĤÐµÐ»ÑĮ": 3627,
      "Ð½ÑĭÐ½Ðµ": 3628,
      "ĠÐ´Ð°Ð¼": 3629,
      "ĠÐ´ÐµÑģ": 3630,
      "ĠÐ´Ð²Ð¸Ð¶": 3631,
      "ĠÐ´Ð¾ÐºÑĥÑĩ": 3632,
      "ĠÐ¾Ð¼": 3633,
      "Ð¾Ð»ÐµÐ½": 3634,
      "Ð¾Ð²Ð½Ð¾": 3635,
      "ĠÐ¸Ð´ÑĥÑĤ": 3636,
      "ĠÐ¸Ð³ÑĢÐ°": 3637,
      "ĠÐºÐ¾Ð·": 3638,
      "Ð¸ÑĤÐµÐ»Ð¸": 3639,
      "ĠÐ³Ð¾ÑģÑĤÑĮ": 3640,
      "ĠÐ³ÑĥÐ»Ñı": 3641,
      "ĠÐĴÐ¾Ð¹": 3642,
      "ĠÐĴÐ°ÑĢ": 3643,
      "ÑĨÐ°ÑĢ": 3644,
      "ÑĨÐ°Ð¼": 3645,
      "ĠÐ·Ð°Ð½": 3646,
      "ĠÐ·ÑĥÐ±": 3647,
      "ĠÐ·Ð°ÑĢÐ¸": 3648,
      "ĠÐ·Ð´Ð¾ÑĢÐ¾Ð²": 3649,
      "Ð¾Ð³Ð¾Ð¹": 3650,
      "Ð·Ð´": 3651,
      "ĠÐ¡Ð°ÑĤ": 3652,
      "ĠÐ¡Ð¸Ñı": 3653,
      "ĠÐ¡Ð¾ÐºÑĢ": 3654,
      "Ð°Ð²Ðµ": 3655,
      "Ð°Ð²Ð½ÑĭÐ¹": 3656,
      "Ð°ÑĤÐµÑĢ": 3657,
      "Ð½Ð¸ÑĨÐµÐ¹": 3658,
      "ÐµÐ´Ð°ÐµÑĤ": 3659,
      "Ð°ÐºÐ¸": 3660,
      "Ð³Ð°ÑĢ": 3661,
      "Ð°Ð½Ð¸ÑĤ": 3662,
      ".....": 3663,
      "ĠÐļÑĢÐ¾Ð²": 3664,
      "ĠÑģÑĤÐ¾ÑĢ": 3665,
      "ĠÑģÑĤÐµÑģÐ½": 3666,
      "ĠÐ¢Ð¾ÑĤ": 3667,
      "ĠÐ¢Ð¾Ð±": 3668,
      "ĠÐ¢ÑĢÐ¸": 3669,
      "Ð¸Ð²Ð¾Ñİ": 3670,
      "Ð¸Ð²Ð°ÐµÑĤ": 3671,
      "Ð¸Ð²ÑĪÐ¸ÑģÑĮ": 3672,
      "ĠÐ¶Ð°Ð»ÑĮ": 3673,
      "ÑīÐµÐ¼": 3674,
      "ÑīÐ¸Ðº": 3675,
      "ĠÐ½ÐµÐµ": 3676,
      "ĠÐ½ÐµÑİ": 3677,
      "ÑĢÑĥÐ¿": 3678,
      "Ð°Ð·Ð°": 3679,
      "Ð¾ÑģÑĤÐ°Ð²": 3680,
      "ĠÑģÐ²ÐµÐ¶": 3681,
      "ĠÑģÐ²Ð°ÑĤÑĮ": 3682,
      "ĠÑģÐ»ÑĥÑħ": 3683,
      "Ð¸ÑĢÐ°": 3684,
      "Ð½ÐµÐµÑĤ": 3685,
      "ĠÐĶÑĢÑĥÐ¶": 3686,
      "Ð¾Ð·Ñĭ": 3687,
      "ÑıÑĤÐµÐ»ÑĮ": 3688,
      "Ð¾ÑĩÑĥ": 3689,
      "ĠÐ¾ÑĤÑĨÐ°": 3690,
      "ĠÐĹÐ°Ñģ": 3691,
      "ĠÐ³ÑĢÐ°Ð´": 3692,
      "ÑĥÐ¼Ð°Ð»": 3693,
      "Ð»ÑıÐ½": 3694,
      "Ð»ÑıÐµÑĤÑģÑı": 3695,
      "ĠÑĨÐµÑĢÐºÐ¾Ð²": 3696,
      "ĠÑģÐºÐ¾Ð»ÑĮÐºÐ¾": 3697,
      "ĠÐ¿Ð¾ÑıÑģ": 3698,
      "ĠÐĽÐ¸Ð»": 3699,
      "ĠÐ»Ð¸ÑĨÐ°": 3700,
      "ĠÑĪÐµÑİ": 3701,
      "ĠÑĤÑĢÐ¾Ð¹": 3702,
      "ĠÑĤÑĢÐµÑĤ": 3703,
      "ĠÑĤÑĢÐµÐ±": 3704,
      "Ð½Ð¸ÐºÐ¾Ð¼": 3705,
      "ĠÐ¿Ð»ÑĭÐ²ÐµÑĤ": 3706,
      "ĠÐ¿Ð¾Ð»Ð´": 3707,
      "ĠÐ¿Ð¾Ð»ÑĥÑĩ": 3708,
      "ĠÑģÐ¼ÐµÑĪ": 3709,
      "ÐµÐ½ÑıÐ»": 3710,
      "ĠÐ´ÑĢÑĥÐ³Ð¸Ñħ": 3711,
      "ĠÐ·Ð°ÑĩÐµÐ¼": 3712,
      "ĠÑĨÐ°ÑĢÑģÑĤÐ²Ð¾": 3713,
      "ĠÐ±Ð»ÐµÑīÐµÑĤ": 3714,
      "ÑĭÐ²Ð°Ð»Ð¸": 3715,
      "ĠdÃ©": 3716,
      "ĠÑĥÐ¼ÑĢÑĥ": 3717,
      "ĠÑģÐ¿ÑĢÐ¾Ñģ": 3718,
      "ĠÑģÐ²Ð¾ÐµÐ¼Ñĥ": 3719,
      "ĠÑģÐ²Ð¾ÐµÐ½ÑĢÐ°Ð²": 3720,
      "ĠÐ½Ð°ÑĪÑĥ": 3721,
      "ĠÐ±ÐµÑģÑģÑĤ": 3722,
      "ĠÐ±ÐµÑģÐ¿": 3723,
      "ĠÐ±ÐµÑģÑĩÑĥÐ²ÑģÑĤÐ²": 3724,
      "ĠÐ¿Ð¾ÑĢÑĥ": 3725,
      "ĠÐ¿Ð¾ÑĢÑĭ": 3726,
      "end": 3727,
      "ĠÐ¤Ðµ": 3728,
      "ĠÐ½ÐµÐ²Ð¾Ð»ÑĮÐ½Ð¾": 3729,
      "ĠÐ¾ÑĩÐ°Ð¼Ð¸": 3730,
      "ĠÐ¿ÑĥÑģÑĤÐ¾Ð¹": 3731,
      "ĠÐ¸Ð¼ÐµÐ½": 3732,
      "ĠÑİÐ½Ð¾ÑģÑĤÑĮ": 3733,
      "ĠÐĴÐ¾ÑĤÑīÐµ": 3734,
      "ĠÐ¿Ð¾ÑģÐ»Ðµ": 3735,
      "ĠÑĤÐ¾Ð¼Ñĥ": 3736,
      "ĠÐºÑĢÐ¾Ð²Ð°Ð²ÑĭÐ¹": 3737,
      "ĠÑĥÐ³Ð»": 3738,
      "ÑıÑīÐµÐ¹": 3739,
      "ĠÐ¦Ð¸ÑĤ": 3740,
      "ĠÑģÐ»ÐµÐ·Ð°Ð¼Ð¸": 3741,
      "ĠÐ¼Ð¾Ð»ÑĩÐ¸ÑĤ": 3742,
      "ĠÐŃÑĤÐ¾": 3743,
      "ĠÐŃÐ»ÑĮ": 3744,
      "ĠÐ½Ð°ÑĢÐ¾Ð´Ñĭ": 3745,
      "ĠÐ²ÐµÐ½Ð¾Ðº": 3746,
      "ÐŁÐ¾ÑįÑĤ": 3747,
      "ĠÐ´ÑĥÐ¼Ñĭ": 3748,
      "ĠÐ±ÐµÐ´Ð°": 3749,
      "ĠÐ´Ð¾Ð¼Ð°": 3750,
      "ĠÐĴÐ·Ð´ÑĭÑħ": 3751,
      "ĠÐ±ÐµÐ»Ð¾Ð¹": 3752,
      "ĠÑĢÐ¾Ð´Ð½Ð¾Ð¹": 3753,
      "ĠÐ¿Ð¾ÑģÐµÐ´": 3754,
      "ĠÐ·Ð½Ð°ÐµÑĤ": 3755,
      "ĠÐ¿ÑĢÐµÐ»ÐµÑģÑĤÐ½ÑĭÐ¹": 3756,
      "ÑĥÐ½ÑĤ": 3757,
      "ĠÐ¡Ð»ÑĭÑĪ": 3758,
      "ĠÑģÐºÐ¾ÑĢÐ±": 3759,
      "ĠÑĤÐ°Ð¹Ð½Ð¾": 3760,
      "ĠÐ¿Ð¾Ð³ÑĢÑĥÐ¶": 3761,
      "Ġqui": 3762,
      "Ġquel": 3763,
      "ĠÑĥÐ²ÑıÐ´": 3764,
      "ĠÐłÐ°Ð·Ð±": 3765,
      "ĠÑħÐ»Ð°Ð´Ð½ÑĭÐ¹": 3766,
      "ĠÐ³ÑĢÐ¾Ð±Ð¾Ð²": 3767,
      "ĠÑĨÐ²ÐµÑĤÐ°Ð¼Ð¸": 3768,
      "ĠÐ¾Ð³Ð¾Ð½ÑĮ": 3769,
      "ĠÐ±ÑĥÑĢÐ¸": 3770,
      "ĠÐ³Ð»Ð°Ð·Ð°Ð¼Ð¸": 3771,
      "ĠÑįÑĤÑĥ": 3772,
      "ĠÐ·Ð°ÑĤÐ¾Ñĩ": 3773,
      "ĠÑĩÐ°ÑĪÐ¸": 3774,
      "ĠÐ½Ð¾Ð³Ð¸": 3775,
      "ĠÐ¼ÐµÐ´Ð»ÐµÐ½Ð½Ð¾": 3776,
      "Ġtr": 3777,
      "ĠÐ³Ð»ÑĥÐ±Ð¾Ðº": 3778,
      "ĠÑĢÐµÑĩÐ¸": 3779,
      "ĠÐĵÐ¾ÑĢÐ´": 3780,
      "ĠÐ²ÐµÑģÐµÐ»ÑĭÑħ": 3781,
      "ours": 3782,
      "ĠÑĢÐ°Ð²Ð½Ð¸": 3783,
      "ĠÐ´Ð¾ÑģÐ°Ð´Ð¾Ð¹": 3784,
      "ĠÑħÐ¾Ð»Ð¾Ð´Ð½ÑĭÐ¹": 3785,
      "ĠÐ´Ð¾ÑĢÐ¾Ð³Ð¾Ð¹": 3786,
      "ĠÐ¸ÑģÐºÑĥÑģ": 3787,
      "ĠÐ±ÑĢÐ°Ð½Ð½Ð¾Ð¹": 3788,
      "ĠÑģÐ¸Ð»Ð¾Ð¹": 3789,
      "ĠÑĤÐ¾ÑģÐºÑĥ": 3790,
      "ĠÐ±ÑĭÑģÑĤÑĢÐ¾": 3791,
      "ĠÐ±ÑĭÑģÑĤÑĢÑĭÐ¹": 3792,
      "ĠÐ±Ð¾Ð»ÑĮÑĪÐµ": 3793,
      "ĠÐ¿ÑĢÐ°Ð·Ð´Ð½Ð¸Ðº": 3794,
      "ĠÑĢÐ°Ð·Ð»ÑĥÐºÐ¸": 3795,
      "ĠÐ¼ÐµÑģÑĤÐ°": 3796,
      "ĠÐĵÑĢÑĥÑģÑĤ": 3797,
      "ĠÐ¸Ð·Ð±ÑĢÐ°Ð½": 3798,
      "ĠÐ¿ÑĢÐ¾ÑģÐ²ÐµÑī": 3799,
      "ĠÐ³ÐµÑĢÐ¾Ð¹": 3800,
      "ĠÐ³ÐµÑĢÐ¾Ñı": 3801,
      "ĠÐ²Ð¾Ð·Ð²ÑĢÐ°ÑĤ": 3802,
      "elle": 3803,
      "ĠÐ¿Ð¾ÑħÐ²Ð°Ð»": 3804,
      "ĠÑħÐ¾ÑĩÐµÑĪÑĮ": 3805,
      "ĠÑħÐ¾ÑĤÐµÐ»": 3806,
      "ĠÐ²Ð¾Ð¿ÑĢÐ¾Ñģ": 3807,
      "ĠÑĩÐµÑĢÑĤÑĭ": 3808,
      "ĠÐ¿Ð°ÑģÑĤÑĥÑħ": 3809,
      "Ġ10": 3810,
      "ĠÐºÑĥÐ¿Ð»ÐµÑĤ": 3811,
      "ĠÐ´Ð²ÐµÑĢÐ¸": 3812,
      "ĠÑģÐ¼Ð¾ÑĤÑĢÐ¸ÑĤ": 3813,
      "ĠÐ´Ð¾Ð»Ð¶Ð½Ð¾": 3814,
      "ĠÑģÑĥÑĢÐ¾Ð²ÑĭÐ¹": 3815,
      "ĠÐ»Ð¾Ð²Ð¸": 3816,
      "ĠÐ¿ÑĢÐµÑģÑĤÑĥÐ¿": 3817,
      "ĠÐ¡ÑĤÐ¾Ð¸ÑĤ": 3818,
      "ĠÐĴÐµÑĤÐµÑĢ": 3819,
      "ĠÐĿÐ°ÑĤÐ°ÑĪÐ°": 3820,
      "ĠÐ²Ð·Ð´Ð¾ÑĢ": 3821,
      "ĠÑĥÑĤÐ¾Ð¼Ð»ÐµÐ½Ð½ÑĭÐ¹": 3822,
      "ĠÐ¿Ð°Ð¼ÑıÑĤÐ½Ð¸Ðº": 3823,
      "ĠÐ²Ð¸Ð½Ð¾Ð²": 3824,
      "ĠÐ¶Ð¸Ð·Ð½ÑĮÑİ": 3825,
      "ĠÐĶÐ°Ð´Ð¾Ð½": 3826,
      "ĠÐ¾ÐºÐ¾ÑĪÐºÐ¾": 3827,
      "ĠÐĹÐ°Ð´ÑĥÐ¼ÑĩÐ¸Ð²": 3828,
      "ĠÐ²ÑģÐºÐ¾ÑĢÐµ": 3829,
      "ĠÐ±ÐµÑģÑĨÐµÐ½Ð½ÑĭÐ¹": 3830,
      "ĠÑĥÐ³Ð¾Ð»Ð¾Ðº": 3831,
      "ĠÐ²Ð¼ÐµÑģÑĤÐµ": 3832,
      "ÑįÐ·Ð¸Ð¸": 3833,
      "ĠÑĢÐ¾ÑīÐµ": 3834,
      "ĠÑĥÑģÑĤÑĢÐµÐ¼": 3835,
      "ĠÐĶÐµÐ»ÑĮÐ²Ð¸Ð³": 3836,
      "ĠÐ³Ð»ÑĥÑĪÐ¸": 3837,
      "ĠÐ½ÐµÐ·Ð°Ð±Ð²ÐµÐ½Ð½ÑĭÐ¹": 3838,
      "ĠÐ²Ð¾Ð²ÑģÐµ": 3839,
      "ĠÐ¿Ð¾ÑģÐ¿ÐµÑĪ": 3840,
      "ovich": 3841,
      "ĠÑģÐ²Ð°ÑĤÑĮÐµÐ¹": 3842,
      "ab": 3843,
      "lan": 3844,
      "ose": 3845,
      "ĠT": 3846,
      "Ġno": 3847,
      "Ð¾ÐµÑĤ": 3848,
      "ÑĤÐ°": 3849,
      "ÑĤÐ¾Ð¶": 3850,
      "Ð½ÐµÐ¶": 3851,
      "ÑģÐµÐ³Ð´Ð°": 3852,
      "ÑģÑİÐ´Ñĥ": 3853,
      "ÑĢÐµÐ¹": 3854,
      "ÑĢÐ¸Ñĩ": 3855,
      "ÑĥÑīÐµ": 3856,
      "ÑıÑı": 3857,
      "ĠÑģÐ¸": 3858,
      "ĠÑģÐ¾Ðº": 3859,
      "ĠÑģÐµÐ»ÑĮ": 3860,
      "ĠÐ²Ð¾ÑģÐ»ÐµÐ´": 3861,
      "Ð²Ð¾Ð±": 3862,
      "Ð²Ð¾Ð´Ð¸ÑĤ": 3863,
      "Ð²Ð¸Ð½Ð°": 3864,
      "ĠÐ¼Ñī": 3865,
      "ĠÐ¼Ð¾ÑģÑĤ": 3866,
      "ÐµÐ½Ð°ÑĤ": 3867,
      "ÐµÐ½ÐµÑģ": 3868,
      "ÐµÐ½ÐºÐ°": 3869,
      "Ð¼ÐµÐ½Ð½ÑĭÐ¹": 3870,
      "ĠÑĤÑĥÑģÐº": 3871,
      "ĠÑĤÑĢÑĥÐ¿": 3872,
      "ÐµÑĤÐµÐ»Ð¸": 3873,
      "ĠÐ´ÑĢÑıÑħ": 3874,
      "ĠÐ±ÑĥÐ»": 3875,
      "ĠÐ±ÐµÑĪÐµÐ½": 3876,
      "Ð¾Ð»Ð°": 3877,
      "Ð¾Ð»Ð¸": 3878,
      "Ð¾Ð»Ñİ": 3879,
      "Ð¾Ð»Ð¶": 3880,
      "Ð°Ð»ÐµÐ½": 3881,
      "ĠÐ¸Ð´": 3882,
      "ĠÐºÐ¾Ð¼": 3883,
      "ÐµÑĢÑĪ": 3884,
      "ÐµÐ»ÐµÐ½Ð½Ð¾Ð¹": 3885,
      "ĠÐ»ÐµÐ»": 3886,
      "ĠÐ»ÐµÐ½ÑĮ": 3887,
      "ĠÐ»ÐµÐ¿ÐµÑĤ": 3888,
      "ĠÐ»ÐµÐ¶Ð°Ð»": 3889,
      "ĠÐ»Ð°Ð¼Ð¿": 3890,
      "Ð¾Ð¼Ð½Ð¸": 3891,
      "ĠÐ³ÑĥÐ»": 3892,
      "ĠÐĴÐ°Ñģ": 3893,
      "ĠÐĴÐ¾ÑĢÐ¾ÑĤ": 3894,
      "Ð¾Ð´Ð¾Ð¹": 3895,
      "Ð¾Ð´Ð½Ð¾Ð¹": 3896,
      "ĠÐ¿ÑĢÐµÑģ": 3897,
      "ĠÐ¿ÑĢÐ¾ÑģÑĤÐ¸": 3898,
      "Ð±Ñĥ": 3899,
      "ĠÑĢÐµÐ±": 3900,
      "ĠÑĢÐ°ÑĤÑĮ": 3901,
      "ĠÐŁÐµÑģ": 3902,
      "ĠÐŁÐ¸ÑĢ": 3903,
      "Ð·Ð°": 3904,
      "ĠÐ¡Ñĭ": 3905,
      "ĠÐ¡ÑĥÐ´": 3906,
      "ĠÐ¡Ð»Ð°Ð´": 3907,
      "Ð°ÑģÐ½Ð¾": 3908,
      "Ð°ÑĤÐ°ÑĢ": 3909,
      "Ð°ÑĢÐ¾Ð¼": 3910,
      "ÐµÐ´ÐµÑĤ": 3911,
      "Ð°Ð½Ñĥ": 3912,
      "Ð°Ð½Ð½ÑĭÑħ": 3913,
      "ĠÐļÐ¾": 3914,
      "Ð¾Ð½Ð·": 3915,
      "ĠÐ¢Ð²Ð¾ÑĢ": 3916,
      "ĠÐ¢ÑĥÐ´Ð°": 3917,
      "ĠÐŀÑĢ": 3918,
      "ĠÐŀÐºÐ¾Ð²": 3919,
      "Ð¸Ð½Ð°Ñħ": 3920,
      "Ð¸Ð½Ð¶Ð°Ð»": 3921,
      "ĠÑĩÐµÑģÑĤÐ¸": 3922,
      "Ð¾ÐºÐ¾Ð»ÑĮ": 3923,
      "ĠÐ¶Ð¸Ð´": 3924,
      "ĠÐ¶Ð°Ð±": 3925,
      "ÐµÐ²Ð¾Ð´Ð°": 3926,
      "ĠÐ½Ð°ÑħÐ¾Ð´Ð¸ÑĤ": 3927,
      "ĠÐ½ÐµÐ¾Ð¿ÑĭÑĤ": 3928,
      "ÐµÑĩÐµ": 3929,
      "Ð½Ð°ÑİÑģÑĮ": 3930,
      "ÐµÐ·Ð½ÑĭÐ¹": 3931,
      "ÐµÐ·Ð¶": 3932,
      "ĠÑģÐ²Ð¾Ð´": 3933,
      "ĠÑģÐ²ÐµÑĩ": 3934,
      "ĠÑģÐ²Ð¾Ð´Ñĭ": 3935,
      "ĠÐľÐ°Ð»ÑĮ": 3936,
      "ĠÑģÐ»ÑĥÑĩ": 3937,
      "Ð½ÐµÑĪÑĮ": 3938,
      "ĠÐµÐ²": 3939,
      "ĠÐĶÐ°Ð»": 3940,
      "ÐµÐ¶Ð°ÑĤ": 3941,
      "Ð»Ð¸Ñĩ": 3942,
      "ĠÐĳÐµÐ¶Ð¸ÑĤ": 3943,
      "ĠÐĳÑĥÑı": 3944,
      "ĠÐĳÐ¾Ð¶Ðµ": 3945,
      "Ð¾Ð¶Ð¸ÑĤÑĮ": 3946,
      "ÑĢÐ°Ð½Ð¸Ð¼": 3947,
      "Ð¾ÑĩÐ¸Ð»": 3948,
      "ĠÑħÑĥÐ´": 3949,
      "ĠÑħÑĢÐ°Ð¼": 3950,
      "ĠÐ³ÑĢÑĭÐ·": 3951,
      "Ð°Ð¶Ð´Ð°": 3952,
      "Ð»ÑıÐ¹": 3953,
      "ÐµÐ»ÑĮÑİ": 3954,
      "ÐµÐ»ÑĮÐµÐ¼": 3955,
      "ĠÐŁÑĢÐ°Ð²": 3956,
      "ĠÐŁÑĢÐµÐ·": 3957,
      "ĠÐŁÑĢÐµÐ»ÐµÑģÑĤ": 3958,
      "ĠÐ»ÑİÐ±Ð¸ÑĤ": 3959,
      "Ð¸Ð¹ÑģÐºÐ¸Ð¹": 3960,
      "ÑģÐºÐ¾Ð¼": 3961,
      "ĠÐĽÑĥÑĩ": 3962,
      "ĠÐĽÐµÐ±ÐµÐ´ÑĮ": 3963,
      "ĠÐ§ÑĥÐ´": 3964,
      "ĠÐ»Ð¸ÑĨÐ¾": 3965,
      "ĠÐ¿Ð¾Ð´ÑĬ": 3966,
      "Ð°Ð»Ð¸ÑģÑı": 3967,
      "ÑģÑĤÐ²ÐµÐ½Ð½ÑĭÐ¹": 3968,
      "ĠÑĪÐ°Ð¿": 3969,
      "ĠÑĤÐ²Ð¾Ðµ": 3970,
      "ĠÐłÐµÐº": 3971,
      "ĠÐ²ÑĭÐ±": 3972,
      "ĠÐ³Ð¾ÑĢÐµÑģÑĤÐ¸": 3973,
      "ĠÐ¿Ð»Ð¾Ð´": 3974,
      "ĠÐ¿Ð¾Ð»Ð½ÑĭÐ¹": 3975,
      "ĠÑģÐ¼ÑĥÑī": 3976,
      "ĠÐķÐº": 3977,
      "ĠÑĨÐ°ÑĢÐµÐ¹": 3978,
      "ĠÐ¡ÑĤÑĢÐ°Ð´": 3979,
      "Ð½Ð¾Ð²Ð°": 3980,
      "ĠÐ½Ð°ÑģÐº": 3981,
      "ĠÐ¾Ð´Ð½Ð¾": 3982,
      "ĠÐ¾Ð´Ð½Ð¾Ð³Ð¾": 3983,
      "ĠÐ´ÑĥÑĪÐ¸ÑģÑĤ": 3984,
      "ĠÐ¿ÑĢÐµÐ´Ð°ÑĤÐµÐ»ÑĮ": 3985,
      "ĠÐŀÑĤÐ¿": 3986,
      "ĠÐ»ÑĮÑģÑĤ": 3987,
      "ĠÑģÐ²ÐµÑĤÐ»": 3988,
      "ĠÑĥÐ¼Ð°": 3989,
      "ĠÑĥÐ¼Ð¾Ð»Ðº": 3990,
      "ĠÐ¥ÑĢÐ°Ð½": 3991,
      "ĠÐ¥ÑĢÐ¸ÑģÑĤ": 3992,
      "ÑĢÐ°ÑģÑģ": 3993,
      "ĠÑģÐ¿ÐµÑĪ": 3994,
      "ĠÐ²Ð¾Ð¸Ð½": 3995,
      "ĠÑģÐ²Ð¾ÐµÐ¼": 3996,
      "Ð¸ÑĪÑĥ": 3997,
      "ĠÐºÑĢÐ°ÑģÐ°": 3998,
      "Ġleur": 3999,
      "ĠÐ¿Ð¾ÑĢÐ¾Ðº": 4000,
      "ĠÐ½ÐµÐ±Ð¾Ð¼": 4001,
      "ĠÐ¼Ð¸ÑĢÑĥ": 4002,
      "Ġsans": 4003,
      "ĠÐ±ÑĥÐ´ÑĥÑĤ": 4004,
      "aient": 4005,
      "ĠÐ·Ð»Ð¾Ð¹": 4006,
      "Ġpas": 4007,
      "ĠÐ»ÐµÑĤÑĥÑĩ": 4008,
      "ĠÐ¤Ð¸Ð»Ð¾ÑģÐ¾ÑĦ": 4009,
      "ÑĢÐ°Ð´ÐºÐ¾Ð¹": 4010,
      "ĠÐºÐ¾Ð½ÑĨÐ°": 4011,
      "Ð¸ÑĤÐµÐ»ÑĮÐ½Ð¾": 4012,
      "Ð¸ÑĤÐµÐ»ÑĮÐ½Ð¾Ð¹": 4013,
      "ĠÐŁÐ¾Ð½Ð¸Ðº": 4014,
      "ĠÐ¿Ð¾ÑĤÑĥÑħ": 4015,
      "ĠÐ¼ÐµÑĩÑĤÐ¾Ð¹": 4016,
      "ĠÐĴÑĭÐ¿": 4017,
      "ÑĢÑıÑģ": 4018,
      "ÑĢÑıÐ¼": 4019,
      "ĠÑģÐ°Ð¼Ð¾Ð¼": 4020,
      "ĠÑĢÐ°ÑģÑģÑĤ": 4021,
      "ĠÑĥÐ´Ð¸Ð²": 4022,
      "ĠÑĩÐµÑĢÐµÐ¿": 4023,
      "ĠÐĽÑİÐ±Ð¸Ð¼": 4024,
      "ques": 4025,
      "ĠÐ½Ð°Ð¿ÐµÐ²": 4026,
      "ĠÐ¼Ð»Ð°Ð´Ð°Ñı": 4027,
      "ĠÐ¼Ð»Ð°Ð´Ð¾ÑģÑĤÐ¸": 4028,
      "ĠÐ¼Ð»Ð°Ð´ÐµÐ½Ñĩ": 4029,
      "ĠÐ²Ð°ÑĪÐµ": 4030,
      "ÑĥÐ¶Ð´ÐµÐ½Ð¸Ð¹": 4031,
      "ĠÐ·Ð°Ð²ÑĤÑĢÐ°": 4032,
      "ĠÐŀÐ´Ð½Ð¸": 4033,
      "Ġcom": 4034,
      "Ð²ÐµÑĢÐ³": 4035,
      "ĠÐĿÐ°Ð´ÐµÐ¶": 4036,
      "ĠÐºÐ¾ÑĢÐ¾Ð»ÐµÐ²Ð¸Ñĩ": 4037,
      "ĠÐ±ÐµÐ»ÐµÐµ": 4038,
      "ĠÑĥÐ·ÑĢ": 4039,
      "ĠÐºÑĢÑĥÐ³Ñĥ": 4040,
      "ÐĿÐ¾": 4041,
      "ĠÐ·Ð½Ð°ÐµÑĤÐµ": 4042,
      "ĠÐĳÐ¾Ð³Ñĥ": 4043,
      "ĠÑģÑĥÐ´ÑĮÐ±Ð°": 4044,
      "ĠÑģÑĥÐ´ÑĮÐ±Ñĭ": 4045,
      "ĠÑĤÐ°Ð¹Ð½ÑĭÐµ": 4046,
      "ÑıÐ´ÑĮ": 4047,
      "ĠÑĤÐ¾Ð»Ð¿Ð¾Ñİ": 4048,
      "ĠÐ²Ð¾Ð´Ñĥ": 4049,
      "ĠÐ·ÐµÐ¼Ð»Ðµ": 4050,
      "ĠÐ½Ð°Ð²ÑģÐµÐ³Ð´Ð°": 4051,
      "ĠÐ¶ÐµÐ½Ð¸Ñħ": 4052,
      "ĠÐ¾ÐºÐ½Ð¾": 4053,
      "ĠÐ±ÑĥÑĢÑĮ": 4054,
      "ĠÐ¿ÑĢÐµÐºÑĢÐ°ÑģÐ½ÑĭÐ¹": 4055,
      "ĠÐ²Ð¾ÑģÐºÑĢ": 4056,
      "ĠÐ½ÐµÐ³Ðµ": 4057,
      "ĠÐ½ÐµÐ³Ð¾Ð¹": 4058,
      "ĠÐ·Ð»Ð°ÑĤÐ¾Ð¹": 4059,
      "ĠÐ½ÐµÐ¿ÑĢ": 4060,
      "ĠÐ²ÐµÐ»Ð¸ÑĤ": 4061,
      "ĠÑįÑĤÐ¾Ð¹": 4062,
      "ĠĠĠĠĠĠĠĠĠĠĠĠĠĠĠĠĠĠĠ": 4063,
      "ĠÐ²ÐµÑĩÐµÑĢÐ½ÐµÐ¹": 4064,
      "ĠÐ´Ð²ÑĥÑħ": 4065,
      "une": 4066,
      "ĠÐ¼Ð³Ð»Ð°": 4067,
      "ĠÐ³Ð»ÑĥÐ±Ð¸Ð½Ðµ": 4068,
      "Ð°Ð½Ð¸Ð½": 4069,
      "ĠÑĢÐµÑĩÐµÐ¹": 4070,
      "Ð´Ð¸Ð½ÑĭÐ¹": 4071,
      "ĠÐ±Ð¾Ð»ÐµÐ·": 4072,
      "ĠÐ·Ð°ÑĢÐµÑİ": 4073,
      "ĠÑģÐ²Ð¾Ð±Ð¾Ð´Ð½Ð¾Ð¹": 4074,
      "ĠÑĤÑĢÐµÐ¿ÐµÑĤÐ¾Ð¼": 4075,
      "ĠÐļÐ¾ÑĢÐ¾Ð»ÐµÐ²Ð¸Ñĩ": 4076,
      "ĠÐ³Ð¾Ð½Ð¸ÑĤ": 4077,
      "ĠÐ±ÑĢÐµÐ³Ð°": 4078,
      "ĠÑĢÑĥÑĩÑĮÑı": 4079,
      "ĠÐ´ÑĭÑĪÐ°": 4080,
      "ĠÐ¾ÑħÐ»Ð°Ð´": 4081,
      "ĠÐ¾ÑħÐ¾ÑĤÑĭ": 4082,
      "ĠÐ¿ÑĥÑģÑĤÑĭÐ½Ð½ÑĭÐ¹": 4083,
      "ĠÐ²Ð»Ð°ÑģÑĤÐ²": 4084,
      "ĠÑģÑĭÐ½Ñĭ": 4085,
      "ĠÐ¼ÐµÑģÑĤÐ¾": 4086,
      "ĠÐŁÐ¾ÑĤÐ¾Ð¼": 4087,
      "ĠÐ½Ð°Ð¹Ð´Ñĥ": 4088,
      "ĠÐ½Ð°Ð¹Ð´ÐµÑĤ": 4089,
      "ĠÐ»Ð°Ð²ÑĢÐ¾Ð²": 4090,
      "ĠÐŁÐ¾Ð²ÐµÑĢÑĮ": 4091,
      "ĠÐ¡Ð°Ð»ÑĤÐ°Ð½Ð°": 4092,
      "ĠÑģÑĤÑĢÐ°ÑħÐ¾Ð¼": 4093,
      "ĠÐ·Ð°Ð±Ð²ÐµÐ½ÑĮÑı": 4094,
      "agn": 4095,
      "ĠÐ¸ÑģÑĤÐ¸Ð½Ñĭ": 4096,
      "ĠÐ±Ð»Ð°Ð¶ÐµÐ½ÑģÑĤÐ²Ð¾": 4097,
      "ĠÐĴÐ¾Ð·Ð¼Ð¾Ð¶Ð½Ð¾": 4098,
      "ĠÐºÐ¸Ð¿Ð¸ÑĤ": 4099,
      "ĠÐŁÐ¾ÑĩÑĤÐ¾": 4100,
      "ĠÐ´ÐµÐ»Ð°ÑĤÑĮ": 4101,
      "ĠÐºÐ¾Ð²Ð°ÑĢ": 4102,
      "ĠÐ±Ð»ÐµÑģÑĤÐ¸ÑĤ": 4103,
      "ĠÑģÐ¿Ð¾ÐºÐ¾Ð¹Ð½Ð¾": 4104,
      "ĠÐ¿ÑĢÑıÐ¼Ð¾": 4105,
      "ĠÐ¿ÑĢÑıÐ¼Ð¾Ð¹": 4106,
      "ĠÐ¡ÐµÑĢÐ´ÑĨÐ°": 4107,
      "ĠÐ³ÑĢÐµÑħÐ¸": 4108,
      "ĠÑģÐ¾Ð³Ð»Ð°Ñģ": 4109,
      "ĠÐ¿Ð¸ÑģÐ°ÑĤÑĮ": 4110,
      "ĠÐºÑĢÐ°Ñı": 4111,
      "ĠÑĢÑĥÐ¼ÑıÐ½ÐµÐ¹": 4112,
      "ĠÑħÑĢÑĥÑģÑĤ": 4113,
      "ĠÐ²Ð¾Ð»Ð½Ð°Ñħ": 4114,
      "ĠÐ¡Ð²Ð¾Ð±Ð¾Ð´Ñĭ": 4115,
      "ĠÃ©tait": 4116,
      "ĠÐ¿Ð¾Ð»ÑĥÐ½Ð¾ÑĩÐ¸": 4117,
      "ĠÐ¸ÑīÐµÑĤ": 4118,
      "ĠÐĴÐ¾ÑģÑĤÐ¾ÑĢÐ³": 4119,
      "ĠÐŁÐ°Ð²Ð»": 4120,
      "ĠÐĴÐ¾Ð´Ñı": 4121,
      "ĠÐĿÐ¸ÐºÑĤÐ¾": 4122,
      "ĠÐ½Ð°ÑħÐ¼ÑĥÑĢ": 4123,
      "ĠÐ¾Ð±Ð½Ð°Ð¶": 4124,
      "ĠÐ²Ð»ÑİÐ±Ð»ÐµÐ½": 4125,
      "ĠÐ¼ÑĩÐ¸ÑĤÑģÑı": 4126,
      "ĠÐ±Ð¸ÑĤÐ²Ñĭ": 4127,
      "ĠÐ´Ð»Ð¸Ð½Ð½ÑĭÐ¹": 4128,
      "ĠÑģÑĥÐ»ÑĤÐ°Ð½": 4129,
      "ĠÑĤÐ°Ð±Ð°Ðº": 4130,
      "ĠÐĴÐµÑĩÐµÑĢ": 4131,
      "ĠÐŁÑĢÐµÐºÑĢÐ°Ñģ": 4132,
      "Qu": 4133,
      "ap": 4134,
      "ement": 4135,
      "res": 4136,
      "si": 4137,
      "Ðĸ": 4138,
      "ÐĽ": 4139,
      "ĠP": 4140,
      "Ġre": 4141,
      "ĠQu": 4142,
      "Ð¾Ð¸Ð½": 4143,
      "ÐµÐµÑĪÑĮ": 4144,
      "ÑĤÐ°ÑĢ": 4145,
      "Ð½Ð°Ð¹": 4146,
      "ÑĢÐ°Ð»": 4147,
      "ÑĢÑĭÐ²": 4148,
      "Ð»Ð¾ÑĤ": 4149,
      "Ð»Ð¾Ñİ": 4150,
      "Ð»ÑĥÐ¿": 4151,
      "Ð»Ð¸ÑĤÐµ": 4152,
      "ÑĥÑĢÐ°Ñĩ": 4153,
      "ĠÑģÐ´": 4154,
      "ĠÑģÐ¾Ñİ": 4155,
      "ĠÑģÐ¸Ð½Ðµ": 4156,
      "ĠÐ²Ð¾ÑģÐº": 4157,
      "ĠÐ²Ð»Ð°Ñĩ": 4158,
      "ĠÐ²ÐµÐ·Ð´Ðµ": 4159,
      "ĠÐ²ÑĤÐ°Ð¹Ð½Ðµ": 4160,
      "ĠÐ²ÐºÑĥÑĪ": 4161,
      "ĠÐ¿Ð¸Ð»": 4162,
      "ĠÐ¿Ð»Ñı": 4163,
      "ĠÐ¿Ð°Ð»Ð°": 4164,
      "ĠÐ¿ÑĮÐµÑĤ": 4165,
      "Ð²ÐµÐ¹": 4166,
      "ĠÐ½Ð¾Ð²Ð¾Ð¹": 4167,
      "ÐºÐ¾Ð½": 4168,
      "ĠÐ¼ÐµÐ»ÑĮ": 4169,
      "ĠÐ¼ÐµÑī": 4170,
      "ĠÐ¼ÑĥÐºÐ¸": 4171,
      "ÑģÑĤÐ°Ð½ÑĮ": 4172,
      "ÐµÐ½Ð¾": 4173,
      "ÐµÐ½Ñĥ": 4174,
      "ÐµÐ½Ð½ÑĥÑİ": 4175,
      "Ð¼Ð°": 4176,
      "Ð¼Ð¸ÑĤ": 4177,
      "ĠÑĤÐ¸ÑĢ": 4178,
      "ĠÑĤÑĥÐ´Ð°": 4179,
      "ĠÑĤÐµÐ½ÑĮÑİ": 4180,
      "Ð½ÑĭÑĪ": 4181,
      "ĠÐ´Ð½Ð°": 4182,
      "ĠÐ´ÑĢÐ°Ð³": 4183,
      "ĠÐ±Ð¾Ð´": 4184,
      "ĠÐ±ÑĥÐ¼": 4185,
      "ĠÐ±Ð°ÑĪ": 4186,
      "ĠÐ±Ð¸Ñĩ": 4187,
      "ĠÐ±ÑĥÑĤÑĭÐ»": 4188,
      "Ð¾Ð»Ð¾Ð¼": 4189,
      "Ð¾Ð²ÑĭÐµ": 4190,
      "Ð¾Ð²ÑģÐºÐ¸Ð¹": 4191,
      "Ð¾Ð²Ð»Ð°ÑģÑĤ": 4192,
      "Ð°Ð»Ð¾Ð²": 4193,
      "Ð°Ð»Ð¸Ð»ÑģÑı": 4194,
      "ĠÐºÐ¾ÑģÑĤÐ¸": 4195,
      "ÐµÑĢÐ±": 4196,
      "ĠÐĺÑģÐº": 4197,
      "ĠÐĺÐ³ÑĢÐ°": 4198,
      "Ð¾ÑĢÐ¸ÑĤÑĮ": 4199,
      "ÐµÐ»Ð°ÑĤÑĮ": 4200,
      "Ð¸ÑĤÐ°Ð½": 4201,
      "Ð¸ÑĤÐµÐ»Ñı": 4202,
      "ĠÐ»Ð°Ð·": 4203,
      "ĠÐ»Ð¸ÑħÐ¾Ð¹": 4204,
      "Ð¾Ð¼Ð°Ð½": 4205,
      "ĠÐ³Ð½": 4206,
      "ĠÐ³Ð»ÑıÐ¶Ñĥ": 4207,
      "ĠÐ³ÐµÐ½ÐµÑĢ": 4208,
      "ĠÐĴÐ¾Ð»ÑĮ": 4209,
      "ĠÐĴÑĢÐ°Ð³": 4210,
      "ĠÐĴÐµÐ´ÑĮ": 4211,
      "ÑĨÐ°Ð¼Ð¸": 4212,
      "Ð¾Ð´Ð²Ð¸Ð¶": 4213,
      "ĠÐ·ÑĭÐ±": 4214,
      "ĠÐ·ÐµÑĦÐ¸ÑĢ": 4215,
      "ĠÐ¿ÑĢÐ¾Ð³": 4216,
      "Ð¸Ð»Ð°ÑģÑı": 4217,
      "ĠÑĢÐ¾Ð¹": 4218,
      "ĠÑĢÐµÑĤ": 4219,
      "ĠÐŁÐµÐ³": 4220,
      "ĠÐŁÐ¾ÐºÐ¾Ð¹": 4221,
      "ĠÐŁÐ¸ÑĤÐ¾Ð¼": 4222,
      "Ð¾Ð³ÑĢÐ°Ð´": 4223,
      "ĠÐ¡Ð±": 4224,
      "ĠÐ¡ÐµÐ¼": 4225,
      "ĠÐ¡Ð²ÐµÑĢ": 4226,
      "ĠÐ¡Ð²Ð¸ÑģÑĤ": 4227,
      "Ð°ÑģÑĭ": 4228,
      "Ð°ÑĤÐ¾Ð¹": 4229,
      "Ð½Ð¸ÐµÐ¼": 4230,
      "Ð½Ð¸Ð¶": 4231,
      "Ð°Ð´ÑĮ": 4232,
      "Ð°Ð¼ÐµÑĤ": 4233,
      "Ð°ÐºÐ¾": 4234,
      "ĠÑĥÑĩ": 4235,
      "ĠÑĥÑī": 4236,
      "ĠÑĥÐ²ÐµÑĢ": 4237,
      "ĠÑĥÐ²Ð¸Ð¶Ñĥ": 4238,
      "ĠÑģÑĤÐ¾Ñı": 4239,
      "ĠÑģÑĤÐ¾Ð»ÑĮÐºÐ¾": 4240,
      "ĠÐŀÑĩ": 4241,
      "ĠÐ¶ÐµÑĢÑĤ": 4242,
      "ÑīÐµÑĤ": 4243,
      "ĠÐ½Ð°ÑħÐ¾Ð´": 4244,
      "ĠÑģÐ²ÑıÐ·": 4245,
      "ĠÐľÐ¾Ñı": 4246,
      "ĠÐµÐ´Ð²Ð°": 4247,
      "ĠÐĶÐ²": 4248,
      "ĠÐĶÐµÐ½ÑĮ": 4249,
      "ĠÐĶÑĥÑħ": 4250,
      "ÑĥÑĤÑĭÐ¹": 4251,
      "ÐµÐ¶Ð°Ð»Ð°": 4252,
      "Ð»Ð¸ÑĨ": 4253,
      "Ð¾Ð¶Ð½Ð¸Ðº": 4254,
      "ÑĢÐ°Ñħ": 4255,
      "ÑĢÐ°ÑĦ": 4256,
      "ĠÐ¾ÑĤÐ²Ð¾ÑĢ": 4257,
      "ĠÐĵÐ¾Ð»": 4258,
      "ĠÐĹÐ°ÑĢ": 4259,
      "ĠÑħÐ¾Ñħ": 4260,
      "Ð°Ð±Ñĭ": 4261,
      "Ð´Ð°ÐµÑĤÑģÑı": 4262,
      "ÐµÐ»ÑĮÑīÐ¸": 4263,
      "ÐµÐ»ÑĮÐ¼Ð¾Ð¶": 4264,
      "ĠÐŁÑĢÐ¸Ñħ": 4265,
      "ĠÐŁÑĢÐ¾Ð·": 4266,
      "ĠÐŁÑĢÐ¾Ñī": 4267,
      "ĠÐ£Ð±": 4268,
      "ĠÑģÐºÐ°ÑĤ": 4269,
      "ĠÑģÐºÑĥÐ¿": 4270,
      "ÑĥÑĩÐµÐ½": 4271,
      "ÑĥÑĩÐ½Ð¾": 4272,
      "ĠÐ²ÑģÐµÐ¼Ñĥ": 4273,
      "ĠÐ¿Ð¾Ð½Ð¸Ð¼": 4274,
      "ĠÐ¿Ð¾ÑĪÐ»Ð°": 4275,
      "ĠÐ¿Ð¾ÑĥÑĤÑĢÑĥ": 4276,
      "...Â»": 4277,
      "ÑģÐºÐ¾Ðµ": 4278,
      "ÑģÐºÐ¸Ð¼Ð¸": 4279,
      "ĠÐ¾Ð±ÑĢ": 4280,
      "ĠÐ¾Ð±Ð¼": 4281,
      "ĠÐ¾Ð±ÑĢÐ°ÑĤ": 4282,
      "ĠÐ¿Ð¾Ð´Ð»": 4283,
      "ĠÐ¿Ð¾Ð´Ð±": 4284,
      "ĠÐ¿Ð¾Ð´ÑĢÑĥÐ¶": 4285,
      "ĠÐ¿Ð¾Ð´Ð²Ð¸Ð³": 4286,
      "ÑĮÑıÑĩ": 4287,
      "ĠÑĪÐ°Ð³": 4288,
      "ĠÑĪÑĥÐ±": 4289,
      "ĠÑĪÐ»ÐµÐ¼": 4290,
      "ĠÑĤÐ²Ð¾Ñİ": 4291,
      "ĠÐłÐ¾Ð´": 4292,
      "Ð°Ð³Ñĥ": 4293,
      "ĠÐ¼Ð¾Ð»Ð²Ð°": 4294,
      "Ð²Ð¸ÑģÑĮ": 4295,
      "ĠÐ¿Ð¾Ð»Ð½": 4296,
      "ĠÐ¿Ð¾Ð»Ð¾Ð½": 4297,
      "ĠÐ¿Ð¾Ð»Ð¾Ð¶": 4298,
      "ĠÐ¿Ð¾Ð»ÑİÐ±": 4299,
      "ĠÐ±ÑĢÐ°ÑĤÑĮÑı": 4300,
      "ĠÑģÐ¼ÐµÐ»ÑĭÐ¹": 4301,
      "ĠÑĨÐ°ÑĢÐ¸ÑĨÐµÐ¹": 4302,
      "Ð½ÑıÑħ": 4303,
      "ĠÐ¡ÑĤÑĭÐ´": 4304,
      "ĠÐ¡ÑĤÐµÐ½ÑĮÐºÐ°": 4305,
      "ĠÐ¼Ð¸Ð»Ð¾": 4306,
      "ĠÐ¿ÑĢÐ¸Ñģ": 4307,
      "ĠĠĠĠĠĠĠĠĠĠ": 4308,
      "ĠĠĠĠĠĠĠĠĠĠĠ": 4309,
      "ĠÐ²Ð¾Ð»Ð½Ñĥ": 4310,
      "ĠÑģÐ²ÐµÑĤÐ»Ð¸": 4311,
      "ĠÐ¥Ð¾Ð»Ð¾Ð´": 4312,
      "ĠÐ¥Ð¾ÑĩÑĥ": 4313,
      "ĠÑģÐ¿Ð¸ÑĪÑĮ": 4314,
      "ĠÑģÑĤÐ°ÑĢÐ¾ÑģÑĤÑĮ": 4315,
      "ĠÐ¿Ð¾ÑĢÑĤ": 4316,
      "ĠÐ¿Ð¾ÑĢÐ¾Ð³": 4317,
      "ĠÑģÐ»Ð°Ð²Ð¸Ð»": 4318,
      "ĠÑģÐ»Ð°Ð²Ð½Ð¾Ð³Ð¾": 4319,
      "ĠÐ¼ÐµÑĩÐµÐ¹": 4320,
      "eau": 4321,
      "ĠÐ±Ð¾Ð³Ð°ÑĤ": 4322,
      "ĠÑĤÐ²Ð¾Ð¸Ð¼": 4323,
      "ĠÐ½ÐµÐ±Ðµ": 4324,
      "ĠÐ²Ð¸Ð´Ð°Ð»": 4325,
      "aire": 4326,
      "ĠÑĤÐ°ÐºÐ¾Ðµ": 4327,
      "ĠÑĤÐ¸ÑħÐ¸Ñħ": 4328,
      "ĠÐ½ÐµÐ²Ð¾Ð´": 4329,
      "ĠÐ½ÐµÐ²Ð¾Ð»Ðµ": 4330,
      "ĠÑģÐ»Ð°Ð´ÐºÐ¾Ð¹": 4331,
      "ĠÑĥÑģÐ½ÑĥÐ²": 4332,
      "ĠÐºÐ¾Ð½ÑİÑĪ": 4333,
      "ĠÑĪÑĥÐ¼Ð½ÑĭÐ¹": 4334,
      "ĠÐ»ÑİÐ±Ð¾Ð²Ð½Ð¸ÑĨÑĭ": 4335,
      "ÑĭÐ½ÐµÑĤ": 4336,
      "ĠÐ²Ð´Ð°Ð»ÑĮ": 4337,
      "ĠÑİÐ½ÑĭÐ¹": 4338,
      "ĠÐ¼Ð¾Ð³ÑĥÑī": 4339,
      "ĠÐ²Ð·Ð¾ÑĢÐ¾Ð²": 4340,
      "ĠÐ²Ð·Ð¾ÑĢÐ¾Ð¼": 4341,
      "ÐºÑĢÐ¾Ð¼": 4342,
      "ĠÐ¿Ð¾ÑĤÑĥÐ¿": 4343,
      "ĠÑģÑĤÐ¸ÑħÐ°Ñħ": 4344,
      "ĠÐ¼ÐµÑĩÑĤÐ°Ñħ": 4345,
      "ÑĭÑĤÑĮÑģÑı": 4346,
      "ÐµÑħÐ°Ð»Ð¸": 4347,
      "Ġmon": 4348,
      "ĠÐ¿ÑĢÐ°Ð²Ð´Ñĥ": 4349,
      "ĠÑĩÐµÑĢÐ½": 4350,
      "ĠÑĩÐµÑĢÐ½ÑĭÐ¹": 4351,
      "ĠÐ²Ð°ÑĪÐ°": 4352,
      "ĠÐ²Ð°ÑĪÐµÐ¹": 4353,
      "ĠÐ½ÐµÐ¼Ð½Ð¾Ð³Ð¾": 4354,
      "ĠÐ·Ð½Ð°Ð¼": 4355,
      "ĠÑģÐ»ÐµÐ·Ð°Ñħ": 4356,
      "ĠÐ¿Ð¾Ð¼ÐµÑĢÐº": 4357,
      "ĠÑģÐ¾ÐµÐ´Ð¸Ð½": 4358,
      "ĠÑĥÐ¿ÑĢÐµÐº": 4359,
      "ĠÐ²Ð»Ð°Ð¶": 4360,
      "ÑĢÐ°Ð½ÑĨ": 4361,
      "ÐŁÑĢ": 4362,
      "<?>,": 4363,
      "ĠÐ´ÑĥÐ¼Ð°Ð»": 4364,
      "ĠÐ±ÑĢÐ°ÑĤÐµÑĨ": 4365,
      "ĠÐ´Ð¾Ð¼Ð°ÑĪ": 4366,
      "ĠÐ½ÐµÐ±ÐµÑģÐ°Ð¼": 4367,
      "ÐµÑıÐ½": 4368,
      "ĠÐ±ÐµÑĢÐµÐ³Ñĥ": 4369,
      "ĠÐ¸ÑģÑģÑĤÑĥÐ¿": 4370,
      "ÑİÑĤÑģÑı": 4371,
      "ĠÐĳÐ»ÐµÐ´": 4372,
      "ĠÑĢÐ¾Ð´Ð½ÑĭÐµ": 4373,
      "ĠÑĥÐ½ÑĭÐ»": 4374,
      "ĠÐ³Ð¾ÑĢÐ´Ð¾ÑģÑĤÐ¸": 4375,
      "ÐĿÐµÑĤ": 4376,
      "ĠÐ¿ÑĢÐµÐ»ÐµÑģÑĤÑĮ": 4377,
      "ĠÑģÑĥÐ´ÑĮÐ±Ð¾Ð¹": 4378,
      "ĠÑģÑĥÐ´ÑĮÐ±Ð¾Ñİ": 4379,
      "ÑĥÑīÐ¸Ð¹": 4380,
      "ĠÑĤÐ°Ð¹Ð½Ñĭ": 4381,
      "ÑģÐ»Ð°Ð²": 4382,
      "ĠÐ¿Ð¾Ð³Ð°Ñģ": 4383,
      "ĠÑĤÐ¾Ð»Ð¿Ðµ": 4384,
      "ĠÑĥÐ²Ð¸Ð´ÐµÐ»": 4385,
      "ĠÐłÐ°Ð·Ð¸Ð½": 4386,
      "ĠÐ´Ð¾ÑĢÐ¾Ð¶": 4387,
      "ĠÑģÐ»ÑĭÑĪÐµÐ½": 4388,
      "ĠÑħÐ»Ð°Ð´Ð½Ð¾Ð¹": 4389,
      "ĠÐ³ÑĢÐ¾Ð±Ð°": 4390,
      "ĠÐ³ÑĢÐ¾Ð±Ð¾Ð²Ð¾Ð¹": 4391,
      "ĠÐ¿Ð»Ð°Ð¼ÐµÐ½Ð½ÑĭÐ¹": 4392,
      "ĠÐ»ÐµÐ³Ðº": 4393,
      "ĠÐ¶ÐµÐ½Ñĭ": 4394,
      "ĠÐ·Ð¾Ð»Ð¾ÑĤÐ°Ñı": 4395,
      "ĠÐ·Ð¾Ð»Ð¾ÑĤÑĥÑİ": 4396,
      "ĠÐ±ÑĥÑĢÑı": 4397,
      "ĠÐ²ÑĢÐµÐ¼ÐµÐ½": 4398,
      "ĠÐ²Ð¾Ð»Ð½Ð°Ð¼Ð¸": 4399,
      "ĠÐ²Ð¾Ð»Ð½ÐµÐ½ÑĮÐµ": 4400,
      "ĠÐ¼ÑĢÐ°ÑĩÐ½ÑĭÐ¹": 4401,
      "ĠÐ¾Ð´Ð¸Ð½Ð¾ÐºÐ¸Ð¹": 4402,
      "ĠÐ·Ð»Ð°ÑĤÐ°": 4403,
      "ĠÐºÐ¾Ð½Ð¸": 4404,
      "ĠÐ¿ÐµÑĢÐ²ÑĭÑħ": 4405,
      "ĠÑįÑĤÐ¸": 4406,
      "ĠÐ²Ð´Ð¾ÑħÐ½Ð¾Ð²ÐµÐ½ÑĮÐµ": 4407,
      "ĠÐ´Ð°Ð»ÑĮÐ½Ð¸Ð¹": 4408,
      "ĠÑĥÑģÑĤÐ°": 4409,
      "Ġtou": 4410,
      "ĠÐ¿ÐµÑĢÐµÐ´Ð¾": 4411,
      "ĠÐ¾ÑģÑĤÐ°Ð²Ñı": 4412,
      "ĠÐ¾ÑģÑĤÐ°Ð²Ð¸Ð»": 4413,
      "ĠÑĤÑĢÑĥÐ´Ð¾Ð²": 4414,
      "ĠÐ³Ð»ÑĥÐ±Ð¾ÐºÐ¾Ð¹": 4415,
      "ĠÐ²ÐµÐ´ÑĮ": 4416,
      "ĠÐ²ÑģÑĤÑĢÐµÑĩ": 4417,
      "ĠÐ¼ÑĥÑĩÐµÐ½ÑĮÐµ": 4418,
      "ĠÐ»ÐµÐ½Ð¸Ð²ÑĭÐ¹": 4419,
      "ĠÐ¼Ð¾Ð³Ð¸Ð»Ð¾Ð¹": 4420,
      "ĠÐ¢Ð²Ð¾Ñı": 4421,
      "ĠÐ¢Ð²Ð¾Ð¸Ñħ": 4422,
      "ĠÑħÐ¾Ð»Ð¾Ð´Ð½Ð¾Ð¹": 4423,
      "ĠÐ´Ð¾ÑĢÐ¾Ð³Ðµ": 4424,
      "ĠÑģÐ¸Ð»Ð°Ñħ": 4425,
      "ĠÐĴÐµÑģÐµÐ»ÑĭÐ¹": 4426,
      "ĠÐĴÐµÑģÐµÐ»ÑĮÐµ": 4427,
      "ĠÑĢÑĥÑģÑģÐºÐ¸Ð¹": 4428,
      "ĠÑĢÑĥÑģÑģÐºÐ¾Ð¹": 4429,
      "ĠÑģÑĤÐ¾ÑıÑĤ": 4430,
      "ĠÐłÐ°ÑģÑģ": 4431,
      "ĠÐłÐ°ÑģÐ¿": 4432,
      "ĠÐ´ÑĭÑĪÐµÑĤ": 4433,
      "ĠÑīÐµÐº": 4434,
      "ĠÑĤÐ²Ð¾ÑĢÐµÐ½ÑĮÑı": 4435,
      "ĠÑĤÐ²Ð¾ÑĢÐµÐ½ÑĮÐµ": 4436,
      "ĠÐŁÐ°ÑĢÐ½Ð¸": 4437,
      "ĠÑĢÐ°Ð·Ð»ÑĥÐºÑĥ": 4438,
      "ĠÐ±Ð»ÐµÐ´Ð½ÑĭÐ¹": 4439,
      "ĠÑģÑĤÐ°Ð½ÐµÑĤ": 4440,
      "ĠÐ¼ÐµÑĢÑĤÐ²ÐµÑĨ": 4441,
      "ĠÐĳÐµÑģÑģÐ¼": 4442,
      "ĠÐ¿Ð¾Ð¶Ð°Ð»": 4443,
      "ĠÐ¿ÑĢÐ¾ÑģÐ¸ÑĤ": 4444,
      "ĠÐłÐ¾ÑģÑģÐ¸Ñı": 4445,
      "ĠÐ¼Ð¸Ð½ÑĥÑĤÑĭ": 4446,
      "ĠÐ¾ÑĢÐµÑĪ": 4447,
      "ĠÑģÐµÑģÑĤÑĢ": 4448,
      "ĠÑģÐµÑģÑĤÑĢÐ°": 4449,
      "ĠÐ·Ð°Ð±Ð²ÐµÐ½ÑĮÐµ": 4450,
      "Ð»ÐµÐ³Ð°": 4451,
      "ĠÐľÐ°ÑĢÐºÐ¾": 4452,
      "ĠÑģÐºÑĥÑĩÐ½ÑĭÐ¹": 4453,
      "ĠÐ¡Ð²Ð¾Ð¸": 4454,
      "ĠÐ¿Ð¾ÑħÐ¼": 4455,
      "age": 4456,
      "aglan": 4457,
      "ĠrÃ©": 4458,
      "ĠÑĥÑĤÑĢÐµÐ½Ð½Ð¸Ð¹": 4459,
      "ĠMaglan": 4460,
      "ĠÐľÐ¾ÑģÐºÐ²Ð°": 4461,
      "ĠÐľÐ¾ÑģÐºÐ²Ñĥ": 4462,
      "ĠÐ²Ð·Ð´Ð¾ÑħÐ¾Ð¼": 4463,
      "ĠÐľÐµÑĩÑĤÑĭ": 4464,
      "ĠÐ·Ð¾Ð²Ñĥ": 4465,
      "ĠÐ¿ÑĢÐ¾Ð¿Ð¾Ð²ÐµÐ´": 4466,
      "ĠÐ²Ð¾Ð¿ÑĢÐ¾ÑĪ": 4467,
      "ÐµÑĢÐ¿ÐµÐ»": 4468,
      "ĠÐ¼ÑıÑĤÐµÐ¶Ð½ÑĭÐ¹": 4469,
      "ĠÐ±Ð¾Ð¶ÐµÑģÑĤÐ²": 4470,
      "ĠÐ»ÑĥÐ³Ð°": 4471,
      "ÑĩÐ°ÑĤÑģÑı": 4472,
      "ĠÐ¶ÐµÑģÑĤÐ¾ÐºÐ¾Ð¹": 4473,
      "................": 4474,
      "ĠÑģÐ²ÑıÑīÐµÐ½Ð½ÑĭÐ¹": 4475,
      "ĠÑģÑĤÑĢÐµÐ»Ð¾Ð¹": 4476,
      "ĠÐºÑĢÐ¾Ð²Ð°Ð²Ð¾Ð¹": 4477,
      "ÐĹÐ´ÑĢÐ°Ð²ÑģÑĤÐ²ÑĥÐ¹": 4478,
      "ĠÑģÐ²Ð¸ÑĢÐµÐ¿": 4479,
      "ĠÐķÐ»Ð¸Ñģ": 4480,
      "ĠÐ¿ÑĢÐ¸Ð±Ð»Ð¸Ð¶": 4481,
      "ĠÐļÐ¾Ð½ÐµÑĩÐ½Ð¾": 4482,
      "ĠÐŃÑĢÐ¾ÑĤ": 4483,
      "ĠÐŁÐ°ÑĢÐ½Ð°ÑģÐ°": 4484,
      "ĠÐ¿ÑĢÐ¸ÐºÐ°Ð·": 4485,
      "ĠÐŁÐ¾Ð³Ð¸Ð±": 4486,
      "ĠÑģÑĤÑĥÐ¿Ð°Ð¹": 4487,
      "ĠÐŀÐ³Ð¾Ð½ÑĮ": 4488,
      "ĠÐ´Ð¾Ð±ÑĢÐ°": 4489,
      "ĠÐĿÐµÐ±ÐµÑģ": 4490,
      "ĠÐ·Ð°Ð²Ð¸ÑģÑĤÐ»Ð¸Ð²": 4491,
      "ĠÐĶÐµÑĢÐ¶Ð°Ð²": 4492,
      "ĠÐ±Ð¾Ð³Ð°ÑĤÑĭÑĢÑı": 4493,
      "ĠÐĿÐµÑģÑĩÐ°ÑģÑĤÐ½ÑĭÐ¹": 4494,
      "ĠÐºÑĥÐ´ÑĢÑı": 4495,
      "Ð±Ð¸ÑīÐµ": 4496,
      "ĠÐ¡ÐºÐ°Ð¶Ð¸ÑĤÐµ": 4497,
      "ĠÐ¡Ð¿Ð¾ÐºÐ¾Ð¹Ð½Ð¾": 4498,
      "ĠÐ²Ð¾ÑĢÐ¾Ð½Ð¾Ð³Ð¾": 4499,
      "ĠÑģÐ¾Ð´ÑĢÐ¾Ð³": 4500,
      "ĠÐ²Ð½ÑĥÑĪ": 4501,
      "ĠÐĴÐ»Ð°Ð´Ñĭ": 4502,
      "ĠÐ·Ð°Ð±Ð»ÑĥÐ¶Ð´ÐµÐ½ÑĮÑı": 4503,
      "ĠÐ¾ÑģÐ»ÐµÐ¿": 4504,
      "Ð»Ð¾Ð½Ð¸Ð²": 4505,
      "ÑĢÐ·Ð±": 4506,
      "ĠÐĴÐ½ÐµÐ¼Ð»Ð¸": 4507,
      "ĠÐ¢Ð¸ÑħÐ¾": 4508,
      "ĠÐ²ÐµÑĢÑĪÐ¸Ð½Ñĭ": 4509,
      "ĠÐļÐ¾ÑĢÐ°Ð±ÐµÐ»ÑĮÑīÐ¸": 4510,
      "ĠÑĤÐ¾ÑĢÐ¾Ð¿": 4511,
      "ĠÑĨÐµÑĢÐºÐ²Ð¸": 4512,
      "ĠÐĴÐ¼Ð¸Ð³": 4513,
      "ĠÐ¾Ð¼ÑĢÐ°Ñĩ": 4514,
      "ĠÑĨÐµÑĢÐºÐ¾Ð²ÑĮ": 4515,
      "ÑĢÐ¸ÑĩÐ°Ð»": 4516,
      "ĠÐ²Ð¾ÑģÐºÑĢÐµÑģ": 4517,
      "ĠÐŁÐ°Ð²Ð»Ð¸ÑħÐ°": 4518,
      "ĠÐ¼ÐµÑīÐ°Ð½Ð¸Ð½": 4519,
      "ĠÐŁÐµÐ³Ð°Ñģ": 4520,
      "ĠMaglanovich": 4521,
      "ĠÐļÐ¾ÑĢÐ°Ð±ÐµÐ»ÑĮÑīÐ¸ÐºÐ¸": 4522,
      ".]": 4523,
      "av": 4524,
      "aÃ": 4525,
      "gl": 4526,
      "nier": 4527,
      "st": 4528,
      "sse": 4529,
      "Ã¢": 4530,
      "Ã¹": 4531,
      "ÐŃ": 4532,
      "ĠB": 4533,
      "Ġte": 4534,
      "Ð°Ñī": 4535,
      "Ð¸Ð³ÑĢ": 4536,
      "Ð½ÐµÐ»": 4537,
      "Ð½ÑĮÑİ": 4538,
      "Ð½ÑĢÐ·Ð±": 4539,
      "ÑģÐºÐ¸": 4540,
      "Ð»ÑİÐ±": 4541,
      "Ð»Ð°ÑģÑĮ": 4542,
      "ÑĥÐ½Ñĭ": 4543,
      "ÑĥÐ»Ð¸": 4544,
      "ÑĥÐµÑĪÑĮ": 4545,
      "ĠÑģÐ³": 4546,
      "ĠÑģÐ¾ÑĩÐµÑĤ": 4547,
      "ĠÑģÐ¾Ð¼Ð½": 4548,
      "ĠÐ²Ð°ÑĢ": 4549,
      "ĠÐ²Ð¸Ñħ": 4550,
      "ĠÐ²ÐµÑĪ": 4551,
      "ĠÐ²Ð¸Ð½Ð¾Ð¼": 4552,
      "ĠÐ²Ð½Ð¸Ð·": 4553,
      "ĠÐ²ÐµÐ»ÑĮÐ¼Ð¾Ð¶": 4554,
      "ĠÐ¿Ð¸ÑĤ": 4555,
      "Ð²Ð¾Ð½": 4556,
      "ÐºÐ¸Ð½": 4557,
      "ÑħÐ¾Ð¶Ñĥ": 4558,
      "ĠÐ¼ÑĥÐº": 4559,
      "ÐµÐ½Ð½Ñĥ": 4560,
      "ÐµÐ½ÑĨÐ°": 4561,
      "Ð¼Ðµ": 4562,
      "Ð¼ÐµÐ»": 4563,
      "ÑĪÐ¸Ð¼": 4564,
      "ÑĪÐ¸Ð±": 4565,
      "ÐµÑĤÐ°": 4566,
      "ĠÐ´Ð°Ð»Ð¸": 4567,
      "ĠÐ±ÑĮÐµÑĤÑģÑı": 4568,
      "Ð¾Ð»Ñĩ": 4569,
      "Ð¾Ð²Ð¸Ñĩ": 4570,
      "ĠÐ¸Ð½ÑĭÑħ": 4571,
      "ĠÐ¸Ð´Ðµ": 4572,
      "ĠÐºÐ¸Ð²": 4573,
      "ĠÐºÐ°Ð±": 4574,
      "ĠÐºÐ¾Ð»Ð¿": 4575,
      "ĠÐºÐ½ÑıÐ·": 4576,
      "ĠÐºÐ°ÑĦ": 4577,
      "ĠÐºÐ¸Ð½Ð¶Ð°Ð»": 4578,
      "ĠÐĺÑģÑĤ": 4579,
      "Ð¾ÑĢÐ¾Ðº": 4580,
      "Ð¾ÑĢÐ¾Ñħ": 4581,
      "ĠÐ»Ð¸Ð»": 4582,
      "ĠÐ³Ð»Ð°Ð´": 4583,
      "ĠÐ³ÑĥÑģÐ°ÑĢ": 4584,
      "ĠÐĴÐ±": 4585,
      "ĠÐĴÐµÐ»Ð¸": 4586,
      "ĠÐĴÑĭÑĪ": 4587,
      "ĠÐĴÐ½Ð¾Ð²ÑĮ": 4588,
      "ĠÐĴÐ¸Ð½Ð¾Ð¼": 4589,
      "ĠÐ·Ð¼": 4590,
      "ĠÐ·Ð½Ð°Ñı": 4591,
      "ĠÐĿÐµÑĢ": 4592,
      "ĠÐĿÐ°Ð·": 4593,
      "ĠÐĿÐµÐ»ÑĮÐ·Ñı": 4594,
      "ĠÐ¿ÑĢÐµÑĢ": 4595,
      "ĠÐ¿ÑĢÐ¸Ð»": 4596,
      "ĠÐ¿ÑĢÐ¾ÑģÐ»": 4597,
      "ĠÐ¿ÑĢÑĭÐ³": 4598,
      "Ð±Ð¾Ð²": 4599,
      "Ð±Ð¾Ð¼": 4600,
      "Ð±ÑĥÐ»": 4601,
      "ĠÑĢÐµÐ²": 4602,
      "ĠÐŁÐ¾ÑģÑĤ": 4603,
      "ĠÐŁÑĭÐ»": 4604,
      "Ð¾Ð³Ð»Ð°Ð²": 4605,
      "ĠÐ¡ÑĭÐ½": 4606,
      "ĠÐ¡ÐµÐ³Ð¾Ð´Ð½Ñı": 4607,
      "Ð°Ð²Ð°Ð»": 4608,
      "Ð°Ð²ÐµÑĨ": 4609,
      "ÐµÐ¼Ð¾Ð½": 4610,
      "Ð°ÑĤÑĥ": 4611,
      "Ð°ÑĤÐ¾Ðº": 4612,
      "Ð½Ð¸ÑģÑĤ": 4613,
      "Ð½Ð¸ÑĨÑĥ": 4614,
      "Ð½Ð¾Ñĩ": 4615,
      "ÐµÑģÑĥ": 4616,
      "ÐµÑģÐºÐ¸Ðµ": 4617,
      "Ð¿Ð¾Ð´": 4618,
      "Ð°ÐºÐ°Ð»": 4619,
      "ĠÑĥÑĩÐµÐ½": 4620,
      "Ð°Ð½Ð¾Ð¼": 4621,
      "Ð°Ð½Ð½ÑĭÐµ": 4622,
      "Ð°Ð½ÑĮÑİ": 4623,
      "Ð°Ð½Ð½ÑĭÐ¼": 4624,
      "ĠÐļÐ°Ð·": 4625,
      "ĠÑģÑĤÐ°Ðº": 4626,
      "ĠÑģÑĤÐµÐ·": 4627,
      "Ð¾Ð½ÑıÑĤ": 4628,
      "Ð¾Ð½ÑıÐµÑĤ": 4629,
      "ĠÐ¢Ð°ÑĢ": 4630,
      "ĠÐ¢Ð¾Ñģ": 4631,
      "ĠÐ¢Ð¾Ð²Ð°ÑĢÐ¸Ñī": 4632,
      "ĠÐŀÐ½Ð¾": 4633,
      "ĠÐŀÐ²Ð¸Ð´": 4634,
      "ĠÑĩÑĤ": 4635,
      "ĠÑĩÐµÑĢÐ´": 4636,
      "ĠÐ¶ÑĢ": 4637,
      "ĠÐ¶Ð¸ÑĢ": 4638,
      "ĠÐ¶Ð°Ð¶": 4639,
      "ÑīÑĥ": 4640,
      "ÑīÐµÐ½": 4641,
      "ÑīÐ°Ñı": 4642,
      "ÐµÑĩÐ°ÑģÐ½Ð¾": 4643,
      "ĠÐľÐ¾Ðµ": 4644,
      "ĠÐľÐµÑĢÐ¸": 4645,
      "ĠÑģÐ»ÑĥÐ³": 4646,
      "ĠÐµÐ´": 4647,
      "ĠÐµÐ·Ð´": 4648,
      "ĠÐĶÐ½Ð¸": 4649,
      "ĠÐĶÐ¾Ð±ÑĢ": 4650,
      "ĠÐĶÐ¾ÐºÑĥÑĩ": 4651,
      "Ð¾Ð·Ð³": 4652,
      "Ð»Ð¸ÑĨÐ°": 4653,
      "Ð¸Ð´Ð°": 4654,
      "Ð¸Ð´ÐµÐ½ÑĮÑı": 4655,
      "ÑıÑĤÐ¸": 4656,
      "ĠĠĠĠĠĠ": 4657,
      "Ð¾Ð¶ÐµÑĤ": 4658,
      "Ð¾Ð¶Ð´Ð°ÐµÑĤ": 4659,
      "Ð¾ÑĩÐºÐ°": 4660,
      "ĠÐ¾ÑĤÑĤ": 4661,
      "ĠÐ¾ÑĤÑģ": 4662,
      "ĠÐĵÐ¾ÑģÑĤÐ¸": 4663,
      "ĠÐĵÐµÐ»Ð¸Ðº": 4664,
      "ĠÐĹÐ°Ñħ": 4665,
      "ĠÐĹÐ¾Ð²ÐµÑĤ": 4666,
      "ĠÑħÐ¾ÑĢÐ¾Ð²": 4667,
      "ĠÑħÐ°ÑĢÐ¸ÑĤ": 4668,
      "ĠÑħÐ¸Ð¶": 4669,
      "ÐºÐ°Ñİ": 4670,
      "ĠÐºÑĢÐ°ÑĤ": 4671,
      "ĠÐĲÑĢ": 4672,
      "ĠÐĲÐ¼Ñĥ": 4673,
      "ÐµÐ»ÑĮÐ¸": 4674,
      "ĠÐŁÑĢÐ¾Ð¼": 4675,
      "ĠÐŁÑĢÐ¸ÑĢ": 4676,
      "ĠÐŁÑĢÐ¸Ð¿": 4677,
      "Ð°ÑģÑĤÑĮ": 4678,
      "ĠÐ£Ð½Ñĭ": 4679,
      "ĠÐ£Ð³": 4680,
      "ÑĭÐ»Ð¾": 4681,
      "ĠÐ¯Ð·": 4682,
      "ĠÑģÐºÑĥÐºÐ¸": 4683,
      "ĠÑģÐºÐ¾Ð»ÑĮÐ·": 4684,
      "ĠÐ²ÑģÐµÐ»ÐµÐ½Ð½Ð¾Ð¹": 4685,
      "ĠÐ¾Ð±Ð²": 4686,
      "ĠÐĽÑĥÐº": 4687,
      "ĠÐĽÐ¸ÑĨ": 4688,
      "ĠÐ»Ð¸ÑĨÐµÐ¹": 4689,
      "ĠÐ¿Ð¾Ð´Ð¾Ð±": 4690,
      "ĠÐ¿Ð¾Ð´Ð¶": 4691,
      "ÑģÑĤÐ²ÑĥÑı": 4692,
      "ÑģÑĤÐ²ÐµÐ½Ð½ÑĭÑħ": 4693,
      "ĠÑĪÐº": 4694,
      "ĠÑĤÑĢÐ¸Ð´": 4695,
      "ĠÑĤÑĢÐ¾Ð¿": 4696,
      "ĠÑĤÑĢÐµÐ·Ð²": 4697,
      "ĠÐ²ÑĭÑĪÐµÐ»": 4698,
      "ĠÐ¸Ð·Ð²": 4699,
      "ĠÐ¿Ð»Ð°Ñħ": 4700,
      "ĠÐ¿Ð»Ð¾Ñī": 4701,
      "ĠÐ¿Ð»ÐµÑīÐµÑĤ": 4702,
      "Ð°Ð»ÑĮÐ½ÑĭÑħ": 4703,
      "ĠÑģÐ¼ÑĥÑĤ": 4704,
      "ĠÑģÐ¼ÑıÑĤ": 4705,
      "ĠÑģÐ¼Ð¾Ð»Ðº": 4706,
      "ÑĥÑĢÐ³": 4707,
      "ĠÐ´ÑĢÑĥÐ³Ð¸Ðµ": 4708,
      "ĠÑĨÐ°ÑĢÐ¸ÑĨÑĥ": 4709,
      "Ð½ÑıÑı": 4710,
      "ĠÐ¡ÑĤÐ°Ð»Ð¸": 4711,
      "ĠÐ¡ÑĤÑĥÐ¿": 4712,
      "ĠÐ¿ÑĢÐ¸Ð½Ð¸Ðº": 4713,
      "Ð°ÑİÑī": 4714,
      "ĠÐ¿Ð¾ÐºÐ¾": 4715,
      "ĠÐ¿Ð¾ÐºÐ¾Ðµ": 4716,
      "ĠÐ½Ð°ÑģÐ»Ð°Ð´": 4717,
      "ĠÐ½Ð°ÑģÐ¼ÐµÑĪ": 4718,
      "ĠÐ¾Ð´Ð½Ð¸Ð¼": 4719,
      "ĠÐ´ÑĥÑĪÐµÐ²": 4720,
      "ĠÐ·Ð°Ð±ÑĥÐ´": 4721,
      "ĠÐ·Ð°Ð±ÑĭÑĤ": 4722,
      "Ð»ÑİÑĩ": 4723,
      "ÑģÑĤÑĢÐµÑĩÑĥ": 4724,
      "ĠÐ»ÑĮÐµÑĤ": 4725,
      "ĠÑģÐ²ÐµÑĤÐ»ÑĭÐ¹": 4726,
      "ĠÐ¥Ð»Ð°Ð´": 4727,
      "Ð¸ÑĪÐºÐ¸": 4728,
      "ĠÐ½Ð¾ÑĩÐµÐ¹": 4729,
      "ĠÐ°Ð»ÑĮ": 4730,
      "ĠÐºÑĢÐ°ÑģÑĭ": 4731,
      "ĠÐ±ÐµÑģÑģÐ»Ð°Ð²": 4732,
      "ĠÐ¿Ð¾ÑĢÑĦÐ¸ÑĢ": 4733,
      "ĠÑģÐ»Ð°Ð²Ð½ÑĭÐ¹": 4734,
      "ĠÐ¼ÐµÑĩÑĤÐ¾Ñİ": 4735,
      "ĠÑĥÑĤÐ¸Ñħ": 4736,
      "ĠÑĥÑĤÑĢÐ¾Ð¼": 4737,
      "ĠÑĥÑĤÑĢÐ¾": 4738,
      "ĠÐ±Ð¾Ð³Ð°Ñĩ": 4739,
      "ĠÐ½ÐµÐ±Ñĥ": 4740,
      "ĠÐ¼Ð¸ÑĢÑĤ": 4741,
      "ÐµÐ½Ð¸Ð¸": 4742,
      "ĠÐŁÐ¾Ð´ÑĢÑĥÐ³": 4743,
      "ĠÐ·Ð»Ð¾": 4744,
      "ĠÐ·Ð»Ð¸ÑĤÑģÑı": 4745,
      "Ġpo": 4746,
      "ĠÐ²ÐµÑĢÑĭ": 4747,
      "Ð»ÐµÐ½Ð½ÑĭÐµ": 4748,
      "ĠÐ»ÐµÑĤÑıÑĤ": 4749,
      "ĠÑĤÐ°ÐºÐ¾Ð¹": 4750,
      "ĠÑĤÐ°ÐºÐ¾Ð³Ð¾": 4751,
      "ĠÑĤÐ¸ÑħÐ¸Ð¼": 4752,
      "ĠÑĤÐ¸ÑħÐ¾Ñİ": 4753,
      "ĠÐ·Ð²ÐµÑĢÑĮ": 4754,
      "ĠÐ²Ð¾Ð·Ð¼": 4755,
      "ĠÐ²Ð¾Ð·ÑĢÐ°ÑģÑĤ": 4756,
      "Ð¾ÑĪÐµÐ»": 4757,
      "Ð¾Ð±ÑĢÑĭÐ¹": 4758,
      "ĠÐ¼Ð¾Ð»Ð¾Ð´ÑĭÐµ": 4759,
      "ĠÑĢÑĥÐºÐ°Ð¼Ð¸": 4760,
      "ĠÐºÐ¾Ð½ÐµÐ¹": 4761,
      "ĠÑĪÑĥÐ¼Ð¾Ð¼": 4762,
      "ĠÑĪÑĥÐ¼ÑıÑĤ": 4763,
      "ĠÑĪÑĥÐ¼Ð½ÑĭÑħ": 4764,
      "ouv": 4765,
      "ĠÐ¼Ð¾Ð³ÑĥÑĩ": 4766,
      "ĠÑĤÐ¾Ð¼Ð½Ñĭ": 4767,
      "ĠÑĤÐ¾Ð¼Ð¸Ð¼": 4768,
      "ĠÐºÑĢÐ¾Ð²ÑĮÑİ": 4769,
      "ĠÐ¿Ð¾ÑĤÐµÑĢ": 4770,
      "ĠÐ¾ÑģÑĥÐ¶Ð´": 4771,
      "ĠÐ¾ÑģÐ²ÐµÑī": 4772,
      "ĠÐ¾Ð¿ÑĢÐ°Ð²": 4773,
      "ĠÐ³ÑĢÐ¾Ð·Ð°": 4774,
      "ĠÐ³ÑĢÐ¾Ð·Ð½ÑĭÑħ": 4775,
      "ĠÐ³ÑĢÐ¾Ð·Ð½Ð¾Ð³Ð¾": 4776,
      "ĠÐ½ÐµÐ¶Ð½ÑĭÑħ": 4777,
      "ĠÐ½ÐµÐ¶Ð½ÑĭÐµ": 4778,
      "ĠÐ´ÐµÐ²Ñĥ": 4779,
      "ÑıÑīÐ¸Ðµ": 4780,
      "ÐµÑħÐ°Ð»": 4781,
      "ĠÐ¶Ð¸Ð²ÐµÑĤ": 4782,
      "ĠÐ¿Ð¾Ð²ÑĤÐ¾ÑĢ": 4783,
      "ĠÑģÐ°Ð¼Ð¾Ð¹": 4784,
      "ĠÐ¿ÑĢÐ°Ð²Ð°": 4785,
      "ĠÑĢÐ°ÑģÑĨ": 4786,
      "ĠÑĩÐµÑĢÐ½Ð¸": 4787,
      "ĠÐ½Ð°Ð¿ÑĢÐ°ÑģÐ½Ð¾": 4788,
      "ĠÐ½Ð°Ð¿ÐµÑĢÑģ": 4789,
      "ĠÐĺÐ·Ð¼ÐµÐ½": 4790,
      "ĠÐ½ÐµÐ¼Ð¾Ð¹": 4791,
      "......": 4792,
      "ĠÐŀÐ´Ð½": 4793,
      "ill": 4794,
      "ille": 4795,
      "ĠÐ¿Ð¾Ð¼Ð½Ñİ": 4796,
      "ĠÐ±Ð»Ð°Ð³Ð¾": 4797,
      "ĠÐ±Ð»Ð°Ð³Ð¾Ð´": 4798,
      "ĠÐ±Ð»Ð°Ð³Ð¾Ð¿": 4799,
      "ĠÐ±Ð»Ð°Ð³Ð¾Ð´Ð°ÑĢ": 4800,
      "ĠÐ½ÐµÑģÐµÑĤ": 4801,
      "ĠÐ»Ð¸ÑĢÐ¾Ð¹": 4802,
      "ĠÐ¿ÐµÑĩÐ°Ð»ÑĮÑģÑı": 4803,
      "Ð¡Ðº": 4804,
      "ĠÐ¿Ð¾Ð·Ð²": 4805,
      "ĠÑģÐ¼ÐµÑĢÑĤÐ½ÑĭÐ¹": 4806,
      "ĠÑģÐ¼ÐµÑĢÑĤÐ½ÑĭÑħ": 4807,
      "ĠÐ±ÐµÐ´Ð½Ð¾Ð¹": 4808,
      "ĠÐ±ÐµÐ´Ð½Ð°Ñı": 4809,
      "ĠÐ±ÑĢÐ°ÑĤÑĥ": 4810,
      "ĠÐ¿Ð¸ÑĢÐ°Ñħ": 4811,
      "ĠÐ±ÐµÑĢÐµÐ³Ð°": 4812,
      "ĠÐ±ÐµÑĢÐµÐ³Ð°Ñħ": 4813,
      "ĠÑĦÐ¸Ð»Ð¾ÑģÐ¾ÑĦ": 4814,
      "ĠÑĥÐ·Ð½Ð°": 4815,
      "ĠÑĥÐ·Ð½Ð°Ð»": 4816,
      "Ð¼Ð¾Ð»Ðº": 4817,
      "ĠÐ¡Ð¼Ðµ": 4818,
      "ĠÐ¡Ð¼Ð¾ÑĤÑĢÐ¸": 4819,
      "ĠÐ¶Ð¸Ð·Ð½Ð¸Ñİ": 4820,
      "ĠÐ¿ÑĢÐµÐ»ÐµÑģÑĤÐ¸": 4821,
      "ĠÐ½ÐµÐ´ÑĥÐ³": 4822,
      "ĠÐ¡Ð²Ð¾Ñİ": 4823,
      "ĠÐ¡Ð²ÑıÑĤ": 4824,
      "ĠÑģÐºÐ¾ÑĢÐ»ÑĥÐ¿": 4825,
      "ĠÑĤÐ°Ð¹Ð½ÑĭÐ¹": 4826,
      "ĠÑģÐºÐ°Ð·Ð°Ð»Ð¸": 4827,
      "ÐĴÐ¸Ð·": 4828,
      "ĠÑĤÐ¾Ð»Ð¿Ñĥ": 4829,
      "ĠÑĥÐ²Ð¸Ð´": 4830,
      "ĠÑģÐ»ÑĭÑĪÐ¸ÑĤÑģÑı": 4831,
      "ĠÐ³Ð»Ð°Ð²Ñĭ": 4832,
      "ĠÑĨÐ²ÐµÑĤÐµ": 4833,
      "ĠÑĨÐ²ÐµÑĤÑĭ": 4834,
      "ĠÑģÐ»Ð°Ð´Ð¾ÑģÑĤÐ½Ð¾": 4835,
      "ĠÐŁÑĢÐ¸ÑıÑĤ": 4836,
      "ĠÐ³Ð»Ð°Ð·Ð°Ñħ": 4837,
      "ĠÐ¸Ð³ÑĢÑĭ": 4838,
      "ĠÐ¸Ð³ÑĢÐ¸Ð²ÑĭÐ¹": 4839,
      "ĠÐ·Ð°Ð¼ÐµÑĩ": 4840,
      "ĠÐ²Ð¾Ð»Ð½ÐµÐ½ÑĮÐµÐ¼": 4841,
      "ĠÐ¿ÑĢÐµÐºÑĢÐ°ÑģÐ½Ð°": 4842,
      "ĠÐ¼ÑĢÐ°ÑĩÐ½Ð¾Ð¹": 4843,
      "ĠÐ¿Ð¾ÑĩÑĤ": 4844,
      "ĠÐ¿ÐµÑĢÐ²ÑĥÑİ": 4845,
      "ÑıÐ»ÑģÑı": 4846,
      "ĠÐ´ÑĢÐµÐ¼Ð»Ñİ": 4847,
      "ĠÐĹÐ°Ð±Ð²": 4848,
      "ĠÐĹÐ°Ð±ÑĥÐ´ÑĮ": 4849,
      "ĠÑĩÐµÐ»Ðµ": 4850,
      "ĠÑĩÐµÐ»Ð¾Ð¼": 4851,
      "ĠÐ´ÑĢÑĥÐ·ÑĮÑıÐ¼Ð¸": 4852,
      "ĠÐ·Ð°Ð¿Ð°Ð´": 4853,
      "ĠÐ¿ÑĢÐ¸Ð·Ð½Ð°ÑİÑģÑĮ": 4854,
      "ĠÐ³ÑĢÑĥÑģÑĤÐ½Ð¾": 4855,
      "ĠÐ¾ÑģÑĤÐ°Ð²Ð¸ÑĤÑĮ": 4856,
      "ĠÐ³Ð»ÑĥÐ±Ð¾ÐºÐ¾": 4857,
      "ĠÑĤÐ°Ð¸ÑĤÑģÑı": 4858,
      "ĠÐ´Ð²Ð¾ÑĢÑıÐ½": 4859,
      "ÐļÑĤÐ¾": 4860,
      "ĠÐ²ÐµÐ´Ð°ÐµÑĤ": 4861,
      "ĠÐ²ÑģÑĤÑĢÐµÑĩÐ°ÐµÑĤ": 4862,
      "ĠÑģÐ»ÐµÐ´Ð¾Ð²": 4863,
      "ĠÑģÑĤÑĢÐ°ÑĪÐ½ÑĭÐ¹": 4864,
      "ĠÐ¿ÑĭÐ»ÑĮ": 4865,
      "ĠÐ¼ÑĥÑĩÐµÐ½ÑĮÑı": 4866,
      "ĠÑĥÐºÐ¾ÑĢ": 4867,
      "ĠÑĨÐ°ÑĢÐµÐ²Ð½Ñĥ": 4868,
      "ĠÑĢÑĭÐ±ÐºÑĥ": 4869,
      "ĠÐ²Ð½Ð¸Ð¼Ð°ÑĤÑĮ": 4870,
      "ĠÐ²ÑĭÑģÐ¾ÑĤÑĭ": 4871,
      "ĠÐ¾ÑĤÑĢÐ°Ð´Ð°": 4872,
      "ĠÐ¾ÑĤÑĢÐ°Ð´Ð½ÑĭÐ¹": 4873,
      "ÐŀÑĤ": 4874,
      "ĠÐĴÐµÑģÐµÐ»": 4875,
      "ĠÐ½ÐµÐ·Ð½Ð°ÐºÐ¾Ð¼": 4876,
      "ĠÐ±ÐµÐ³ÑĥÑĤ": 4877,
      "ĠÐ³Ð»ÑıÐ´ÐµÐ»": 4878,
      "ĠÐ³Ð»ÑıÐ´ÑıÑĤ": 4879,
      "ĠÐ¾Ð±ÑĬÐµÑħÐ°Ð»Ð¸": 4880,
      "ĠÑħÐ¾Ð»Ð¼Ðµ": 4881,
      "ĠÑħÐ¾Ð»Ð¼Ñĭ": 4882,
      "ĠÑĤÐµÑĢÐµÐ¼": 4883,
      "ĠÐ¿ÑĢÐ¾ÑħÐ¾Ð¶": 4884,
      "ĠÐºÑĢÑĭÐ»Ð¾Ð¼": 4885,
      "ĠÐºÑĢÐ°ÑģÐ°Ð²Ð¸ÑĨÑĭ": 4886,
      "ĠÐ²Ð¿ÑĢ": 4887,
      "ĠÑģÑĭÐ½Ð¾Ð²": 4888,
      "ĠÐŀÑģÑĤÐ°Ð²ÑĮ": 4889,
      "ĠÐ±ÐµÑģÐ¿ÐµÑĩÐ½ÑĭÐ¹": 4890,
      "ĠÐ±ÐµÑģÐ¿ÐµÑĩÐ½Ð¾Ð¹": 4891,
      "ĠÐ¼ÐµÑģÑĤÐµ": 4892,
      "ign": 4893,
      "ĠÐ²ÑĢÐ°Ð³Ð¸": 4894,
      "ĠÐ²ÑĢÐ°Ð³Ð¾Ð²": 4895,
      "ĠÐĺÑģÐ¿Ð¾Ð»": 4896,
      "Ð¾Ð·Ð²ÑĥÑĩ": 4897,
      "ĠÑĥÐ¿Ð¾ÐµÐ½Ð½ÑĭÐ¹": 4898,
      "ĠÐ±Ð»Ð¸Ð·Ð¾Ðº": 4899,
      "ĠÑģÐ¸ÑıÐµÑĤ": 4900,
      "ĠÐ¼Ð°Ð»ÐµÐ½ÑĮ": 4901,
      "ĠÐºÐ°Ð·Ð½": 4902,
      "ĠÐ³Ð»ÑĥÐ¿ÑĨÐ°": 4903,
      "ĠÐ²ÐµÐ»Ð¸ÑĩÐ°Ð²": 4904,
      "ĠÐ²ÐµÐ»Ð¸ÑĩÐ°Ð²ÑĭÐ¹": 4905,
      "ÐľÑĭ": 4906,
      "ĠÐ½Ð¸ÑĩÑĤÐ¾Ð¶": 4907,
      "ĠÐŁÐµÑĤÑĥÑĪÐ¾Ðº": 4908,
      "ĠÑĥÐ³ÑĢÑİÐ¼Ð¾Ð¹": 4909,
      "ĠÑģÐºÑĥÑĩÐ½Ð¾": 4910,
      "ĠÑģÐ½ÐµÐ³Ð°": 4911,
      "ĠÐ¾ÑĤÐºÑĢÑĭÑĤ": 4912,
      "ĠÐ²Ð¾Ð¹Ð½Ñĭ": 4913,
      "ĠÐ¡Ð²Ð¾Ð¸Ñħ": 4914,
      "ĠÐ½Ð°Ð·Ð½Ð°Ñĩ": 4915,
      "ĠÐ¸ÑģÑĤÐ¸Ð½": 4916,
      "ĠÐľÐ»Ð°Ð´Ð¾Ð¹": 4917,
      "ĠÐ§ÐµÑĢÐµÐ·": 4918,
      "ĠÑģÑĤÐ°ÑĢÑĥÑħÐµ": 4919,
      "ĠÑģÑĤÑĢÐ°Ð½Ðµ": 4920,
      "che": 4921,
      "ĠÐ±Ð¾ÑıÑĢ": 4922,
      "ĠÐ±Ð¾ÑıÐ·": 4923,
      "ĠÑģÐ»Ð°Ð±ÑĭÐ¹": 4924,
      "ĠÐ·Ð¾Ð²ÑĥÑĤ": 4925,
      "ĠÑģÐºÐ°Ð¶Ñĥ": 4926,
      "ĠÐ»Ð°ÑģÐºÐ¾Ð²": 4927,
      "ĠÑĩÐ¸ÑĤÐ°ÑĤÑĮ": 4928,
      "ĠÐºÐ¾ÑĢÐ°Ð±Ð»ÑĮ": 4929,
      "ĠÐĲÐ¿Ð¾Ð»Ð»Ð¾Ð½Ð°": 4930,
      "ĠÐ´Ð¾Ð²Ð¾Ð»ÑĮÐ½Ð¾": 4931,
      "ĠÑĢÐ¸ÑĦÐ¼Ñĭ": 4932,
      "ĠÐ²ÑģÐ¿Ð¾Ð¼Ð½": 4933,
      "ĠÐłÐ°Ð´Ð¸Ð²Ð¾Ð¹": 4934,
      "Ãªte": 4935,
      "Ãªme": 4936,
      "ĠÐ¿ÑĢÐ¸Ð½ÐµÑģ": 4937,
      "ĠÐĹÐ²ÐµÐ·Ð´Ð°": 4938,
      "ĠÐ´Ð¸ÐºÐ¾Ð¹": 4939,
      "ĠÐ¿ÑĢÐ¸ÑħÐ¾Ð´Ð¸ÑĤ": 4940,
      "ĠÐŁÐµÐ²ÐµÑĨ": 4941,
      "ĠÐ¸ÑģÐ¿ÑĢÐ°Ð²": 4942,
      "ĠÐ´Ð¾ÑģÑĤÐ¾Ð¸Ð½": 4943,
      "ĠÑħÐ²Ð°ÑĤ": 4944,
      "ĠÑħÐ²Ð¾ÑģÑĤ": 4945,
      "ĠÑĪÐµÐ¿Ð¾ÑĤ": 4946,
      "Ġavec": 4947,
      "ĠÑģÐ»ÐµÐ¿Ð¾Ð¹": 4948,
      "ĠÐķÐ»Ð¸ÑĨÐ°": 4949,
      "ĠÐ´ÑĥÐ±ÑĢÐ°Ð²Ñĭ": 4950,
      "ĠÐ±Ð¾ÑĢÐ·": 4951,
      "ĠÑĢÐ°ÑĤÐ½Ð¸Ðº": 4952,
      "ĠÐŀÑģÐ³Ð°ÑĢ": 4953,
      "ĠÑħÑĢÐ°Ð±": 4954,
      "ĠÐ¸Ð·Ð³Ð½Ð°Ð½": 4955,
      "ĠÐ¿ÑĢÐ¸ÑģÑĤÐ°Ð½Ð¸": 4956,
      "ĠÐ°ÑĢÐ°Ð¿": 4957,
      "ĠÐ²Ð¾ÑģÐ¿Ð¾Ð¼Ð¸Ð½Ð°Ð½ÑĮÐµ": 4958,
      "ĠÐļÐ¾Ð»Ð¸": 4959,
      "ĠÑĤÐµÐ¼Ð½Ð¾ÑĤÐµ": 4960,
      "ĠÐŁÐ°ÑģÑĤÑĥÑĪÐºÐ°": 4961,
      "ĠÐĳÑĥÐ´ÑĤÐ¾": 4962,
      "Ð»Ð°Ð³Ð¾Ð´Ð°ÑĢ": 4963,
      "ĠÐŁÐ°Ð²ÐµÐ»": 4964,
      "ĠÐĳÐµÐ»ÐºÐ°": 4965,
      "ĠÐ¿ÑĢÐ¸Ð³Ð¾Ð²Ð¾ÑĢ": 4966,
      "ĠÐ¿Ð¾Ð³Ð¸Ð±ÐµÐ»ÑĮ": 4967,
      "ĠÐĿÐ°Ð²ÐµÐº": 4968,
      "ĠÐŁÐ¾ÑģÐ»ÐµÐ´Ð½Ð¸Ð¹": 4969,
      "ĠÐºÑĢÐ¸ÑĩÐ¸ÑĤ": 4970,
      "ÑĭÑĢÑĮ": 4971,
      "ĠÐĵÐ»ÑıÐ´Ð¸ÑĤ": 4972,
      "ĠÑĤÑĢÐµÐ¿ÐµÑīÐµÑĤ": 4973,
      "ĠÐ»Ð°Ð²ÑĢÐ°Ð¼Ð¸": 4974,
      "Ġest": 4975,
      "ĠÑĤÐ¾ÑĩÐ½Ð¾": 4976,
      "ĠÐºÐ»Ð°Ð´Ð±Ð¸ÑīÐµ": 4977,
      "ĠÐ¶ÐµÐ»Ð°Ð½Ð¸Ð¹": 4978,
      "ĠÐŁÑĢÐ¸ÑĪÐµÐ»": 4979,
      "ĠÐ¡ÑĤÐ°Ð¼Ð±ÑĥÐ»": 4980,
      "ĠÐĿÐ°Ð´ÐµÐ¶Ð´Ñĭ": 4981,
      "ĠÐ±Ð¾Ð»ÑĮÑĪÐ¾Ð¹": 4982,
      "ĠÐ´Ð¸ÐºÐ¸Ð¹": 4983,
      "ĠÐĶÐ¾Ð²Ð¾Ð»ÑĮÐ½Ð¾": 4984,
      "ĠÐ£Ð²Ð¸Ð´ÐµÐ»": 4985,
      "ĠÐ¸ÑģÐ¿Ð¾Ð»Ð½": 4986,
      "ĠÐ²Ð²ÐµÐº": 4987,
      "ĠÑĤÐ¾ÑģÐºÐ¾Ñİ": 4988,
      "ĠÑĢÐµÐ´ÐºÐ¾": 4989,
      "ĠÐ¢Ð¾ÑģÐºÐ°ÑĢ": 4990,
      "ĠÐ£ÑģÐ»ÑĭÑĪ": 4991,
      "ĠÐĳÐµÐ·Ð¼Ð¾Ð»Ð²Ð½Ð¾": 4992,
      "ĠÐ¼Ð°Ð»ÑĮÑĩÐ¸Ðº": 4993,
      "ĠÐĴÐ°ÑĢÑĪ": 4994,
      "ĠÐ¢Ð¾Ð±Ð¾Ð¹": 4995,
      "ĠÐ¿Ð¾Ð»ÑĥÑĩÐ¸Ð»": 4996,
      "ĠÐ±ÑĥÐ»Ð°ÑĤ": 4997,
      "ĠÐ¶Ð°Ð±Ñĥ": 4998,
      "ĠÑģÐ»ÑĥÑĩÐ°Ð¹": 4999,
      "ĠÐĳÑĥÑıÐ½Ð°": 5000,
      "ĠÐ³ÑĢÑĭÐ·ÐµÑĤ": 5001,
      "ĠÐķÐºÐ°ÑĤÐµÑĢ": 5002,
      "ĠÑģÐ¾ÑİÐ·": 5003,
      "ĠÐ»Ð°Ð·ÑĥÑĢ": 5004,
      "ĠÐ¾ÑĢÐµÑĪÐºÐ¸": 5005,
      "ĠÐĲÐ¼ÑĥÑĢÐ°": 5006,
      "--": 5007,
      ".>": 5008,
      "ez": 5009,
      "mi": 5010,
      "ro": 5011,
      "rent": 5012,
      "uit": 5013,
      "Ã»": 5014,
      "ĠH": 5015,
      "ĠO": 5016,
      "Ġ**": 5017,
      "Ġou": 5018,
      "ÑĤÐ¸ÑĢ": 5019,
      "Ð¸ÐµÐ¹": 5020,
      "Ð¸Ð½Ð¾Ñİ": 5021,
      "Ð½Ð°ÑĤÑĮ": 5022,
      "Ð½ÐµÐ¼Ñĥ": 5023,
      "ÑĢÑĥÑĤ": 5024,
      "Ð»ÐµÑĪÑĮ": 5025,
      "Ð»ÑıÑĤÑĮ": 5026,
      "ÑĭÑģÐº": 5027,
      "ÑĭÐ³ÑĢ": 5028,
      "ÑıÐ½Ð¸Ð½": 5029,
      "ĠÑģÐ½Ñĭ": 5030,
      "ĠÑģÑĥÑħ": 5031,
      "ĠÑģÑħÐ¾Ð´": 5032,
      "ĠÑģÐ¾Ð¶Ð°Ð»": 5033,
      "ĠÑģÐ¾ÑģÑĤÐ°Ð²": 5034,
      "ĠÐ²ÐµÑģÑĤ": 5035,
      "ĠÐ²Ð¸Ñģ": 5036,
      "ĠÐ²Ð¿ÐµÑĩ": 5037,
      "ĠÐ²ÑħÐ¾Ð´Ð¸ÑĤ": 5038,
      "ĠÐ²ÑħÐ¾Ð´": 5039,
      "ĠÐ²ÑĮÑİÑĤ": 5040,
      "ĠÐ¿ÑĤ": 5041,
      "ĠÐ¿ÑĥÑĩ": 5042,
      "ĠÐ¿Ð°Ð»Ð¸": 5043,
      "ĠÐ¿ÐµÐ½Ð°": 5044,
      "ĠÐ¿ÐµÑĤÑĮ": 5045,
      "ĠÐ¿ÐµÐ»ÐµÐ½": 5046,
      "ĠÐ¿Ð¸Ñī": 5047,
      "ĠÐ¿Ð¾Ð»ÑĮÐ·": 5048,
      "ĠÐ¿ÑĥÑīÐµ": 5049,
      "Ð²ÐµÐ½": 5050,
      "Ð²ÑĭÐ¹": 5051,
      "Ð´Ñĭ": 5052,
      "Ð´ÐµÐ²": 5053,
      "ĠÐ½ÑĥÐ¶Ð´": 5054,
      "ÑĩÑĥÐ³": 5055,
      "ĠÐ¼ÐµÑģÑĤÐ¸": 5056,
      "ÑģÑĤÐ¸": 5057,
      "ÐµÐ½Ð¸Ðº": 5058,
      "ÐµÐ½Ð¸ÑģÑĤ": 5059,
      "Ð¼Ð¾": 5060,
      "ĠÑĤÐµÑĤ": 5061,
      "ĠÑĤÐµÐ¿": 5062,
      "ĠÑĤÑĥÐ¶": 5063,
      "ĠÐ´Ð»": 5064,
      "ĠÐ´Ð¾Ð½": 5065,
      "ĠÐ´Ð¾Ð·": 5066,
      "ĠÐ´Ð°Ð¹": 5067,
      "ĠÐ´ÐµÐ¼Ð¾Ð½": 5068,
      "ĠÐ¾ÑĪÐ¸Ð±": 5069,
      "ĠÐ±Ð°ÑĤ": 5070,
      "ĠÐ±Ð¾Ð¶Ðµ": 5071,
      "ĠÐ±ÑĥÐ½ÑĤ": 5072,
      "Ð¾Ð»Ð¾": 5073,
      "Ð¾Ð»Ñı": 5074,
      "Ð¾Ð»Ð¾ÑĤ": 5075,
      "Ð°Ð»Ð°ÑģÑı": 5076,
      "ĠÐºÐ°Ð»": 5077,
      "ĠÐºÐ»Ð¸": 5078,
      "ĠÐºÐ»Ñı": 5079,
      "ĠÐºÐ¾Ð¿": 5080,
      "ĠÐºÐ½Ð¸Ð³": 5081,
      "ĠÐĺÐ´ÑĥÑĤ": 5082,
      "Ð¾ÑĢÑĮ": 5083,
      "Ð¾ÑĢÐ½ÑĭÐ¹": 5084,
      "Ð¾ÑĢÐ½Ð¾Ð¹": 5085,
      "Ð¾ÑĢÐµÑĩ": 5086,
      "ÐµÐ»Ð¾Ð¼": 5087,
      "ĠÐ³ÑĥÑģ": 5088,
      "ĠÐĴÑĢ": 5089,
      "ĠÐĴÐµÑĢ": 5090,
      "ĠÐĴÑģÐº": 5091,
      "ĠÐĴÐµÐ½Ñĩ": 5092,
      "ĠÐĴÐ¾Ð·Ð²": 5093,
      "Ð¾Ð´ÐµÐ¹": 5094,
      "Ð¾Ð´Ð¸ÑĪÑĮ": 5095,
      "ĠÐ·Ð½Ð¾Ð¹": 5096,
      "ĠÐ·Ð»Ð°": 5097,
      "ĠÐ·Ð»Ð°Ñĩ": 5098,
      "ĠÐĿÐ°Ð¹": 5099,
      "ĠÐ¿ÑĢÐ¾Ð¹Ð´ÐµÑĤ": 5100,
      "ĠÑĢÐ¾Ð³": 5101,
      "ĠÑĢÐ°Ð¹": 5102,
      "ĠÑĢÐ¸Ñģ": 5103,
      "ĠÑĢÑİÐ¼": 5104,
      "Ð¾Ð³Ð¾Ð²": 5105,
      "Ð¾Ð³Ð¾Ð¼": 5106,
      "ĠÐ¡ÐµÐ»": 5107,
      "ĠÐ¡Ð¾Ð±": 5108,
      "ĠÐ¡Ð¾Ð¿": 5109,
      "ĠÐ¡Ð¸Ð¶Ñĥ": 5110,
      "ĠÐ¡Ð½Ð¾Ð²Ð°": 5111,
      "Ð°Ð²Ð»ÐµÐ½Ð½ÑĭÐ¹": 5112,
      "ÐµÐ¼Ð½": 5113,
      "ÐµÐ¼ÑĮ": 5114,
      "ÐµÑģÐºÐ¸Ð¹": 5115,
      "ĠÑĥÑĢÐ¾Ðº": 5116,
      "ĠÐļÐ°Ð²": 5117,
      "ĠÐļÐ°ÑĤ": 5118,
      "ĠÐļÐ¸ÑĪ": 5119,
      "Ð¾ÑĤÐµÐ»": 5120,
      "ĠÑģÑĤÑĥÐº": 5121,
      "ĠÐ¢Ð¾ÑĢÐ³": 5122,
      "ĠÐ¢ÑĢÐµÐ²": 5123,
      "ĠÐŀÐ»ÐµÐ³": 5124,
      "ĠÑĩÐµÐ³Ð¾": 5125,
      "ĠÑĩÐµÐ»Ð¾": 5126,
      "ĠÑĩÐµÑĪÑĥ": 5127,
      "ĠÐ¶Ð´Ð°Ð»": 5128,
      "ÑīÐ¸Ð½": 5129,
      "ÐµÐ²Ð°": 5130,
      "ÐµÐ²ÐµÐ»": 5131,
      "ĠÐ½ÐµÑħ": 5132,
      "ĠÑıÑĢÐµÐ¼": 5133,
      "ÑĥÐ´Ð¾Ðº": 5134,
      "ÑĥÐ´ÑĢÐµÐ½": 5135,
      "Ð½Ð°Ñħ": 5136,
      "Ð°Ð·Ñĭ": 5137,
      "Ð°Ð·Ð°ÑĤÑĮ": 5138,
      "Ð¾ÑģÑĤÐ¾ÑĢÐ¾Ð¶": 5139,
      "ÐµÐ±Ð½ÑĭÐ¹": 5140,
      "Ð¶Ð¶": 5141,
      "Ð¶Ð°Ð»Ð¸": 5142,
      "ĠÐľÐ¸ÑĢ": 5143,
      "ĠÐľÐ¾Ñİ": 5144,
      "Ð¸ÑĢÐ°Ð¹": 5145,
      "Ð¸ÑĢÐ°Ñı": 5146,
      "ĠÐµÐ´ÐµÑĤ": 5147,
      "ĠÐĶÐµÐ»Ð¸": 5148,
      "ĠÐĶÐ²Ð°": 5149,
      "ĠÐĶÑĢÐ¾Ð¶": 5150,
      "Ð¸Ð´Ñĥ": 5151,
      "ĠÐĳÐ°Ñħ": 5152,
      "Ð¾ÑĩÐµÐ¼": 5153,
      "ĠÐ¾ÑĤÑĢÐ°Ð²": 5154,
      "ĠÐ¾ÑĤÐ²ÐµÑĢ": 5155,
      "ĠÐ¾ÑĤÑĢÐ¾Ðº": 5156,
      "ĠÐ¾ÑĤÐ´Ð¾ÑħÐ½ÑĥÑĤÑĮ": 5157,
      "ĠÐĵÑĢÑı": 5158,
      "ĠÐĵÐ»ÑıÐ¶Ñĥ": 5159,
      "ĠÐĹÐ¾Ñı": 5160,
      "ÑĥÑĪÐ°Ð»": 5161,
      "ÑĥÑĪÐºÐ¾Ð¹": 5162,
      "ÑĥÑĪÐºÐµ": 5163,
      "Ð°Ð±Ð¾ÑĤ": 5164,
      "ÐµÐºÐ»Ð¸": 5165,
      "Ð»ÑıÐ´ÐµÑĤ": 5166,
      "ĠÐŁÑĢÐ¾Ñģ": 5167,
      "ĠÐŁÑĢÐ¾ÑĤ": 5168,
      "ĠÐŁÑĢÐ¸Ð¼": 5169,
      "ĠÐŁÑĢÐ¸ÑģÑĤ": 5170,
      "ĠÐ£ÐµÐ´Ð¸Ð½": 5171,
      "ĠÐ»ÑİÐ±Ð¸Ð»Ð°": 5172,
      "ĠÐ»ÑİÐ±Ð¸Ð¼ÑĭÐ¹": 5173,
      "ĠÑĨÐµÐ»Ð¸": 5174,
      "ĠÑĨÐµÐ²Ð½Ð¸": 5175,
      "ĠÐ¯Ð½": 5176,
      "ÑģÐºÐ¾Ð¼Ñĥ": 5177,
      "ĠÐĽÐµÐ½": 5178,
      "ĠÐĽÐ¸Ð»Ñĭ": 5179,
      "ĠÐ§ÐµÐ¹": 5180,
      "ĠÐ¼Ð¾Ñħ": 5181,
      "Ð¾Ð»ÑĮÐ½ÑĭÐ¹": 5182,
      "ĠÐ»Ð¸ÑĨÐµ": 5183,
      "ĠÑĪÐ°Ð»ÑĮ": 5184,
      "ĠÑĪÐ¾ÑĢÐ¾Ñħ": 5185,
      "Ð¾Ð¿ÑĢÐ¾Ð´": 5186,
      "ĠÐłÑĥÑģ": 5187,
      "Ð°Ð³Ð¾Ð¼": 5188,
      "ĠÑĤÑĢÑĥÐ´Ð°": 5189,
      "ĠÐ²ÑĭÑĪÐµ": 5190,
      "ĠÐ²ÑĭÐ²Ð¾Ð´Ð¸ÑĤ": 5191,
      "ĠÐ¿Ð¾Ð»Ð·": 5192,
      "ĠÐ¿Ð¾Ð»ÐµÐ·": 5193,
      "ĠÐ±ÑĢÐ°ÑĤÑĮ": 5194,
      "ĠÐ±ÑĢÐ¾ÑĪ": 5195,
      "ĠÑģÐ¼Ðµ": 5196,
      "ĠÑģÐ¼ÐµÐµÑĤ": 5197,
      "Ð¸Ð·Ð½Ñĭ": 5198,
      "ÑĥÐ¶Ñĥ": 5199,
      "ĠÐºÐ°ÐºÐ°Ñı": 5200,
      "ÑĦÐµ": 5201,
      "ÑĦÐ°": 5202,
      "ĠÐ²Ð·Ð´Ñĥ": 5203,
      "ĠÐ´ÑĢÑĥÐ³Ð¾Ð¼Ñĥ": 5204,
      "ĠÐļÐ°ÐºÐ¾Ð¹": 5205,
      "ĠÐļÐ°ÐºÐ°Ñı": 5206,
      "ĠÐ¡ÑĤÑĢÐµÐ¼": 5207,
      "ĠÐ¡ÑĤÑĢÐ°ÑģÑĤ": 5208,
      "ĠÐ¼Ð¸Ð»Ð°": 5209,
      "ĠÐ¼Ð¸Ð»ÑĥÑİ": 5210,
      "ĠÐ¿ÑĢÐ¸Ð¿": 5211,
      "ĠÐ¿ÑĢÐ¸ÑģÐ»": 5212,
      "ÑĭÐ²Ð°Ñı": 5213,
      "Ð°ÑĪÑĥ": 5214,
      "ĠÐĴÑģÐµÐ¼": 5215,
      "Ð°ÑİÑīÐ¸Ð¹": 5216,
      "ĠÐ½Ð°Ð´Ð¾Ð±Ð½Ð¾": 5217,
      "ĠÐ¿ÐµÑĢÐµÐ¶": 5218,
      "ĠÐ²Ð¾Ð»Ð½Ð¾Ð¹": 5219,
      "ĠÐ·Ð°Ð±ÑĥÐ´Ñĥ": 5220,
      "Ð¸Ð»Ð¸ÑģÑı": 5221,
      "ÑģÑĤÑĢÐµÐ±": 5222,
      "ĠÑĥÐ¼Ð¾Ð¼": 5223,
      "ĠÐ¥ÑĢ": 5224,
      "ĠÐ¥Ð¾ÑĩÐµÑĤ": 5225,
      "ĠÐ²Ð¾ÐµÑĤ": 5226,
      "ĠÑģÑĤÐ°ÑĢÐ¸ÐºÐ°": 5227,
      "ĠÐ°Ð´": 5228,
      "ĠÐ°Ðº": 5229,
      "ĠÐ½Ð°ÑĪÐµÐ»": 5230,
      "ĠÐ±ÐµÑģÑģ": 5231,
      "ĠÐ±ÐµÑģÐ¿Ð»": 5232,
      "ĠÐ¿Ð¾ÑĢÑĭÐ²": 5233,
      "ĠÑģÐ»Ð°Ð²Ð½Ð¾Ð¹": 5234,
      "ĠÑģÐ»Ð°Ð²Ð¾Ñİ": 5235,
      "ĠÑģÐ»Ð°Ð²ÑıÐ½": 5236,
      "ĠÑĥÑĤÐµÑģ": 5237,
      "ĠÑĥÑĤÑĢÐ°ÑĤ": 5238,
      "ĠÑĤÐ²Ð¾ÐµÐ¼": 5239,
      "ĠÐ²Ð¸Ð´Ð½Ð°": 5240,
      "ĠÐ²Ð¸Ð´ÐµÐ½ÑĮÑı": 5241,
      "Ġser": 5242,
      "ĠÐ·Ð»ÑĭÑħ": 5243,
      "Ð¾ÑģÐ¿Ð¾Ð´": 5244,
      "Ð²Ð¾ÑĢÐ½ÑĭÐ¹": 5245,
      "Ð»ÐµÐ½Ñĭ": 5246,
      "Ð»ÐµÐ½Ð½ÑĭÐ¼": 5247,
      "ĠÑĤÐ°ÐºÐ¸Ð¼": 5248,
      "ĠÑĤÐ¸ÑħÐ¾Ð¹": 5249,
      "ĠÐ´Ð¾Ð»Ð¸Ð½": 5250,
      "ĠÐ·Ð²Ð°Ð»": 5251,
      "ĠÐ²Ð¾Ð·Ð´ÑĭÑħ": 5252,
      "ĠÐ¾ÑĩÑĥÑĤ": 5253,
      "ĠÑĥÑģÐ»Ð°Ð´": 5254,
      "ĠÐºÐ¾Ð½ÑĩÐµÐ½": 5255,
      "Ð¸ÑĤÐµÐ»ÑĮÐ½ÑĭÑħ": 5256,
      "ĠÐ¡ÐºÐ°Ð·Ð°Ð»": 5257,
      "ÑĥÐ³Ð¾Ð¹": 5258,
      "Ð¸ÑģÐ°Ð»": 5259,
      "ÑĭÐ½Ñİ": 5260,
      "ÑĭÐ½ÑĩÐµ": 5261,
      "ĠÐ¼Ð¾Ð³Ñĥ": 5262,
      "ĠÐ¿Ð¾ÑģÐ»Ð°Ð»": 5263,
      "ĠÐĸÐ¸Ð·": 5264,
      "ĠÐ¿Ð¾ÑĤÐ°": 5265,
      "ĠÐ¾ÑģÐ²ÐµÑĤ": 5266,
      "ĠÐ¾ÑģÐµÐ½Ð¸": 5267,
      "ĠÐ¾Ð¿ÐµÑĢ": 5268,
      "ĠÐ¼ÐµÑĩÑĤÐ°ÑĤÐµÐ»ÑĮ": 5269,
      "ĠÐ´ÐµÐ²Ð¸ÑĨÑĥ": 5270,
      "ĠÐ¢Ð°ÐºÐ¾Ð²": 5271,
      "ĠÐ¶Ð¸Ð²ÑĥÑĤ": 5272,
      "ĠÐ¶Ð¸Ð²ÑĭÐµ": 5273,
      "ĠÐ¿Ð¾Ð²ÐµÑģ": 5274,
      "Ġmo": 5275,
      "ĠÑģÐ°Ð¼Ð¾Ð²Ð»Ð°ÑģÑĤ": 5276,
      "ĠÐ¿ÑĢÐ°Ð²Ð¸ÑĤ": 5277,
      "ĠÑĩÐµÑĢÐµÐ´Ð¾Ð¹": 5278,
      "ĠÐ½Ð°Ð¿Ð¾": 5279,
      "ĠÐ½ÐµÐ¼Ð¾Ñī": 5280,
      "ĠÐ¿Ð¾ÑįÑĤÑĭ": 5281,
      "ĠÐ²ÐµÑĤÑĢÐ°": 5282,
      "ĠÐ¼Ð¾Ð»ÑĩÐ°Ð½ÑĮÐµ": 5283,
      "ĠÑĤÐ¸ÑĪÐ¸Ð½Ñĥ": 5284,
      "!..Â»": 5285,
      "Ġcon": 5286,
      "Ð°ÑİÑĤÑģÑı": 5287,
      "Ġasse": 5288,
      "ÑĢÐ¸Ð³": 5289,
      "ĠÐ½ÐµÑģÐµÑĤÑģÑı": 5290,
      "ĠÐ½ÐµÑģÐºÑĢÐ¾Ð¼": 5291,
      "ĠÐ¿ÐµÑĩÐ°Ð»ÑĮÐ½ÑĭÑħ": 5292,
      "ĠÐŃÐ»": 5293,
      "ĠÐŃÐ²": 5294,
      "ette": 5295,
      "Ð¡Ð¼": 5296,
      "ÐŁÐ¾Ð¼": 5297,
      "ĠÐºÐ¾ÑĢÑĭÑĤÐ¾": 5298,
      "ĠÐ¿ÐµÑģÐ½ÑĮ": 5299,
      "Ð¾ÐºÑĢÑĭÐ»": 5300,
      "Ð¾Ð¶Ð´Ð°ÑĤÑĮ": 5301,
      "ĠÑĥÐ½ÑĭÐ½Ð¸Ðµ": 5302,
      "ĠÐ¿Ð¾ÑģÑĭÐ»": 5303,
      "ĠÐºÑĢÑĥÐ³Ð¾Ð²Ð¾Ð¹": 5304,
      "ĠÐ¡Ð¼ÐµÑĪ": 5305,
      "Ġfut": 5306,
      "ĠÐ¿ÑĢÐ¸Ð²ÑĭÐº": 5307,
      "ĠÐ¿ÑĢÐ¸Ð²ÑĭÑĩ": 5308,
      "ĠÐ¿ÑĢÐµÐ»ÐµÑģÑĤÑĮÑİ": 5309,
      "ĠÐ½ÐµÐ´ÑĢÑĥÐ³": 5310,
      "ĠÐ¡Ð»ÑĥÐ¶": 5311,
      "ĠÐ¡Ð²Ð¾Ð´Ð½Ñı": 5312,
      "ĠÑģÐºÐ¾ÑĢÐµÐµ": 5313,
      "ÑĥÑīÐ¸Ñħ": 5314,
      "ĠÑĤÐ°Ð¹Ð½Ð¾Ð¹": 5315,
      "ĠÐ¿Ð¾Ð³Ð»ÑıÐ´": 5316,
      "ÑıÐ¶ÐµÐ»": 5317,
      "ĠÐłÐ°Ð·Ð²": 5318,
      "ĠÐ²Ð¾ÑģÑĤÐ¾Ðº": 5319,
      "ĠÐ´Ð¾ÑĢÐ¾Ð¶Ðµ": 5320,
      "ĠÐºÐ¾Ð»ÐµÐ½": 5321,
      "Ð¸Ð»ÑĮÐ½ÑĭÐ¹": 5322,
      "ĠÐ²Ð¾Ð´Ð¾Ð¹": 5323,
      "ĠÐ¿Ð»Ð°Ð¼Ñı": 5324,
      "ĠÐ»ÐµÐ³ÐºÐ¾Ð¹": 5325,
      "ĠÐ»ÐµÐ³ÑĩÐµ": 5326,
      "ĠÐ·ÐµÐ¼Ð»Ñı": 5327,
      "ĠÐ·ÐµÐ¼Ð»Ñİ": 5328,
      "ĠÐ¶ÐµÐ½Ðµ": 5329,
      "ĠÐ½Ð¾Ð²Ð¾Ñģ": 5330,
      "ĠÐ¾ÐºÐ½Ð°": 5331,
      "ĠÐ¾Ð³Ð½ÐµÐ¼": 5332,
      "ĠÑĥÐ±ÐµÐ¶": 5333,
      "ĠÑĥÐ¶Ð°ÑģÐ°": 5334,
      "ĠÐ²ÑĢÐµÐ¼ÐµÐ½Ð°": 5335,
      "ĠÐ¸Ð³ÑĢÐ¸Ð²": 5336,
      "ĠÐ·Ð°Ð¼Ð¾Ðº": 5337,
      "ĠÐĿÐ°Ð¿ÑĢÐ°Ñģ": 5338,
      "ĠÐĿÐ°Ð¿Ð¾Ð»Ðµ": 5339,
      "ĠÐ²Ð¾Ð»Ð½Ð°Ð¼": 5340,
      "ĠÐ²Ð¾Ð»Ð½ÐµÐ½ÑĮÑı": 5341,
      "ĠÐ·Ð»Ð°ÑĤÐ¾": 5342,
      "ĠÐ¿Ð¾ÑĩÐµÐ¼Ñĥ": 5343,
      "ĠÑĢÐ¾Ð·Ð°Ð¼Ð¸": 5344,
      "ĠÐŁÐ¾Ð»Ñĥ": 5345,
      "ĠÐ´ÑĢÐµÐ¼ÑĥÑĩÐ¸Ð¹": 5346,
      "ĠÑģÐ¸Ð´ÐµÐ»Ð°": 5347,
      "ĠÐ´Ð¾Ð±ÑĢÐ¾Ð³Ð¾": 5348,
      "ĠÐ·Ð°ÑĤÐ¼": 5349,
      "ĠĠĠĠĠĠĠĠĠĠĠĠĠĠĠĠĠĠ": 5350,
      "ĠÐĿÐµÐ²ÐµÐ¶": 5351,
      "ĠÐ¼ÐµÐ´Ð»": 5352,
      "ĠÑģÑĤÐ¾Ð»Ð¾Ð¼": 5353,
      "ĠÐ³ÑĢÑĥÑģÑĤÐ½ÑĭÐ¹": 5354,
      "ĠÐ²ÐµÐ»Ð¸ÐºÐ¸Ð¹": 5355,
      "Ð°Ð½Ð¸Ðµ": 5356,
      "ĠÐ´Ð²Ð¾ÑĢÐµÑĨ": 5357,
      "ÐļÐ°Ðº": 5358,
      "ĠÐ²ÑģÑĤÑĢÐµÑĩÑĥ": 5359,
      "ĠÐ´Ð°Ð»ÐµÑĩÐµ": 5360,
      "ĠÐ»ÑĥÐ½Ñĭ": 5361,
      "ĠÐĵÐ¾ÑĢÐ°": 5362,
      "ĠÑģÑĤÑĢÐ°ÑĪÐ½Ð¾": 5363,
      "Ġjeu": 5364,
      "ĠÑģÐ½ÐµÐ¶": 5365,
      "ĠÐ´ÑĥÐ±ÑĢÐ¾Ð²": 5366,
      "ĠÑĨÐ°ÑĢÐµÐ²Ð¸Ñĩ": 5367,
      "Ġbien": 5368,
      "ĠÐ¿Ð¾Ð±Ð»ÐµÐ´": 5369,
      "ĠÐºÐ°Ð¼Ð½Ñı": 5370,
      "ĠÑĢÐ°Ð²ÐµÐ½": 5371,
      "ĠÑĢÐ°Ð²Ð½Ñĭ": 5372,
      "ĠÑģÐ²Ð¾Ð±Ð¾Ð´Ð½ÑĭÐ¹": 5373,
      "ĠÐ¼Ð¾Ð³Ð¸Ð»Ñĥ": 5374,
      "ĠÐ²Ð¾ÑģÑĤÐ¾ÑĢÐ³Ð°Ñħ": 5375,
      "ĠÑģÐµÐ¼ÑĮÑı": 5376,
      "ĠÐ²Ð½Ð¸Ð¼Ð°Ð»": 5377,
      "ĠÐ§ÑĤÐ¾Ð±Ñĭ": 5378,
      "ĠÐ³Ð¾Ð»Ð¾Ð²Ñĭ": 5379,
      "ĠÐ´Ð¾ÑĢÐ¾Ð³Ð¸": 5380,
      "ĠÑĩÐ¸ÑģÑĤÑĭÐ¹": 5381,
      "ÐŀÐ¹": 5382,
      "ĠÐ¸ÑģÐºÐ°Ð»": 5383,
      "ĠÐ¼Ð¾Ð»Ð²Ð¸ÑĤÑĮ": 5384,
      "ĠÑģÐ¸Ð»Ñĭ": 5385,
      "ĠÐ¾ÑģÑĤÐ°Ð½Ð¾Ð²": 5386,
      "ĠÐ¾Ð·ÐµÑĢ": 5387,
      "ĠÑĢÑĥÑģÑģÐºÐ¾Ð³Ð¾": 5388,
      "ĠÐ±ÑĢÐµÐ³Ð°Ñħ": 5389,
      "ĠÐ¾Ð±ÑĬÐµÐ¼Ð»ÐµÑĤ": 5390,
      "ĠÐľÐ¾Ð¸Ñħ": 5391,
      "ĠÐºÑĢÑĭÐ»ÑĮ": 5392,
      "ĠÐ±ÐµÐ·ÑĥÐ¼Ð½ÑĭÐ¹": 5393,
      "ĠÐºÑĢÐ°ÑģÐ°Ð²Ð¸ÑĨ": 5394,
      "ĠÐºÑĢÐ°ÑģÐ¾ÑĤÐµ": 5395,
      "ants": 5396,
      "ĠÑģÐ°Ð´Ñĥ": 5397,
      "ĠÐ·ÑĢÐµÐ»": 5398,
      "ĠÐ¡ÑĤÐ°ÑĢÑĭÐ¹": 5399,
      "ĠÐ¿ÑĥÑģÑĤÑĭÐ½Ð½Ð¾Ð¹": 5400,
      "ĠÐ¿ÑĥÑģÑĤÑĭÐ½Ð½ÑĭÑħ": 5401,
      "ĠÐ±ÑĭÑģÑĤÑĢÐ¾Ð¹": 5402,
      "ĠÐ²Ð»Ð°ÑģÑĤÐµÐ»": 5403,
      "ĠÐŀÑģÑĤÐ°Ð²Ñı": 5404,
      "ĠÐ¿ÑĢÐ¸Ð¼ÐµÑĤ": 5405,
      "ĠÑģÑĤÐ°Ð½Ð¾Ð²": 5406,
      "ĠÐĵÑĢÐ¾Ð±": 5407,
      "Ð²ÐµÑģÑĤÐ½ÑĭÐ¹": 5408,
      "ÐµÑģÑıÑĨ": 5409,
      "ĠÐ½Ð°Ð¹Ð´ÐµÑĪÑĮ": 5410,
      "ĠÑĢÐµÐºÐ¾Ñİ": 5411,
      "ĠÑĥÐ¿Ð¾ÐµÐ½ÑĮÑı": 5412,
      "ĠÑĥÐ¿Ð¾ÐµÐ½ÑĮÐ¸": 5413,
      "ĠÑģÐ¸ÑıÐ½ÑĮÐ¸": 5414,
      "ĠÐ¼Ð°Ð»ÑĭÐ¹": 5415,
      "ĠÐ¼Ð°Ð»Ð¾Ð´ÑĥÑĪ": 5416,
      "ĠÐºÐ°Ð·Ð½Ð¸": 5417,
      "ĠÐ¿ÑĢÐ¾Ð·Ð¾Ð¹": 5418,
      "ĠÐ¿ÑĢÐ¾Ð·ÑĢÐ°Ñĩ": 5419,
      "ĠÐ¼Ð¸Ð½ÑĥÑĤÑĥ": 5420,
      "ĠÐ³ÐµÑĢÐ¾Ñİ": 5421,
      "ĠÐ¿ÑĢÐ¾ÑĦ": 5422,
      "ĠÐ¿ÑĢÐ¾ÑĪÐ»Ð¸": 5423,
      "ĠÐ²Ð¾Ð·Ð²ÑĢÐ°Ñī": 5424,
      "ĠÐ½Ð°ÐºÐ»Ð¾Ð½": 5425,
      "ÑĪÐ¸ÑģÑı": 5426,
      "ĠÐ¿ÑĢÐ¸ÑĢÐ¾Ð´Ð°": 5427,
      "ĠÐļÑĢÑĭÐ»": 5428,
      "ĠÐ±Ð°ÑĢÐ¾Ð½": 5429,
      "ĠÐ¡ÑĩÐ°ÑģÑĤÐ»Ð¸Ð²ÑĭÐ¹": 5430,
      "ĠÑħÐ»ÐµÐ±": 5431,
      "ĠÑģÑĤÑĢÑĥÐ½Ñĭ": 5432,
      "ĠÐĴÐ¾ÑģÐ¿Ð¾Ð¼Ð¸Ð½": 5433,
      "ĠÐ¿ÑĢÐ¾Ð¼ÐµÐ½ÑıÐ»": 5434,
      "ĠÑıÐ·Ñĭ": 5435,
      "ĠÐ¸Ð·Ð¼ÐµÐ½Ð¸Ð»": 5436,
      "ĠÑĢÐ°Ð·Ð´Ð°Ð»ÑģÑı": 5437,
      "ĠÑģÑĤÑĢÐ°Ð´Ð°Ð½ÑĮÑı": 5438,
      "ĠÐ¤ÐµÐ±Ð°": 5439,
      "ĠÐ²ÐµÐ»Ð¸ÐºÐ¾Ð³Ð¾": 5440,
      "ĠÐ²ÑģÑıÐº": 5441,
      "ĠÐºÐ¾ÑĤÐ¾ÑĢÑĭÐ¹": 5442,
      "ÐĵÐ´Ðµ": 5443,
      "ĠÐ¶ÑĥÑĢÐ½Ð°Ð»": 5444,
      "ĠÐ½Ð°ÑĩÐµÑĢÑĤ": 5445,
      "ĠÐľÐ¾ÑģÐºÐ²Ñĭ": 5446,
      "ĠÐ½Ð°Ð³ÑĢÐ°Ð´Ð°": 5447,
      "ĠÑħÐ¾ÑĤÑıÑĤ": 5448,
      "ĠÑģÐºÑĢÑĭÐ¿": 5449,
      "ĠÑģÐºÐ°Ð¶ÐµÑĤ": 5450,
      "ĠÑģÐºÐ°Ð¶Ð¸ÑĤÐµ": 5451,
      "ÑİÑĪÐºÐ°": 5452,
      "ĠÐŁÐ¾ÑĩÑĤ": 5453,
      "Ġpro": 5454,
      "ĠÑģÐ¾Ð»Ð½ÑĨÐ°": 5455,
      "ĠÐ´Ð¾Ð²Ð¾Ð»ÑĮ": 5456,
      "ĠÑģÑĤÑĢÐ¾Ð³Ð¾Ð¹": 5457,
      "!...Â»": 5458,
      "ĠÐ¿Ð¾Ð½ÐµÑģ": 5459,
      "ĠÐŁÐ¾Ð¼Ð¸Ð»ÑĥÐ¹": 5460,
      "ĠÐ¡ÐµÑĢÐ´ÑĨÐµ": 5461,
      "ĠÑģÑĤÐ¾ÑĢÐ¾Ð½Ðµ": 5462,
      "ĠÑĩÑĥÐ¶Ð´ÑĭÐ¹": 5463,
      "ĠÐ¶ÐµÑģÑĤÐ¾Ðº": 5464,
      "Ð¸ÑĩÐµÑģÐºÐ¾Ð¹": 5465,
      "ĠÐ¿ÐµÑģÐµÐ½ÐºÐ¸": 5466,
      "ĠÐ¿ÑĢÐ¸ÑħÐ¾ÑĤ": 5467,
      "Ð°ÑĢÑĭÐ½Ñı": 5468,
      "ĠÑģÑĤÑĢÐµÐ»Ñĭ": 5469,
      "ĠÐ¸ÑģÐ¿ÑĥÐ³": 5470,
      "ĠÐŁÑĢÐ¸Ð²ÐµÑĤ": 5471,
      "ĠÐŁÑĢÐ¾ÑģÑĤÐ¸ÑĤÐµ": 5472,
      "ĠÐķÐ»ÐµÐ½Ñĭ": 5473,
      "ĠÐ¥Ð²Ð°Ð»Ð°": 5474,
      "ĠÐ·Ð»Ð¾Ð´ÐµÑı": 5475,
      "ĠÐ´Ð¾Ð»Ð¶ÐµÐ½": 5476,
      "ĠÐ²ÑģÑĤÑĢÐµÑĤÐ¸Ð»": 5477,
      "ĠÐ±ÐµÑģÑģÐ¼ÐµÑĢÑĤÐ½ÑĭÐ¹": 5478,
      "ĠÐĿÐµÐ´Ð¾Ð»Ð³Ð¾": 5479,
      "ĠÑĨÐ°ÑĢÑģÑĤÐ²ÑĥÐµÑĤ": 5480,
      "ĠÐ±ÐµÑģÐµÐ´Ñĭ": 5481,
      "ĠÑģÐ»Ð°Ð´Ð¾ÑģÑĤÑĢÐ°ÑģÑĤÑĮÑı": 5482,
      "ĠCh": 5483,
      "Ġgu": 5484,
      "ĠÑģÐµÐ²ÐµÑĢ": 5485,
      "ĠÐ¾ÐºÑĢÐ¾Ð²": 5486,
      "ĠÐ±Ð°Ð»Ð¾Ð²": 5487,
      "ĠÐ»ÑĥÐºÐ°Ð²": 5488,
      "ĠÐ»ÑĥÐºÐ°Ð²ÑĭÐ¹": 5489,
      "ĠÐ·Ð´ÑĢÐ°Ð²Ð¸Ðµ": 5490,
      "ĠÐ¤Ð°Ð²Ð½Ð°": 5491,
      "ĠÑĨÐµÐ¿ÑĮ": 5492,
      "ĠÐ¾Ð±Ð¸Ð´Ñĭ": 5493,
      "ĠÐ²ÑĢÐ°Ð¶Ð´": 5494,
      "ĠÑģÐ²ÐµÑĢÑĪ": 5495,
      "ĠÐĳÐµÐ³ÑĥÑĤ": 5496,
      "ĠÑĤÐµÐºÑĥÑĤ": 5497,
      "ĠÑĢÐ¾ÑģÐºÐ¾": 5498,
      "ĠÐ¸Ð·ÑĥÐ¼ÑĢÑĥÐ´": 5499,
      "ĠÐ²Ð¾Ð¾Ð±ÑĢÐ°Ð¶ÐµÐ½ÑĮÑı": 5500,
      "ĠÐ±Ð»Ð°Ð³Ð¾ÑĢÐ¾Ð´Ð½ÑĭÐ¹": 5501,
      "ĠÐķÐ²ÑĢÐ¾Ð¿Ð°": 5502,
      "ĠÐķÐ²ÑĢÐ¾Ð¿Ñĭ": 5503,
      "ĠÑĨÐµÐ½Ð·": 5504,
      "ÑĭÑģÐ»Ð¾Ð²": 5505,
      "ĠÐ´ÐµÐ½Ð½Ð¸ÑĨÑĭ": 5506,
      "ĠÐ½ÐµÑĩÐµÐ³Ð¾": 5507,
      "ĠÑħÐ¾Ð·ÑıÐ¹": 5508,
      "ĠÐ¡ÐºÐ°Ð¶Ñĥ": 5509,
      "Ġ->?": 5510,
      "ĠÐļÐ¸Ð¿ÑĢÐ¸Ð´Ð¾Ð¹": 5511,
      "ĠÐĶÐµÐ²Ð°": 5512,
      "ĠÐ¸Ð·Ð¼ÐµÐ½Ñı": 5513,
      "ĠÐ²Ð¾Ð·Ð´ÑĥÑħ": 5514,
      "ĠÐļÑĥÐ¿Ð¸Ð´Ð¾Ð½": 5515,
      "ĠÐĿÐ¾ÑĩÑĮÑİ": 5516,
      "ĠÐĽÑİÐ´Ð¸": 5517,
      "ĠÐ¿Ð»ÐµÐ¼ÐµÐ½Ð°": 5518,
      "mps": 5519,
      "ĠÐ¿Ð¸Ð¸ÑĤ": 5520,
      "ĠÐ±ÐµÐ¶Ð°ÑĤÑĮ": 5521,
      "ĠÐ³Ð¸Ð¼Ð½": 5522,
      "ĠÐ¿ÑĢÐµÐ²ÑĢÐ°Ñī": 5523,
      "ĠÐĵÐ¸Ð¼ÐµÐ½ÐµÐ¹": 5524,
      "ĠÐ¿Ð¾ÑĨÐµÐ»ÑĥÐ¹": 5525,
      "ĠÐ¾ÑĩÐ°ÑĢÐ¾Ð²Ð°Ð½ÑĮÐµ": 5526,
      "ĠÐ½Ð°ÑģÐ»ÐµÐ´Ð½Ð¸Ðº": 5527,
      "ĠÐ¿ÑĢÐ¾ÐºÐ°Ð·Ð½Ð¸Ðº": 5528,
      "ĠâĢĶâĢĶâĢĶâĢĶâĢĶâĢĶâĢĶ": 5529,
      "ĠÐ»Ð¾Ð±Ð·Ð°Ð½ÑĮÑı": 5530,
      "ĠÐ²Ð¾Ð¶Ð´ÑĮ": 5531,
      "ĠÐĴÑģÑĤÑĢÐµÑĩ": 5532,
      "ĠÑģÑĤÑĥÐ´ÐµÐ½ÑĤ": 5533,
      "ĠÐµÐ¶ÐµÐ»Ð¸": 5534,
      "ĠÐ²ÑĭÑĪÐ¸Ð½Ðµ": 5535,
      "ĠÑĦÐ¸Ð°Ð»": 5536,
      "ĠÐ¼ÐµÐ´Ð²ÐµÐ´Ð¸ÑħÐ°": 5537,
      "ĠÐŁÐ¾ÑģÐ¼Ð¾ÑĤÑĢÐ¸": 5538,
      "Ġex": 5539,
      "ĠoÃ¹": 5540,
      "ĠÑģÐ¾ÑħÑĢÐ°Ð½": 5541,
      "ĠÐ¿Ð¸ÑĤÐ¾Ð¼ÐµÑĨ": 5542,
      "ĠÐ¸Ð³ÑĢÐ°ÐµÑĤ": 5543,
      "ĠÑģÑĤÐ¾ÑĢÐ¾Ð½Ñĭ": 5544,
      "ĠÐ¿Ð¾Ð»Ð´Ð½ÐµÐ²": 5545,
      "ĠÐ±ÐµÑģÑģÑĤÑĭÐ´": 5546,
      "ĠÐ±ÐµÑģÑĩÑĥÐ²ÑģÑĤÐ²ÐµÐ½Ð½Ð¾Ð¹": 5547,
      "ĠÐĴÐ·Ð´ÑĭÑħÐ°ÐµÑĤ": 5548,
      "ĠÐŀÑĢÐ»Ð¾Ð²": 5549,
      "ĠÐ½ÐµÐ¾Ð¿ÑĭÑĤÐ½ÑĭÐ¹": 5550,
      "ĠÐ§ÑĥÐ´Ð½ÑĭÐ¹": 5551,
      "ĠÐĿÐ°Ð´ÐµÐ¶Ð´Ð°": 5552,
      "ÑıÐ´ÑĮÐºÐ°": 5553,
      "ĠÐ²Ð»Ð°ÑģÑĤÐ²ÑĥÐµÑĤ": 5554,
      "ĠÑģÐ¸Ð½ÐµÐµ": 5555,
      "ĠÐ¡Ð²ÐµÑĢÑĪ": 5556,
      "ÑĢÐ°Ð½ÑĨÑĥÐ·": 5557,
      "ĠÐķÐ»Ð¸ÑģÐµÐ¹": 5558,
      "ĠÐĶÐµÑĢÐ¶Ð°Ð²Ð¸Ð½": 5559,
      "ĠÐŁÐµÐ³Ð°ÑģÐ°": 5560,
      "ĠÐ¸Ð´ÐµÐ°Ð»": 5561,
      "ĠÐ¶Ð°Ð¶Ð´Ñĥ": 5562,
      "ĠÐŁÑĢÐ¾Ð¼Ñĩ": 5563,
      "ĠÐ²Ð¿ÑĢÐ¾ÑĩÐµÐ¼": 5564,
      "ĠÐ²Ð¿ÐµÑĩÐ°ÑĤ": 5565,
      "ĠÐ½ÑĥÐ¶Ð´Ñĭ": 5566,
      "Ð»ÑıÐ´ÐµÑĤÑĮ": 5567,
      "Ġassez": 5568,
      "<-": 5569,
      "].": 5570,
      "ge": 5571,
      "he": 5572,
      "mb": 5573,
      "mÃ©": 5574,
      "nÃ©": 5575,
      "ore": 5576,
      "rÃ©": 5577,
      "ure": 5578,
      "vant": 5579,
      "zla": 5580,
      "ĠZ": 5581,
      "ĠÃ©": 5582,
      "Ġent": 5583,
      "Ġ***": 5584,
      "ÐµÐµÐ¼": 5585,
      "ÐµÑĦ": 5586,
      "Ð°ÑĥÐ»": 5587,
      "ÑĤÐµÑĢ": 5588,
      "ÑĤÐ°Ð»Ð¸": 5589,
      "Ð¸ÐµÐ²": 5590,
      "Ð¸ÐºÐ¸": 5591,
      "Ð¸Ð½Ð¸Ð¹": 5592,
      "Ð½Ð¾Ð¿": 5593,
      "Ð½ÐµÑģÑĮ": 5594,
      "Ð½ÐµÐ»Ð°": 5595,
      "Ð½Ð¾ÑĢÐµÑĩ": 5596,
      "ÑĢÐ¸Ð¼": 5597,
      "ÑĢÑıÑĤ": 5598,
      "ÑĢÐµÐ½Ð½ÑĭÐ¹": 5599,
      "ÑĢÐ¸Ð»Ð°": 5600,
      "ÑĢÑĮÐ¼": 5601,
      "ÑĢÐµÐ¿ÐµÑĤ": 5602,
      "Ð»ÐµÑģ": 5603,
      "Ð»Ð°Ð¶Ð´": 5604,
      "Ð»ÐµÐ½ÑĮÐ¸": 5605,
      "Ð»Ð°Ð¼ÐµÐ½": 5606,
      "ÑĥÑıÑģÑĮ": 5607,
      "ÑĭÑı": 5608,
      "ÑĭÐ½Ð¸": 5609,
      "ÑıÐº": 5610,
      "ÑıÐ²Ñĥ": 5611,
      "ĠÑģÑĥ": 5612,
      "ĠÑģÐ¾Ð¹": 5613,
      "ĠÑģÐ·": 5614,
      "ĠÑģÐ½Ð¸": 5615,
      "ĠÑģÐ¸Ð¼": 5616,
      "ĠÑģÐ¸ÑĢ": 5617,
      "ĠÑģÐµÐº": 5618,
      "ĠÑģÐ°Ð¶": 5619,
      "ĠÑģÐ°Ð¿": 5620,
      "ĠÑģÑĢÐ°Ð·": 5621,
      "ĠÑģÑĢÐµÐ±": 5622,
      "ĠÑģÑĥÐ¶Ð´ÐµÐ½": 5623,
      "ĠÐ²ÑĮÑİ": 5624,
      "ĠÐ²ÑģÑĤÑĥÐ¿": 5625,
      "ĠÐ¿Ð°Ñģ": 5626,
      "ĠÐ¿ÑĥÐ³": 5627,
      "ĠÐ¿ÑĥÑģÐºÐ°Ð¹": 5628,
      "ĠÐ¿Ð¸Ð²Ð¾": 5629,
      "Ð²ÑĮ": 5630,
      "Ð´ÑĮ": 5631,
      "Ð´Ð¾Ð²": 5632,
      "Ð´Ð°Ð²": 5633,
      "Ð´Ð¸Ð²": 5634,
      "Ð´ÐµÑĢÐ¶": 5635,
      "ĠÐ½ÐµÐ»": 5636,
      "ĠÐ½Ð¸Ð²": 5637,
      "ĠÐ½Ð¸Ð²Ñĭ": 5638,
      "ĠÐ½ÑĭÐ½ÑĩÐµ": 5639,
      "ÐºÐ°Ðº": 5640,
      "ÐºÐ°Ð»Ð°": 5641,
      "ÐºÑĢÐ°Ñģ": 5642,
      "ÑħÐ°Ð»": 5643,
      "ĠÐ¼ÐµÑĤ": 5644,
      "ĠÐ¼Ð¾Ð´": 5645,
      "ĠÐ¼ÐµÐ½ÑĮ": 5646,
      "ĠÐ¼Ð°ÑģÑĤ": 5647,
      "ĠÐ¼Ð°Ñħ": 5648,
      "ĠÐ¼ÐµÑĢÑĤ": 5649,
      "ÐµÐ½Ð¸ÑĤ": 5650,
      "ÐµÐ½Ð¸Ñħ": 5651,
      "ÐµÐ½ÑĭÐ¹": 5652,
      "ÐµÐ½ÐµÐº": 5653,
      "Ð¼Ð°Ñħ": 5654,
      "Ð¼ÑīÐ¸Ðº": 5655,
      "ÑİÑĩ": 5656,
      "ĠÑĤÐ»": 5657,
      "ĠÑĤÐ¾Ñī": 5658,
      "ĠÑĤÐ°ÑĤÐ°ÑĢ": 5659,
      "ÑĪÑĥÑİ": 5660,
      "ÑĪÐµÐ³Ð¾": 5661,
      "ÑĪÐµÐ¼Ñĥ": 5662,
      "ÐµÑĤÑĥ": 5663,
      "Ð½ÑĭÑĩ": 5664,
      "ĠÐ´Ð°ÐµÑĤ": 5665,
      "ĠÐ´Ð°Ð½ÑĮ": 5666,
      "ĠÐ´ÐµÐ»Ð°": 5667,
      "ĠÐ´Ð½ÐµÐ¼": 5668,
      "ĠÐ´Ð¾ÑĩÑĮ": 5669,
      "ĠÐ´Ð¾ÑģÑĤÐ¸Ð³": 5670,
      "ĠÐ´Ð½ÐµÑģÑĮ": 5671,
      "ĠÐ¾Ð´Ðµ": 5672,
      "ĠÐ±ÑĭÑĤ": 5673,
      "ĠÐ±ÐµÐ¶Ð°Ð»": 5674,
      "Ð¾Ð»Ð²Ð¸Ð»": 5675,
      "Ð¾Ð²Ð°ÑĢ": 5676,
      "Ð¾Ð²Ð°Ñı": 5677,
      "Ð¾Ð²Ð°ÑĤÑĮÑģÑı": 5678,
      "ĠÐºÐ¾Ð³": 5679,
      "ĠÐºÑĥÐ²": 5680,
      "ĠÐºÐ¾Ð¿ÑĭÑĤ": 5681,
      "ĠÐºÐ¸Ð½ÑĥÐ»": 5682,
      "ÐµÑĢÐµÐ¹": 5683,
      "ÐµÑĢÐ½Ð¸Ðº": 5684,
      "Ð¾ÑĢÐ½ÑĭÐ¼": 5685,
      "ĠÐ»Ð°ÑĤ": 5686,
      "ĠÐ»ÐµÐ²": 5687,
      "ĠÐ»Ð¾Ð·": 5688,
      "ĠÐ»ÑĥÐ½": 5689,
      "ĠÐ»ÐµÑģÑĤÐ¸": 5690,
      "ĠÐ»Ð°ÑĤÑĭ": 5691,
      "ĠÐ»Ð±Ñĥ": 5692,
      "Ð¾Ð¼Ðº": 5693,
      "Ð¾Ð¼Ð¸Ð½Ð°": 5694,
      "ĠÐ³Ð¾": 5695,
      "ĠÐ³Ð°Ð´": 5696,
      "ĠÐ³ÑĢÑĥÐ±": 5697,
      "ĠÐ³ÐµÐ½Ð¸Ñı": 5698,
      "ĠÐĴÐ°Ð½": 5699,
      "ĠÐĴÐ½Ð¸Ð¼": 5700,
      "ĠÐĴÐµÑĢÑĮ": 5701,
      "ĠÐĴÐ¾Ð»Ð½": 5702,
      "ĠÐĴÐ¾ÑĢÐ¾Ð½": 5703,
      "ĠÐĴÐ¿ÐµÑĢ": 5704,
      "ÑĨÐ°Ð»": 5705,
      "ĠÐ·Ð°Ð¶": 5706,
      "ĠÐĿÐ°Ðº": 5707,
      "ĠÐĿÐ°Ñħ": 5708,
      "ĠÐ¿ÑĢÐµÐ½ÐµÑģ": 5709,
      "Ð¸Ð»Ð¸Ð¹": 5710,
      "Ð±Ðµ": 5711,
      "Ð±Ð°": 5712,
      "ĠÑĢÐ²": 5713,
      "ĠÐŁÐ°ÑĢÐ¸": 5714,
      "ĠÐŁÐ¾ÑģÑĤÐ¸Ð³": 5715,
      "ĠÐŁÐ¸ÑĪÑĥ": 5716,
      "Ð¾Ð³Ð»Ð°Ñģ": 5717,
      "ĠÐ¡Ðµ": 5718,
      "ĠÐ¡ÐµÑĢ": 5719,
      "ĠÐ¡Ð°Ð´": 5720,
      "ĠÐ¡Ð»ÐµÑĤ": 5721,
      "ĠÐ¡Ð¾Ð²ÐµÑĤ": 5722,
      "ĠÐ¡ÑĢÐ°Ð¶": 5723,
      "Ð½Ð¸Ð¸": 5724,
      "Ð½Ð¸ÑģÑĮ": 5725,
      "Ð°ÑĢÐ¸ÑħÐ°": 5726,
      "Ð°Ð´Ð¸Ð»": 5727,
      "ÐµÑģÐ»Ð°Ð²": 5728,
      "Ð°ÐºÐµ": 5729,
      "Ð°ÐºÑĢÐµ": 5730,
      "Ð³Ð´Ðµ": 5731,
      "Ð³Ð»Ð°Ð²": 5732,
      "ĠÐļÐ¾Ñģ": 5733,
      "ĠÐļÐ¾Ð½ÑĮ": 5734,
      "ĠÑģÑĤÐ°Ð»Ð¸": 5735,
      "ĠÑģÑĤÐ°Ð´Ð°": 5736,
      "Ð¾Ð½Ñĥ": 5737,
      "Ð¾Ð½Ñı": 5738,
      "ĠÐ¢ÐµÑģ": 5739,
      "ĠÐ¢ÑĢÐ¸Ð´": 5740,
      "ĠÐŀÐ¶": 5741,
      "Ð¸Ð½Ð¾Ð²": 5742,
      "Ð¸Ð½Ð½Ð¾Ð¹": 5743,
      "Ð¸Ð½ÐµÐ²": 5744,
      "ĠÑĩÐµÐ¹": 5745,
      "Ð¾ÐºÐ¸Ñħ": 5746,
      "Ð¸Ð²Ð°Ð¹": 5747,
      "Ð¸Ð²Ð°Ñı": 5748,
      "ĠÐ¶Ð¸Ð»Ð¸": 5749,
      "ĠÐ¶Ð´Ð°ÑĤÑĮ": 5750,
      "ÑīÐ°": 5751,
      "ÑīÐµÐ½Ð½ÑĭÐ¹": 5752,
      "ÑīÐµÑģÐ»Ð°Ð²": 5753,
      "ÐµÐ²ÑĭÑĪ": 5754,
      "ĠÐ½Ð°ÐµÐ¼": 5755,
      "ĠÐ½Ð°ÑĥÐº": 5756,
      "ĠÐ½Ð°ÑıÐ²Ñĥ": 5757,
      "ĠÐ½ÐµÐ¸ÑģÑĤ": 5758,
      "ĠÐ½ÐµÐ¾ÑģÑĤÐ¾ÑĢÐ¾Ð¶": 5759,
      "ÐµÑĩÐ°ÑĤ": 5760,
      "ĠÑıÐ±": 5761,
      "ĠÑıÐ½ÑĭÑĩ": 5762,
      "ÑĥÐ´Ð¸Ð»": 5763,
      "Ð¾ÑģÑĤÑĢ": 5764,
      "ÐµÐ·Ð°Ð¿": 5765,
      "ĠÑģÐ²Ð¸ÑĤ": 5766,
      "ĠÑģÐ²ÐµÑĢÐº": 5767,
      "ĠÑģÐ²Ð¾Ð´Ð½Ñı": 5768,
      "ĠÐľÑĥÐ¶": 5769,
      "ĠÐľÑĥÐ·": 5770,
      "ĠÐľÑĩÐ°ÑĤÑģÑı": 5771,
      "Ð¸Ð¼Ð°": 5772,
      "ĠÑģÐ»ÐµÑĤ": 5773,
      "Ð½ÐµÑı": 5774,
      "ĠÐµÐ»": 5775,
      "ĠÐµÐ´Ð¸Ð½ÑĭÐ¹": 5776,
      "ÐµÐ³Ð°": 5777,
      "ÐµÐ³Ð°ÐµÑĤ": 5778,
      "ĠÐĶÐ¾Ð¼": 5779,
      "ĠÐĶÐ°Ð²": 5780,
      "ÐµÐ¶Ð´Ðµ": 5781,
      "ÐµÑģÑĤÐ°": 5782,
      "ĠĠĠĠĠ": 5783,
      "ĠÐĳÑĥÑĢ": 5784,
      "Ð¾ÑĩÐºÑĥ": 5785,
      "ĠÐĵÑĢÐ¾Ð¼": 5786,
      "ĠÐĵÑĢÐ°ÑĦ": 5787,
      "ĠÐĹÐ°ÑģÑĤ": 5788,
      "ÑĥÑĪÑĥ": 5789,
      "ÑĥÑĪÐºÐ¸Ð½": 5790,
      "ĠÑħÐ°Ð»": 5791,
      "ĠÑħÑĥÐ´Ð¾": 5792,
      "ĠÑħÑĢÐ°Ð½Ð¸Ð¼": 5793,
      "ĠÐ³ÑĢÐ°Ð¼": 5794,
      "ĠÐ³ÑĢÐµÑĩ": 5795,
      "ĠÐ³ÑĢÐ°Ð¶Ð´Ð°": 5796,
      "ÐµÐºÑĥÑĤ": 5797,
      "Ð½ÑĥÐº": 5798,
      "ĠÐºÑĢÐ¾ÑĤ": 5799,
      "ĠÐĲÑĦ": 5800,
      "ĠÐŁÑĢÐ¸Ð½": 5801,
      "ĠÐŁÑĢÑıÐ¼": 5802,
      "ĠÐŁÑĢÐ¸Ð¼Ð¸": 5803,
      "Ð°Ð¹ÐºÑĥ": 5804,
      "ĠÐ£ÐºÑĢ": 5805,
      "ĠÐ£Ð¼Ð¾Ð»Ðº": 5806,
      "ĠÐ»ÑİÐ±Ð¸Ð»Ð¸": 5807,
      "ĠÐ¯Ð´": 5808,
      "ĠÐ¯Ð½ÑĭÑĪ": 5809,
      "ĠÑģÐºÐ¾Ð»ÑĮ": 5810,
      "ÑĥÑĩÐµÐ¹": 5811,
      "ÑĥÑĩÐ¸Ñħ": 5812,
      "ĠÐ¿Ð¾Ð¸ÑĤ": 5813,
      "ĠÐ¿Ð¾Ñī": 5814,
      "ĠÐ¿Ð¾ÑįÐ·Ð¸Ð¸": 5815,
      "Ð°ÑıÐ½": 5816,
      "ĠÐ¾Ð±Ð°": 5817,
      "ĠÐ¾Ð±Ð¾Ð´": 5818,
      "ĠÐ¾Ð±Ð¸ÑĤÐµÐ»Ð¸": 5819,
      "ĠÐĽÐ¾Ð¼": 5820,
      "ĠÐĽÐ°Ð´": 5821,
      "ĠÐĽÐµÐ³": 5822,
      "ĠÐĽÐ¸ÑĪ": 5823,
      "ĠÐĽÐ°ÑĦ": 5824,
      "ĠÐĽÐ¸ÑĨÐµÐ¹": 5825,
      "ĠÐ§Ð¸ÑĤ": 5826,
      "ĠÐ§Ð°ÑģÑĤ": 5827,
      "ĠÐ§ÑĮÑı": 5828,
      "ĠÐ§ÐµÐ³Ð¾": 5829,
      "ĠÐ§ÑĥÐ´Ð¾": 5830,
      "ĠÐ§Ð°ÑģÑĭ": 5831,
      "Ð´ÐµÑĨ": 5832,
      "ĠÐ»Ð¸ÑĨÐµÐ¼": 5833,
      "ĠÐ¿Ð¾Ð´ÑħÐ¾Ð´Ð¸ÑĤ": 5834,
      "ÑģÑĤÐ²ÑĥÑİ": 5835,
      "ĠÑĪÐµÑģÑĤ": 5836,
      "Ð¾Ð¿Ð¸Ð»": 5837,
      "ĠÐłÐ°Ð²": 5838,
      "ĠÐłÐ¾Ñģ": 5839,
      "ĠÐłÑĥÐºÐ¾Ð¹": 5840,
      "ĠÐłÐ°Ð½Ð¾": 5841,
      "Ð°Ð³Ð¾Ð¹": 5842,
      "ĠÑĤÑĢÐ°ÑĤ": 5843,
      "ĠÑĤÑĢÐµÑģ": 5844,
      "ĠÑĤÑĢÑĥÑģ": 5845,
      "ĠÑĤÑĢÐ°Ð²Ðµ": 5846,
      "ĠÐ²ÑĭÐ´": 5847,
      "ĠÐ²ÑĭÐ¼": 5848,
      "ĠÐ³Ð¾ÑĢÐ¾Ð¹": 5849,
      "ĠÐ¸Ð·Ð¾Ð±ÑĢÐ°Ð¶": 5850,
      "ĠÐ¸Ð·Ð½ÐµÐ¶": 5851,
      "Ð½Ð¸ÐºÑĥ": 5852,
      "ĠÑĢÐ°Ð·Ð²Ð°Ð»": 5853,
      "ĠÐ¿Ð»Ñİ": 5854,
      "ĠÐ±ÑĢÐ°Ð½Ð½ÑĭÐ¹": 5855,
      "Ð°Ð»ÑĮÑĨÐ°": 5856,
      "Ð¸Ð·Ð½Ðµ": 5857,
      "ĠÐ²Ð·Ð´ÑĭÑħ": 5858,
      "ĠÐ²Ð·ÑıÐ»Ð°": 5859,
      "ÐºÐ¾Ðµ": 5860,
      "ÐµÐ½ÑıÑģÑĮ": 5861,
      "ÑĥÑĢÐ¼Ð°Ð½": 5862,
      "ĠÐ´ÑĢÑĥÐ³Ð¸Ð¼": 5863,
      "ĠÐ´ÑĢÑĥÐ³Ð°Ñı": 5864,
      "ĠÐļÐ°ÐºÐ¾Ðµ": 5865,
      "Ð½ÑıÐ»Ð°": 5866,
      "Ð»Ð°Ð½Ð¸": 5867,
      "ĠÐ¡ÑĤÑĢÐ°": 5868,
      "ĠÑģÑĤÑĢÑĥÑı": 5869,
      "ĠÐ¿ÑĢÐ¸ÑģÑĤÑĥÐ¿": 5870,
      "ÑĥÐ±Ð»ÐµÐ½": 5871,
      "ĠÐ±ÐµÐ·Ð·": 5872,
      "ĠÐ±Ð»ÐµÑīÑĥÑĤ": 5873,
      "ÐµÑĪÐ¸Ð»": 5874,
      "ÑĭÐ²Ð°Ð»Ð°": 5875,
      "Ð»Ð¸Ð²ÑĭÑħ": 5876,
      "ÑĥÑħÐ¸": 5877,
      "ĠÐ¿ÐµÑĢÐµÐ¼": 5878,
      "ĠÐ¿ÐµÑĢÐµÑĩ": 5879,
      "ĠÐ¿Ð¾ÐºÐ¾Ð»": 5880,
      "ĠÐ¾Ð´ÐµÐ¶Ð´": 5881,
      "ĠÐ¾Ð´Ð½Ð¾Ð¼Ñĥ": 5882,
      "ĠÐ²Ð¾Ð»Ð½Ð¾Ð²": 5883,
      "ĠÐ¿ÑĢÐµÐ´ÑģÑĤ": 5884,
      "ĠÐ¿ÑĢÐµÐ´Ð°Ð²": 5885,
      "ĠÐ¿ÑĢÐµÐ´ÑĢÐ°ÑģÑģ": 5886,
      "ĠÐ·Ð°Ð±ÑĭÐ»": 5887,
      "ĠÐ·Ð°Ð±ÑĭÑĤÑĭÐ¹": 5888,
      "ĠÐŀÑĤÑĩ": 5889,
      "ĠÐŀÑĤÐµÑĨ": 5890,
      "ÑģÑĤÑĢÐ¾": 5891,
      "ĠÐ»ÑĮÐµÑĤÑģÑı": 5892,
      "ĠÑģÐ²ÐµÑĤÐ»Ð¾": 5893,
      "ĠÑģÐ²ÐµÑĤÐ¸Ð»Ð¾": 5894,
      "ĠÑģÐ¿ÑĢÐ°Ð²ÐµÐ´": 5895,
      "ĠÐ²Ð¾ÐµÐ²Ð¾Ð´Ð°": 5896,
      "ĠÑģÐ²Ð¾Ð¸Ð¼Ð¸": 5897,
      "ĠÐ½Ð¾ÑĩÐ½Ð¾Ð¼": 5898,
      "ĠÑģÑĤÐ°ÑĢÑĩÐµ": 5899,
      "ĠÐ°Ñģ": 5900,
      "ĠÐ½Ð°ÑĪÐµÐ³Ð¾": 5901,
      "ĠÐ½Ð°ÑĪÐµÐ¼Ñĥ": 5902,
      "ĠÐ±ÐµÑģÑĭ": 5903,
      "ĠÐ±ÐµÑģÐ¿Ð¾Ð»": 5904,
      "ĠÐ¿Ð¾ÑĢÑıÐ´": 5905,
      "ĠÐ¿Ð¾ÑĢÐ¾Ð³Ñĥ": 5906,
      "ĠÑĥÑĤÐµÑħ": 5907,
      "ĠÐ±Ð¾Ð³Ð°ÑĤÑĭÐ¹": 5908,
      "ĠÐ½ÐµÐ±Ð¾ÑģÐºÐ»Ð¾Ð½": 5909,
      "ĠÐ²ÐµÑģÐ½Ð¾Ð¹": 5910,
      "ĠÐ²ÐµÑģÐ½Ð°": 5911,
      "ĠÐ¼Ð¸ÑĢÐ¾Ð¼": 5912,
      "ĠÐ¼Ð¸ÑĢÐ½ÑĭÐ¹": 5913,
      "ĠÐ²Ð¸Ð´Ð¸ÑĪÑĮ": 5914,
      "ĠÐ²Ð¸Ð´ÐµÑĤÑĮ": 5915,
      "ÐµÐ½Ð¸Ñģ": 5916,
      "Ġsi": 5917,
      "ĠÐŁÐ¾Ð´Ð½ÑıÐ»": 5918,
      "ain": 5919,
      "ĠÐ·Ð»ÑĭÐµ": 5920,
      "Ġpe": 5921,
      "ĠÐ²ÐµÑĢÑħ": 5922,
      "ĠÐ²ÐµÑĢÐ¸Ð»": 5923,
      "ĠÐ²ÐµÑĢÐ½Ð¾": 5924,
      "ĠÐ²ÐµÑĢÐ½Ð¾Ð¹": 5925,
      "ĠÐ²ÐµÑĢÐ¸ÑĤÑĮ": 5926,
      "ĠÐ²ÐµÑĢÐ½ÑĭÐµ": 5927,
      "ĠÐ²ÐµÑĢÐ½Ð°Ñı": 5928,
      "ĠÐ¼Ð¾ÑĢÐ¾Ð·": 5929,
      "ĠÐ»ÐµÑĤÐ¾": 5930,
      "ĠÑĤÐ°ÐºÐ¾Ð²": 5931,
      "ĠÑĤÐ°ÐºÐ¶Ðµ": 5932,
      "ĠÑĤÐ¸ÑħÐ°Ñı": 5933,
      "Ð½Ð¸Ð¼ÑĭÐ¹": 5934,
      "ess": 5935,
      "ĠÐ¤Ð¸Ð»": 5936,
      "ĠÐ¤Ð¾ÑĢÑĤ": 5937,
      "ĠÐ½ÐµÐ²ÐµÑĢ": 5938,
      "ĠÐ½ÐµÐ²ÐµÑĢÐ½Ð¾Ð¹": 5939,
      "ĠÐ½ÐµÐ²ÐµÑĢÐ½ÑĭÐ¹": 5940,
      "ĠÑģÐ»Ð°Ð´Ð¾Ðº": 5941,
      "ĠÑģÐ»Ð°Ð´Ð¾ÑģÑĤÑĮ": 5942,
      "ĠÐ¿ÑĥÑģÑĤÑĭÐµ": 5943,
      "ĠÐ¿ÑĥÑģÑĤÐ¸Ð»Ð¸ÑģÑĮ": 5944,
      "ĠÑĤÐµÐ¼Ð½ÑĭÑħ": 5945,
      "ĠÑĢÑĥÐºÐµ": 5946,
      "ĠÑĥÑģÑĭ": 5947,
      "ĠÑĢÐ°Ð´Ð¾ÑģÑĤÑĮÑİ": 5948,
      "ĠÐ²Ð´Ð°Ð»Ð¸": 5949,
      "ĠÑİÐ½ÑĭÐµ": 5950,
      "ĠÐ¼Ð¾Ð³Ð¸Ð»Ð°": 5951,
      "ÑģÑĤÐ°Ð²ÑĮ": 5952,
      "ĠÐ¿Ð¾ÑģÐ»Ð°Ð½ÑĮÐµ": 5953,
      "ĠÐĸÐ¸Ð»": 5954,
      "ĠÐĸÑĥÑĢ": 5955,
      "Ð¶ÑĥÑģÑĮ": 5956,
      "ĠÑģÑĤÐ¸ÑħÐ¾ÑĤÐ²Ð¾ÑĢ": 5957,
      "ĠÐ¾ÑģÑĥÐ¶Ð´ÐµÐ½": 5958,
      "ĠÐ¾Ð¿ÑĭÑĤ": 5959,
      "ĠÐ¼ÐµÑĩÑĤÐ°Ð½ÑĮÐµ": 5960,
      "ĠÐ¼ÐµÑĩÑĤÐ°Ð½Ð¸Ð¹": 5961,
      "ĠÐ¿Ð¾Ð²ÐµÑĢÑĮ": 5962,
      "ĠÐ¿ÑĢÐ°Ð²ÐµÐ´": 5963,
      "ĠÐ¿ÑĢÐ°Ð²Ð´Ð°": 5964,
      "ĠÑĢÐ°ÑģÑģÐºÐ°Ð·": 5965,
      "Ġ>,": 5966,
      "ĠÐ¼Ð»Ð°Ð´ÑĭÐµ": 5967,
      "Ð¸Ð±Ð¾": 5968,
      "ÑĥÐ¹ÑĤÐµ": 5969,
      "ĠÐ´ÑĢÑĥÐ¶Ð½Ð¾": 5970,
      "ĠÐ²ÐµÑĤÑĢÑĭ": 5971,
      "ĠÐ¼Ð¾Ð¶ÐµÑĪÑĮ": 5972,
      "ĠÐŀÐ´Ð½Ð¾": 5973,
      "ĠÐ¼Ð¾Ð»ÑĩÑĥ": 5974,
      "ĠÐ±Ð»Ð°Ð³Ð¾ÑģÐºÐ»Ð¾Ð½": 5975,
      "ĠÑĥÐ¿Ð°Ð»": 5976,
      "ĠÑĥÐ¿Ð°Ð´": 5977,
      "ĠÐ¿ÐµÑĩÐ°Ð»ÑĮÐ½Ð°": 5978,
      "ÑĬÑıÑģ": 5979,
      "ĠÐŃÐ¿": 5980,
      "ĠÐŃÐ»Ð¸Ð·": 5981,
      "ĠÐ²Ð»ÐµÑĩÐµÑĤ": 5982,
      "ĠÐ¿ÐµÐ²ÑĨÑĭ": 5983,
      "ĠÐ¼ÑĥÐ·Ð°": 5984,
      "ÑĮÐ¼Ð¸": 5985,
      "ĠÐ´Ð¾Ð¼Ð¸Ðº": 5986,
      "ĠÐ±ÐµÐ»Ð°Ñı": 5987,
      "ĠÑĥÐ·ÑĢÐµÐ»": 5988,
      "ĠÐŁÑĢÐµÐ´Ð¼ÐµÑĤ": 5989,
      "ĠÑįÐ¿": 5990,
      "ĠÐ³Ð¾ÑĢÐ´Ð¾": 5991,
      "ĠÐ³Ð¾ÑĢÐ´Ð¾Ð¹": 5992,
      "ĠÐ³Ð¾ÑĢÐ´ÐµÐ»": 5993,
      "ĠÐ³Ð¾ÑĢÐ´Ð¾Ñİ": 5994,
      "ĠÐ¿Ð¾ÑģÐ¾Ñħ": 5995,
      "ĠÐ¿Ð¾ÑģÐ²ÑıÑĤ": 5996,
      "ĠÐ¡Ð¼ÑĥÑĤ": 5997,
      "ÐĿÐ°": 5998,
      "ÐĿÐµÐ²": 5999,
      "ÑĥÐ½Ð´": 6000,
      "ĠÐ¡Ð»Ð°Ð²": 6001,
      "ĠÐ¡Ð»ÐµÐ¿": 6002,
      "ĠÐ¡Ð»Ð¾Ð²Ð½Ð¾": 6003,
      "ĠÐ¡Ð²Ð¾ÐµÑİ": 6004,
      "ĠÑģÐºÐ¾ÑĢÐµÐ¹": 6005,
      "ĠÐ²ÐµÐºÐ¾Ð²": 6006,
      "ĠÑĤÐ°Ð¹Ð½Ñĥ": 6007,
      "ĠÐ¿Ð¾Ð³ÑĢÐµÐ±": 6008,
      "ĠÐ±Ð»Ð¸Ð¶": 6009,
      "ÐĴÑĭ": 6010,
      "Ġquand": 6011,
      "ĠÐŀÐ±Ð°": 6012,
      "ĠÐ²Ð¾ÑģÐ¿ÐµÐ²": 6013,
      "ĠÐºÐ¾Ð»ÑĭÐ±": 6014,
      "ĠÐ³ÑĢÐ¾Ð¼ÐºÐ¾": 6015,
      "ĠÑħÐ»Ð°Ð´Ð½ÑĥÑİ": 6016,
      "ĠÐ³ÑĢÐ¾Ð±Ðµ": 6017,
      "ĠÐ·ÐµÐ¼Ð½Ð¾Ð¹": 6018,
      "ĠÑģÑĤÑĢÐ°ÑģÑĤÑĮ": 6019,
      "ĠÑģÑĤÑĢÐ°ÑģÑĤÐ½ÑĭÐ¹": 6020,
      "ĠÐ¶ÐµÐ»ÐµÐ·": 6021,
      "ĠÐ´Ð¸Ð²Ð¸ÑĤÑģÑı": 6022,
      "ĠÐ½Ð¾Ð²ÑĭÑħ": 6023,
      "ĠÐ½Ð¾Ð²ÑĥÑİ": 6024,
      "ĠÐ¾Ð³Ð½Ñı": 6025,
      "ĠÐ¾Ð³ÑĢÐ°Ð´": 6026,
      "ĠÑĥÐ±ÑĢ": 6027,
      "ĠÑĥÐ±Ð¸Ð»": 6028,
      "ĠÑĥÐ±Ð¸Ð¹": 6029,
      "ĠÐ´Ð°ÑĢÐ¾Ð¼": 6030,
      "ĠÐĿÐ°Ð¿ÐµÑĢÑģ": 6031,
      "ĠÐ¼ÑĢÐ°ÑĩÐ½ÑĭÐµ": 6032,
      "ĠÐ¼ÑĢÐ°ÑĩÐ½ÑĥÑİ": 6033,
      "ĠÐ²Ð¾ÑģÑģÑĤ": 6034,
      "ĠÐ·Ð»Ð°ÑĤÑĭÐµ": 6035,
      "ĠÑĩÑĥÐ´Ð½ÑĭÐ¹": 6036,
      "ĠÐ¾ÑĤÐ²Ð°Ð¶": 6037,
      "ĠÐ²ÐµÐ»ÑıÑĤ": 6038,
      "ĠÑĢÐ¾Ð·Ð°": 6039,
      "ĠÐŁÐ¾Ð»Ð½Ð¾": 6040,
      "ĠÐŁÐ¾Ð»ÑİÐ±": 6041,
      "ĠÐŁÐ¾Ð»ÐµÑĤÐµÐ»": 6042,
      "ĠÑįÑĤÐ¾ÑĤ": 6043,
      "ĠÐ´ÑĢÐµÐ¼Ð»ÑİÑĤ": 6044,
      "ĠÐ¿Ð¾ÑģÐ»ÐµÐ´Ð½ÐµÐ¹": 6045,
      "ĠÐ·Ð°ÑĤÐµÐ¹": 6046,
      "ĠÐ·Ð°ÑĤÐ²Ð¾ÑĢ": 6047,
      "ĠÑĢÐµÐ·ÐµÑĨ": 6048,
      "Ġver": 6049,
      "Ġvoi": 6050,
      "ĠÐ½Ð¾Ð³Ð¾Ð¹": 6051,
      "ĠÐ·Ð°Ð¿Ð¸Ñģ": 6052,
      "ĠÑĥÑģÑĤÐ°Ð¼": 6053,
      "ĠÑĥÑģÑĤÐ°Ñħ": 6054,
      "ĠÑģÑĤÐ¾Ð»Ð¸ÑĨÑĭ": 6055,
      "ĠÐ³ÑĢÑĥÑģÑĤÑĮ": 6056,
      "ĠÐ³ÑĢÑĥÑģÑĤÐ½Ð¾Ð¹": 6057,
      "Ð¢Ð°Ðº": 6058,
      "ĠÑĤÑĢÑĥÐ´Ð½Ð¾": 6059,
      "ĠÐ½Ð°ÑĢÐ¾Ð´Ñĥ": 6060,
      "itÃ©": 6061,
      "Ð§ÐµÐ³Ð¾": 6062,
      "ÐļÐ½Ð¸Ð³": 6063,
      "ĠÐ¼ÑĥÐ¶ÑĮÑı": 6064,
      "ĠÐ´Ð°Ð»Ðµ": 6065,
      "ĠÐ´ÑĥÑħÐ¾Ð²": 6066,
      "ĠÐ»ÑĥÐ½Ð¾Ð¹": 6067,
      "ĠÐ»ÑĥÐ½Ð¾Ñİ": 6068,
      "ĠÐ²ÐµÑģÐµÐ»Ð¸Ð¹": 6069,
      "ĠÑģÑĤÑĢÐ°ÑĪÐµÐ½": 6070,
      "ist": 6071,
      "Ġjours": 6072,
      "ĠÐ¼ÑĥÑĩÐµÐ½Ð¸Ðº": 6073,
      "ĠÑĥÐºÐ°Ð·": 6074,
      "ĠÑĥÐºÑĢÐ°ÑĪ": 6075,
      "ĠÑĥÐºÑĢÐ°Ð´ÐºÐ¾Ð¹": 6076,
      "Ġbeau": 6077,
      "ĠÐ±Ð¾Ð»ÑĤ": 6078,
      "ĠÐ±Ð¾Ð»ÐµÐ½": 6079,
      "ĠÐ±Ð¾Ð»ÐµÐµ": 6080,
      "ĠÐ¼ÑĥÐ´ÑĢÐ¾ÑģÑĤÐ¸": 6081,
      "ĠÐ¼Ð¾Ð³Ð¸Ð»Ðµ": 6082,
      "ĠÐ²Ð¾ÑģÑĤÐ¾ÑĢÐ³Ð¸": 6083,
      "ĠÐ²Ð¾ÑģÑĤÐ¾ÑĢÐ³Ð¾Ð²": 6084,
      "ĠÑģÐµÐ¼ÑĮ": 6085,
      "ĠÑģÐµÐ¼ÑĮÐ¸": 6086,
      "ĠÐ²Ð½Ð¸Ð¼Ð°Ñı": 6087,
      "ĠÐ´Ð¾ÑĢÐ¾Ð³Ð°": 6088,
      "ĠÐĶÑĥÑĪÐ¾Ð¹": 6089,
      "ÐµÑģÑĤÐ²Ðµ": 6090,
      "ĠÐ¾ÑĤÑĢÐ°Ð´Ñĥ": 6091,
      "ĠÐ¾ÑĤÑĢÐ°Ð´Ð¾Ð¹": 6092,
      "ĠÐ±ÑĢÐ°Ð½ÑĮÑİ": 6093,
      "ĠÐ¾ÑģÑĤÐ°Ð»ÑģÑı": 6094,
      "ĠÐ³Ð¾Ð½ÑĨÐ°": 6095,
      "ĠÐ·Ð°ÑģÐ½ÑĥÐ»": 6096,
      "ĠÐ·Ð°ÑģÐ½ÑĥÑĤÑĮ": 6097,
      "ĠÐłÐ°ÑģÑģÐºÐ°Ð·": 6098,
      "ĠÐ±ÑĢÐµÐ³Ðµ": 6099,
      "ĠÐ´ÑĢÑĥÐ¶Ð±Ðµ": 6100,
      "ĠÐ´ÑĢÑĥÐ¶Ð±Ð°": 6101,
      "ĠÑĤÐ¾ÑģÐºÐµ": 6102,
      "ĠÐ¿ÑĢÐ¾ÐºÐ»Ð¸Ð½": 6103,
      "ĠÑĢÑĥÑĩÑĮÐ¸": 6104,
      "ĠÐĶÑĢÑĥÐ³Ð¸Ñħ": 6105,
      "ĠÑĤÐµÑĢÐ·": 6106,
      "ĠÐ´ÑĭÑĪÐ°Ð»Ð°": 6107,
      "ĠÑıÑģÐ½Ð¾": 6108,
      "ĠÑıÑģÐ½ÑĭÐ¼": 6109,
      "ĠÐºÑĢÑĭÐ»Ð°Ñħ": 6110,
      "ĠÐºÑĢÑĭÐ»ÑĮÑı": 6111,
      "ĠÑģÐ¼Ð¸ÑĢÐµÐ½Ð½Ð¾": 6112,
      "ĠÐ±ÐµÐ·ÑĥÐ¼Ð½Ð¾Ð¹": 6113,
      "ĠÑĢÐ¾ÑīÐ¸ÑĨÐµ": 6114,
      "ĠÐŁÐ»ÑĥÑĤ": 6115,
      "ĠÐŁÐ»ÑĭÐ²ÐµÑĤ": 6116,
      "Ð½Ð¾ÑģÐ¸Ð»": 6117,
      "ĠÐ²Ð»Ð°ÑģÑĤÐ¸": 6118,
      "ĠÐ²Ð»Ð°ÑģÑĤÑĮ": 6119,
      "ÑıÐ·Ð¸": 6120,
      "ĠÐ¼ÐµÑģÑĤÐ°Ñħ": 6121,
      "ĠÐ¿ÑĢÐ¸Ð¼Ð¸ÑĢ": 6122,
      "ĠÐĵÑĢÐ¾Ð·": 6123,
      "ĠÐĺÑģÐ¿": 6124,
      "ĠÐ¿ÑĢÐ¾ÑĩÐ¸Ñħ": 6125,
      "Ð¾ÐºÐ¾ÐµÐ½": 6126,
      "ĠÐĽÐµÑĤÑıÑĤ": 6127,
      "ĠÑĥÐ´Ð°Ð»ÑĭÐµ": 6128,
      "ord": 6129,
      "Ġne": 6130,
      "ĠÑģÐ¸ÑıÐ»": 6131,
      "ĠÐ¿Ð¾Ð¿Ð°Ð»": 6132,
      "ĠÐ¼Ð½Ð¸ÑĤÑģÑı": 6133,
      "ĠÐľÐ¾Ð»ÑĩÐ¸ÑĤ": 6134,
      "ĠÐĹÐ°Ð²Ð¸ÑģÑĤ": 6135,
      "ĠÐ¼Ð¸Ð½ÑĥÑĤÐ½ÑĭÐ¹": 6136,
      "ĠÐ¿ÑĢÐ¾ÑĪÐ»Ð¾": 6137,
      "ĠÐ¿ÑĢÐ¾ÑĪÐ»ÑĭÑħ": 6138,
      "ĠÑĢÐ°Ð±Ñĭ": 6139,
      "ĠÐ½Ð°Ð´ÐµÐ¶Ð´Ð¾Ð¹": 6140,
      "ĠÑģÑĤÑĢÐ°ÑħÐ°": 6141,
      "Ġenc": 6142,
      "Ġenf": 6143,
      "ĠÑģÐµÑģÑĤÑĢÑĥ": 6144,
      "ĠÐŁÐµÑĤÑĢÐ°": 6145,
      "ĠÐŁÐµÑĤÑĢÐ¾": 6146,
      "ĠÑģÑĤÐ¾Ð½ÐµÑĤ": 6147,
      "ĠÐĳÑĢÐ°ÑĤÑĮÑı": 6148,
      "ĠÑĢÐ°Ð·Ð²ÑĢÐ°ÑĤÐ°": 6149,
      "ĠÐ±Ð»ÐµÑģÐºÐ¾Ð¼": 6150,
      "Ð°ÑĦÐ¾Ñģ": 6151,
      "ĠÐºÐ»ÑıÑĤ": 6152,
      "ĠÐºÐ»ÐµÐ²ÐµÑĤ": 6153,
      "ĠÐ¾ÑĤÐºÑĢÐ¾Ð²": 6154,
      "ĠÐ¿Ð°Ð´ÐµÑĤ": 6155,
      "ĠÐ¿ÑĢÐ¾Ð±ÑĥÐ¶Ð´ÐµÐ½": 6156,
      "ĠÑĢÐ¾Ð±ÐºÐ¾": 6157,
      "ĠÐ¡Ð²Ð¾ÐµÐ¹": 6158,
      "ĠÑģÑĤÑĢÑĥÐ¸ÑĤÑģÑı": 6159,
      "ĠÑĤÑĥÐ¼Ð°Ð½Ðµ": 6160,
      "ÑĭÑĩÐ°Ð¹": 6161,
      "ĠÑģÐ¾Ð²ÐµÑĢÑĪ": 6162,
      "ĠÐĴÐ¾ÑģÐ¿Ð¾Ð¼Ð½Ð¸": 6163,
      "ĠÑıÐ·Ð²": 6164,
      "ĠÑģÑĤÑĢÐ°Ð´Ð°Ð»": 6165,
      "ĠÐ¿ÑĢÐ¸ÑıÑĤÐµÐ»ÑĮ": 6166,
      "ĠMais": 6167,
      "ĠÐ½ÐµÐºÐ¸Ð¹": 6168,
      "ĠÐĴÐµÐ½ÐµÑĢÑĭ": 6169,
      "ĠÐ²Ð¾Ð»ÑĪÐµÐ±Ð½ÑĭÐ¹": 6170,
      "ĠÐ²Ð¾Ð»ÑĪÐµÐ±Ð½Ð¾Ð¹": 6171,
      "ĠÐ½Ð°Ð³ÑĢÐ°Ð´Ñĥ": 6172,
      "omp": 6173,
      "ĠÐ¶Ð¸ÑĤÑĮÐµ": 6174,
      "ĠÑıÐ²Ð»ÑıÐµÑĤÑģÑı": 6175,
      "ĠÐĵÐ»ÑĥÐ¿": 6176,
      "ĠÐºÐ¾ÑģÐ¾Ð¹": 6177,
      "ĠÐŁÐ¾ÑĩÐµÐ¼Ñĥ": 6178,
      "ĠÐĲÐ¿Ð¾Ð»Ð»Ð¾Ð½Ð¾Ð¼": 6179,
      "ĠÑģÑĥÐµÑĤÑĭ": 6180,
      "ĠÐ´Ð¾Ð²Ð¾Ð»ÐµÐ½": 6181,
      "ĠÑĩÐµÑĢÑĤÐ¾Ð³": 6182,
      "eurs": 6183,
      "Ãªtre": 6184,
      "ĠÐĴÐ°ÐºÑħÐ¾Ð¼": 6185,
      "ĠÑħÑĢÐ°Ð½Ð¸ÑĤÐµÐ»ÑĮ": 6186,
      "ĠÐ³ÑĢÐµÑħÐ°": 6187,
      "ĠÐ´ÑĭÐ¼Ñĥ": 6188,
      "ĠÐºÑĢÑĥÐ¶Ð¸ÑĤÑģÑı": 6189,
      "ĠÐŁÐµÐ²ÑĨÐ°": 6190,
      "ĠÑģÐ²Ð¸Ð´Ð°Ð½ÑĮÑı": 6191,
      "ĠÐ³ÑĢÐµÐ¼Ð¸ÑĤ": 6192,
      "ĠÐ¿Ð¾Ð·Ð°Ð±ÑĥÐ´Ñĥ": 6193,
      "ĠÐ±Ð»Ð¸ÑģÑĤÐ°ÐµÑĤ": 6194,
      "ĠÐ´Ð¾ÑģÑĥÐ³Ð°": 6195,
      "ÐĲÑħ": 6196,
      "ÐĹÐ°": 6197,
      "ĠÑģÐ²Ð¸ÑĢÐµÐ»ÑĮ": 6198,
      "ĠÑģÐ²Ð¸ÑĢÐµÐ»Ð¸": 6199,
      "ĠÑħÐ²Ð°Ð»Ð°": 6200,
      "ĠÑĤÑĢÐµÐ²Ð¾Ð¶Ð¸ÑĤ": 6201,
      "ĠÐ±ÐµÐ·Ð¼Ð¾Ð»Ð²Ð½Ð¾": 6202,
      "ĠÐ²ÐµÐ½ÑĩÐ°Ð½Ð½ÑĭÐ¹": 6203,
      "ĠÑģÐ¸Ð½ÐµÐ¼Ñĥ": 6204,
      "ĠÐĲÐ½Ð°ÐºÑĢÐµ": 6205,
      "ĠÑĥÑĤÐµÑĪÐµÐ½ÑĮÐµ": 6206,
      "ĠÐ²ÐµÑĤÑĢÐµÐ½ÑĭÐ¹": 6207,
      "ĠÐ´ÐµÑĢÐ·Ð¾ÑģÑĤ": 6208,
      "ĠÑģÐ»Ð°Ð´Ð¾ÑģÑĤÑĢÐ°ÑģÑĤÐ½Ð¾Ð¹": 6209,
      "ĠÑģÐ±Ð¸ÑĢ": 6210,
      "ĠÑģÐµÐ²ÐµÑĢÐ°": 6211,
      "ĠÐ¿ÐµÑīÐµÑĢÐµ": 6212,
      "ĠÐ±Ð¾ÐµÐ²": 6213,
      "ĠÐĴÐµÑĤÑĥÐ»Ð¸": 6214,
      "ĠÑĢÐµÑĪÐµÑĤ": 6215,
      "ĠÐ¾ÑĤÐºÑĥÐ¿": 6216,
      "ĠÐ³ÑĢÐµÑĪÐ½ÑĭÐ¹": 6217,
      "ĠÐ¡Ð²Ð¾Ð±Ð¾Ð´Ñĥ": 6218,
      "ĠÐ²Ð¾ÑģÐ¿Ð¾Ð¼Ð¸Ð½Ð°Ð½ÑĮÑı": 6219,
      "ĠÐºÐ°ÑĢÑĤÐ¸Ð½Ñĭ": 6220,
      "III": 6221,
      "ĠÐ²Ð¸Ð½Ð¾Ð³ÑĢÐ°Ð´": 6222,
      "ĠÐ¼Ð°ÑĤÐµÑĢÐ¸": 6223,
      "Ð¸Ð»ÑĥÐ¹ÑģÑı": 6224,
      "ĠÐļÐ¾Ð»Ð¾ÐºÐ¾Ð»ÑĮ": 6225,
      "Ð½Ð°ÑĩÐ°Ð»Ð°": 6226,
      "ĠÑģÐ²Ð¾ÐµÑİ": 6227,
      "tion": 6228,
      "ĠÐ²ÐµÑīÐ°Ð»": 6229,
      "Ð½Ð¸ÑĨÐµÑİ": 6230,
      "ĠÐļÐ»Ð¸ÑĤ": 6231,
      "ĠÐĳÐµÐ´Ð°": 6232,
      "ĠÐĳÐµÐ³Ð¸": 6233,
      "ĠÐ³ÑĢÑıÐ½ÐµÑĤ": 6234,
      "ĠĠĠĠĠĠĠĠĠĠĠĠĠĠ": 6235,
      "ĠÐ°Ð»ÑĤ": 6236,
      "ĠÐ±Ð»Ð°Ð³Ð¾ÑģÐ»Ð¾Ð²ÐµÐ½ÑĮÑı": 6237,
      "ĠÐ¡Ð¿ÐµÑĪÐ¸": 6238,
      "ĠÐ½ÐµÐ´Ð²Ð¸Ð¶Ð¸Ð¼": 6239,
      "ĠÐ½Ð°ÐºÐ°Ð·ÑĭÐ²Ð°Ð»Ð¸": 6240,
      "ĠÐ¾Ð±Ð»Ð°ÐºÐ°Ñħ": 6241,
      "ĠÐĿÐµÐ±ÑĢÐµÐ¶": 6242,
      "ĠÑĢÐ¾ÑģÐºÐ¾ÑĪ": 6243,
      "ĠÐ¢ÑĢÐµÐ¿": 6244,
      "ĠÐ²Ð¾Ð¾Ð±ÑĢÐ°Ð¶ÐµÐ½ÑĮÐµ": 6245,
      "ĠÑģÐ°Ð±Ð»Ñİ": 6246,
      "ĠÑĤÐ¾Ð»ÐºÐ¾Ð²": 6247,
      "ĠÐºÐ¸ÑģÑĤÑĮ": 6248,
      "ĠÐ¿Ð¾Ð´ÑĭÐ¼ÐµÑĤ": 6249,
      "ĠÐ±ÐµÐ·Ð²ÐµÑģÑĤÐ½Ð¾Ð¹": 6250,
      "ĠÐ¿ÑĢÐ°Ð²Ð´Ñĭ": 6251,
      "ĠÐļÑĢÐ°ÑģÐ°Ð²Ð¸ÑĨÐ°": 6252,
      "ĠÑĥÑģÐ»ÑĭÑĪÐ°Ð»": 6253,
      "Ð½Ð¾Ð¶ÐºÐ¾": 6254,
      "ĠÑģÐ¾Ð»Ð´": 6255,
      "ĠÐ²ÑģÑĤÐ°ÑĢÑĮ": 6256,
      "ĠÐ¿Ð¾ÑİÑĤ": 6257,
      "ĠÐ¿Ð¸ÑĪÐµÑĤ": 6258,
      "ĠÐ¼Ð¾Ð»ÑĮÐ±Ð¾Ð¹": 6259,
      "ĠÐ¿ÑĢÐ¸ÑĤÐ²Ð¾ÑĢ": 6260,
      "ĠÐŀÑĤÐºÑĢÐ¾Ð¹": 6261,
      "ĠÐ¼ÑĭÑģÐ»ÐµÐ¹": 6262,
      "ĠÐ½ÐµÐ²ÐµÑģÑĤÐ°": 6263,
      "ĠÐ³Ð¾ÑģÐ¿Ð¾Ð´Ð¸Ð½": 6264,
      "ĠÐ¡ÑĤÐ°Ð¼Ð°ÑĤÐ¸": 6265,
      "ĠÐ´Ð°Ð»ÐµÐºÐ¾": 6266,
      "ĠÐ±Ð¾Ð»ÑĮÑĪÐ¾Ð³Ð¾": 6267,
      "Ð£Ð²Ñĭ": 6268,
      "ĠÐ´ÐµÐ´Ð¾Ð²": 6269,
      "ĠÐ·Ð°ÑħÐ¾ÑĤÐµÐ»": 6270,
      "ÐµÑģÑģÐ¾ÑĢ": 6271,
      "ĠÐ¥Ð¾ÑĤÐµÐ»": 6272,
      "ĠÑĥÐ²ÐµÐ½ÑĩÐ°Ð½Ð½ÑĭÐ¹": 6273,
      "ĠÑģÑĥÐ¿ÑĢÑĥÐ³Ð°": 6274,
      "ĠÑĤÑıÐ³Ð¾ÑģÑĤ": 6275,
      "ĠÐ±Ð°Ð³ÑĢÑı": 6276,
      "ĠÐºÐ»Ð¸ÐºÐ°ÑĤÑĮ": 6277,
      "ĠÐŁÐ¾ÑģÐ»ÑĥÑĪÐ°Ð¹": 6278,
      "ĠÐĹÐµÐ¼Ð»Ñı": 6279,
      "ĠÐ½ÐµÐ²Ð¸Ð´Ð¸Ð¼": 6280,
      "ĠÑģÐµÑĢÐµÐ±ÑĢÑı": 6281,
      "ĠÐ¥Ð²Ð¾ÑģÑĤÐ¾Ð²": 6282,
      "ĠÐ²ÑĭÑħÐ¾Ð´Ð¸ÑĤ": 6283,
      "ĠÐºÐ»Ð¾Ð½Ð¸ÑĤ": 6284,
      "ĠÐĿÐ¸ÑĩÐµÐ³Ð¾": 6285,
      "ĠÐľÐ¾ÑĢÑĦÐµÑı": 6286,
      "ĠÐ¾Ð±Ð¼Ð°Ð½ÑĩÐ¸Ð²ÑĭÑħ": 6287,
      "ĠÑģÐ¶Ð°Ð»ÑĮ": 6288,
      "ĠÐ¼Ð¾Ð½Ð°ÑģÑĤ": 6289,
      "ĠÐ´Ð²Ð¸Ð¶ÐµÐ½ÑĮÑı": 6290,
      "ĠÐ³ÑĥÐ»ÑıÐµÑĤ": 6291,
      "endre": 6292,
      "ĠÐŃÐ»ÑĮÐ²Ð¸Ð½Ð°": 6293,
      "ĠÐ¿Ð¾ÑģÐµÐ´ÐµÐ»ÑĭÐ¹": 6294,
      "Ġquelque": 6295,
      "ĠÑĢÐ°Ð²Ð½Ð¸Ð½Ñĭ": 6296,
      "ĠÐĹÐ°Ð´ÑĥÐ¼ÑĩÐ¸Ð²Ð¾": 6297,
      "ĠÐĴÐ¾ÑĢÐ¾ÑĤÐ¸Ð»ÑģÑı": 6298,
      "ĠÑĢÐµÐ±ÐµÐ½ÐºÐ°": 6299,
      "ĠÐ¡ÑĥÐ´Ð½Ð¾": 6300,
      "ĠÐ»ÑĮÑģÑĤÐµÑĨ": 6301,
      "ĠÐ½Ð°Ð¿ÐµÐ²Ñĭ": 6302,
      "ĠÑħÑĢÑĥÑģÑĤÐ°Ð»ÑĮÐ½ÑĭÐ¹": 6303,
      "ĠÑĢÐµÑĤÐ¸Ð²ÑĭÐ¹": 6304,
      "ĠÐ¡Ð²Ð¸ÑģÑĤÐ¾Ð²": 6305,
      "ĠÐŁÑĢÐ¾ÑīÐ°Ð¹": 6306,
      "ĠÐ¥Ð¾Ð»Ð¾Ð´Ð½ÑĭÐ¹": 6307,
      "ĠÐĳÐµÑģÑģÐ¼ÐµÑĢÑĤ": 6308,
      "ĠÐ¿Ð¾ÑħÐ¼ÐµÐ»ÑĮÐµ": 6309,
      "ĠÐĽÐ¸ÑĨÐ¸Ð½Ð¸Ð¹": 6310,
      "ĠÐ±Ð»Ð°Ð³Ð¾Ð¿Ð¾Ð»": 6311,
      "ÐĴÐ¸Ð·Ð¸Ð½": 6312,
      "ĠÐĺÑģÐ¿Ð¾Ð»Ð½": 6313,
      "ĠÐķÐºÐ°ÑĤÐµÑĢÐ¸Ð½Ñĭ": 6314,
      "ĠÑģÐ¾ÑģÑĤÐ°Ð²Ð»ÑıÐµÑĤ": 6315,
      "ĠÐļÐ¸ÑĪÐ¸Ð½ÐµÐ²": 6316,
      "ĠÐĳÐ°ÑħÑĥÑģ": 6317,
      "Ð¾Ð¿ÑĢÐ¾Ð´Ð°Ð²ÐµÑĨ": 6318,
      "ĠÐ¡Ð¼ÐµÑĪÐ¾Ð½": 6319,
      "ĠÐĿÐ°Ð¿Ð¾Ð»ÐµÐ¾Ð½": 6320,
      "ĠÑģÑĥÐ¶Ð´ÐµÐ½Ð¾": 6321,
      "ĠÐ¢ÑĢÐ¸Ð´ÑĨÐ°ÑĤÑĮ": 6322,
      "ĠÐ³ÑĢÐ°Ð¶Ð´Ð°Ð½Ð¸Ð½": 6323,
      "ÐļÐ½Ð¸Ð³Ð¾Ð¿ÑĢÐ¾Ð´Ð°Ð²ÐµÑĨ": 6324,
      "!âĢĿ": 6325,
      ",]": 6326,
      ".*": 6327,
      "ay": 6328,
      "ic": 6329,
      "ire": 6330,
      "ieu": 6331,
      "mÃªme": 6332,
      "nes": 6333,
      "ot": 6334,
      "pr": 6335,
      "ta": 6336,
      "ul": 6337,
      "ve": 6338,
      "yac": 6339,
      "Ð¦": 6340,
      "ĠR": 6341,
      "ĠU": 6342,
      "ĠÃ©c": 6343,
      "Ð¾ÐµÐ¼": 6344,
      "Ð¾ÐµÐ²": 6345,
      "ÑĤÑı": 6346,
      "ÑĤÐ¾Ð¹": 6347,
      "Ð½ÐµÐ½Ð½ÑĭÐ¹": 6348,
      "ÑģÑħ": 6349,
      "ÑģÑĳ": 6350,
      "ÑĢÑĮ": 6351,
      "ÑĢÐ¸Ð½": 6352,
      "ÑĢÐ°ÑĤÑĮ": 6353,
      "ÑĢÑĭÑĤ": 6354,
      "Ð»Ð¾Ð¶": 6355,
      "Ð»Ð°Ñı": 6356,
      "Ð»ÐµÑĨ": 6357,
      "Ð»ÑĭÑĪ": 6358,
      "Ð»ÐµÐ½ÑĮÐµÐ¼": 6359,
      "Ð»ÑĭÐ»Ð°": 6360,
      "ÑĥÐ½Ð¾Ð²": 6361,
      "ÑĭÐ»Ð¸ÑģÑĮ": 6362,
      "ÑıÑĤÐ¾": 6363,
      "ĠÑģÑħ": 6364,
      "ĠÑģÑĨ": 6365,
      "ĠÑģÐ¾Ð·": 6366,
      "ĠÑģÐµÐ»Ð°": 6367,
      "ĠÑģÐµÑĤÑĮ": 6368,
      "ĠÑģÐµÐ´Ð¸Ð½": 6369,
      "ĠÑģÑĭÐ¿": 6370,
      "ĠÑģÑĢÐ¾Ðº": 6371,
      "ĠÑģÐ¾Ð¼Ðº": 6372,
      "ĠÐ²ÑĢÐ°ÑĤ": 6373,
      "ĠÐ²Ð¿Ð¾Ð»": 6374,
      "ĠÐ²ÐµÑģÑĤÐ¸": 6375,
      "ĠÐ²ÑĩÐµÑĢÐ°": 6376,
      "ĠÐ¿Ñģ": 6377,
      "ĠÐ¿ÑĮÑİ": 6378,
      "ĠÐ¿ÑĥÑħ": 6379,
      "ĠÐ¿ÐµÐ½ÑĮÐµ": 6380,
      "ĠÐ¿Ð¸ÑģÑĮ": 6381,
      "ĠÐ¿ÑĤÐ¸": 6382,
      "ĠÐ¿ÑĭÐ»Ð¸": 6383,
      "ĠÐ¿ÑĮÑİÑĤ": 6384,
      "Ð²Ðµ": 6385,
      "Ð²ÐµÐ»": 6386,
      "Ð²ÐµÐ´": 6387,
      "Ð²Ð°ÑĤÑĮ": 6388,
      "Ð²ÐµÐ»Ð°": 6389,
      "Ð´Ð¸Ð½": 6390,
      "Ð´ÑĢÑĥÐ·ÑĮÑı": 6391,
      "ĠÐ½Ñı": 6392,
      "ÐºÑĥÐ±": 6393,
      "ÑĩÐµÐ»": 6394,
      "ÑĩÐµÐ²": 6395,
      "ÑĩÑĥÑĤÑĮ": 6396,
      "ÑħÐ°": 6397,
      "ĠÐ¼Ð¾Ñĩ": 6398,
      "ĠÐ¼ÑĥÑĢ": 6399,
      "ĠÐ¼ÑĭÑĪ": 6400,
      "ĠÐ¼Ð°Ð½Ð¸": 6401,
      "ĠÐ¼ÐµÑĢÐ·": 6402,
      "ĠÐ¼Ð¾Ð´Ðµ": 6403,
      "ÑģÑĤÐ¸ÑĤÐµÐ»ÑĮ": 6404,
      "ÐµÐ½Ð¾Ð¹": 6405,
      "Ð¼Ñĭ": 6406,
      "Ð¼ÐµÐ»ÑĮ": 6407,
      "Ð¼Ð¸Ð½ÑĮ": 6408,
      "ĠÑĤÐ¾Ðº": 6409,
      "ĠÑĤÐ°Ð»Ð¸": 6410,
      "ĠÑĤÑĥÑĢ": 6411,
      "ĠÑĤÐµÐ½ÐµÐ¹": 6412,
      "ĠÑĤÐµÐ½Ð¸ÑģÑĤ": 6413,
      "ÑĪÐ°ÑĤ": 6414,
      "ÐµÑĤÐµÐ»Ð°": 6415,
      "Ð¹ÑģÑı": 6416,
      "Ð½ÑĭÑı": 6417,
      "ĠÐ´Ð½Ð¾": 6418,
      "ĠÐ´Ð°ÑģÑĤ": 6419,
      "ĠÐ´ÑıÐ´ÑĮÐºÐ°": 6420,
      "ĠÐ´Ð»Ð°Ð½Ð¸": 6421,
      "ĠÐ¾Ð³ÑĢ": 6422,
      "ĠÐ¾ÐºÐ¸Ñı": 6423,
      "ĠÐ±Ð¾Ñİ": 6424,
      "ĠÐ±ÑĮÑİ": 6425,
      "ĠÐ±ÑĮÐµÑĤ": 6426,
      "ĠÐ±ÑĭÐ²Ð°ÑĤÑĮ": 6427,
      "Ð¾Ð»Ñĥ": 6428,
      "Ð¾Ð»ÐµÑĤ": 6429,
      "Ð¾Ð»Ð¾Ð»Ð°": 6430,
      "Ð¾Ð²Ð¾": 6431,
      "Ð¾Ð²Ð°Ð»Ð¸": 6432,
      "Ð°Ð»Ðµ": 6433,
      "Ð°Ð»Ð¸Ð²": 6434,
      "ĠÐ¸Ð½Ð¾Ð¹": 6435,
      "ĠÐºÐ°Ñģ": 6436,
      "ĠÐºÑĥÑĢ": 6437,
      "ĠÐºÐ¸Ñĩ": 6438,
      "ĠÐºÐ¾ÑģÑĤÑĮ": 6439,
      "ĠÐºÐ¾Ð¼Ð½": 6440,
      "ĠÐºÐ»ÑıÐ½ÑĥÑģÑĮ": 6441,
      "ĠÐºÐ½Ð¸Ð¶": 6442,
      "ÐµÑĢÐµÐ½": 6443,
      "ÐµÑĢÐµÐ³": 6444,
      "ÐµÑĢÐ¸Ñı": 6445,
      "ÐµÑĢÐ½ÑĥÐ»": 6446,
      "ĠÐĺÐ½": 6447,
      "ĠÐĺÐ²": 6448,
      "ĠÐĺÐ½ÑĭÐµ": 6449,
      "Ð¾ÑĢÐ´": 6450,
      "Ð¾ÑĢÐ¼": 6451,
      "Ð¾ÑĢÐ±": 6452,
      "Ð¾ÑĢÐµÐµ": 6453,
      "ÐµÐ»ÐµÑĤ": 6454,
      "ÐµÐ»Ð°ÑģÑĮ": 6455,
      "Ð¸ÑĤÐµÐ»Ñİ": 6456,
      "ĠÐ»ÐµÐ´": 6457,
      "ĠÐ»Ð¾Ðº": 6458,
      "ĠÐ»ÐµÐ±": 6459,
      "ĠÐ»Ð¶": 6460,
      "Ð¾Ð¼Ð½ÑĭÐ¹": 6461,
      "ĠÐ³Ð°Ñģ": 6462,
      "ĠÐ³Ð»ÑıÐ´ÐµÑĤÑĮ": 6463,
      "ĠÐĴÐµÐ»": 6464,
      "ĠÐĴÑĭÑħ": 6465,
      "ĠÐĴÐµÑĢÐ°": 6466,
      "ĠÐĴÑħÐ¾Ð´": 6467,
      "ĠÐĴÑĩÐµÑĢÐ°": 6468,
      "ÑĨÐ¸Ð¹": 6469,
      "ÑĨÐ°Ñħ": 6470,
      "ÑĨÐµÐ¿ÐµÐ½": 6471,
      "Ð¾Ð´Ð¾ÑĢ": 6472,
      "Ð¾Ð´Ð¾Ð¼": 6473,
      "Ð¾Ð´Ð½Ð¾": 6474,
      "ĠÐ·Ð°Ð·": 6475,
      "ĠÐ·Ð¾Ð¸Ð»": 6476,
      "ĠÐĿÐ¾Ñģ": 6477,
      "ĠÐ¿ÑĢÑı": 6478,
      "ĠÐ¿ÑĢÐ¾Ð½Ð·": 6479,
      "Ð¸Ð»Ñı": 6480,
      "Ð±ÑĭÐ»": 6481,
      "ĠÑĢÐ¾ÑģÑĤ": 6482,
      "ĠÑĢÐ¶": 6483,
      "ĠÑĢÐ¸Ð¼": 6484,
      "ĠÑĢÑĥÐ¶": 6485,
      "ĠÑĢÐ°Ð²Ð½Ð¾": 6486,
      "ĠÐŁÐ°Ð»": 6487,
      "ĠÐŁÐ¸ÑĤ": 6488,
      "ĠÐŁÐ¾Ñİ": 6489,
      "ĠÐŁÑĥÑĤ": 6490,
      "ĠÐŁÐ»Ñİ": 6491,
      "ĠÐŁÐ¸Ñģ": 6492,
      "ĠÐŁÑĥÑĪÐºÐ¸": 6493,
      "ĠÐŁÐ°ÑĦÐ¾Ñģ": 6494,
      "Ð¾Ð³Ð¸Ñħ": 6495,
      "ĠÐ¡Ð¾Ðº": 6496,
      "ĠÐ¡Ð¸Ð¸": 6497,
      "ĠÐ¡ÑĢÐ°Ð²Ð½": 6498,
      "Ð°ÑģÑģ": 6499,
      "Ð°Ð²Ð½ÑĭÑħ": 6500,
      "Ð°Ð²Ð»Ñİ": 6501,
      "ÐµÐ¼Ñı": 6502,
      "ÐµÐ¼ÑĩÑĥÐ³": 6503,
      "Ð°ÑĤÐ¸Ðº": 6504,
      "Ð°ÑĤÑĭÐµ": 6505,
      "Ð°ÑĤÑĭÐ¼": 6506,
      "Ð°ÑĤÐ¸Ð»ÑģÑı": 6507,
      "Ð°ÑĢÑı": 6508,
      "Ð°ÑĢÑħ": 6509,
      "Ð°Ð´Ð°Ð»": 6510,
      "Ð°Ð´ÑĨÐ°ÑĤÑĮ": 6511,
      "Ð°Ð¼Ð·": 6512,
      "ÐµÑģÐ¸": 6513,
      "ÐµÑģÐ½ÑĭÐ¹": 6514,
      "Ð¿Ð¾ÑĢ": 6515,
      "Ð¿Ð¾ÑįÑĤ": 6516,
      "ÐµÐ¹ÑģÑı": 6517,
      "Ð³Ñĥ": 6518,
      "Ð³ÑĢÐ°Ð´": 6519,
      "Ð³Ð¾ÑĢÐ¾Ð´": 6520,
      "Ð¾ÑģÐ½": 6521,
      "Ð¾ÑģÐµÐ»ÑĮ": 6522,
      "Ð¾ÑģÑĥÐ³": 6523,
      "Ð°Ð½Ð½Ð¸": 6524,
      "Ð°Ð½ÐºÐ¸": 6525,
      "Ð°Ð½Ð½Ð¸Ðº": 6526,
      "Ð°Ð½Ð½Ð¾Ð³Ð¾": 6527,
      "Ð°Ð½Ð½Ð°Ñı": 6528,
      "ĠÐļÐ°Ð¼": 6529,
      "ĠÐļÐ¾Ð½Ð¸": 6530,
      "Ð¾ÑĤÐµÑĨ": 6531,
      "ĠÑģÑĤÑĭ": 6532,
      "ĠÑģÑĤÐ¾Ð¹": 6533,
      "ĠÑģÑĤÐ¾Ð»Ð¿": 6534,
      "ĠÑģÑĤÑĥÑĩÐ¸ÑĤ": 6535,
      "Ð¾Ð½Ðµ": 6536,
      "ĠÐ¢ÐµÑĢ": 6537,
      "ĠÐ¢Ð¸ÑĢ": 6538,
      "ĠÐ¢ÑĥÐ¼": 6539,
      "ĠÐ¢Ð¾Ð³Ð¾": 6540,
      "ĠÐ¢Ð¸Ð±": 6541,
      "ĠÐ¢ÑıÐ¶ÐµÐ»": 6542,
      "ĠÐŀÐ·": 6543,
      "ĠÐŀÑģÑĤÑĢ": 6544,
      "ĠÐŀÐ´Ñĥ": 6545,
      "ĠÐŀÐ¿ÐµÑĩ": 6546,
      "ĠÑĩÐ¸Ð½": 6547,
      "Ð¾ÐºÐ°Ñı": 6548,
      "Ð¸Ð²ÑĭÐµ": 6549,
      "Ð¸Ð²Ð°Ð»ÑģÑı": 6550,
      "ĠÐ¶ÐµÐ·": 6551,
      "ĠÐ¶Ð°Ð¶Ð´": 6552,
      "ÑīÐ°ÐµÑĤ": 6553,
      "ÐµÐ²Ð½Ð°": 6554,
      "ÐµÐ²Ð°ÐµÑĤ": 6555,
      "ÐµÐ²Ð¾Ð»Ðµ": 6556,
      "ĠÐ½Ð°ÐµÐ·Ð´": 6557,
      "ĠÐ½Ð°ÑģÑĤÐ°Ð»": 6558,
      "ÐµÑĩÐµÐ½ÑĮÐµ": 6559,
      "ÑĥÐ´Ð¸ÑĤ": 6560,
      "Ð½Ð°Ñİ": 6561,
      "Ð½Ð°ÑĩÐµÐ½": 6562,
      "Ð¾ÑģÑĤÐ°ÑĤÐ°": 6563,
      "Ð¶Ð¸ÑĤ": 6564,
      "ĠÐľÐ°ÑĤÑĮ": 6565,
      "ĠÐľÐµÑĢÐº": 6566,
      "ĠÐľÑĥÐ´ÑĢ": 6567,
      "ĠÐľÐ¾Ð³Ñĥ": 6568,
      "ĠÐľÐ°Ð³Ð¾Ð¼": 6569,
      "ĠÐľÐµÑģÑıÑĨ": 6570,
      "ĠÑģÐ»Ð°Ð³": 6571,
      "ĠÐĶÐ¾Ð»": 6572,
      "ĠÐĶÐ°Ð¼": 6573,
      "ĠÐĶÐ¸Ð²": 6574,
      "ĠÐĶÑĥÐ±": 6575,
      "ĠÐĶÐ¸ÑĤÑı": 6576,
      "ĠÐĶÐ¼Ð¸ÑĤ": 6577,
      "ĠÐĶÐµÐ½Ð¸Ñģ": 6578,
      "Ð¾Ð·ÑĢ": 6579,
      "ÑĥÑĤÑı": 6580,
      "ÐµÑģÑĤÐ¸ÑĤ": 6581,
      "Ð»Ð¸Ñı": 6582,
      "Ð»Ð¸ÑĪ": 6583,
      "Ð»Ð¸ÑģÑı": 6584,
      "Ð»Ð¸ÑĩÐµÐ½": 6585,
      "ĠÐĳÐ¾Ð¶": 6586,
      "ĠÐĳÐ°Ð¹": 6587,
      "Ð¾Ð¶Ð½ÑĭÐ¹": 6588,
      "Ð¾ÑĩÐ½ÑĭÐ¹": 6589,
      "Ð¾ÑĩÐ½Ð¾Ð¹": 6590,
      "ĠÐ¾ÑĤÐ»": 6591,
      "ĠÐ¾ÑĤÐ»ÐµÑĤ": 6592,
      "ĠÐ¾ÑĤÑģÑĤÐ°Ð²": 6593,
      "ĠÐ¾ÑĤÐ´ÑĭÑħ": 6594,
      "ĠÐ¾ÑĤÐ»Ð¸Ñĩ": 6595,
      "ĠÐĵÐµÐ½Ð¸Ð¹": 6596,
      "ĠÐĵÑĥÑģÐ°ÑĢ": 6597,
      "ĠÐĹÐ¾Ð²": 6598,
      "ĠÐĹÐ°Ð¼": 6599,
      "ĠÐĹÐ´Ð¾ÑĢÐ¾Ð²": 6600,
      "ĠÐĹÐµÑĦÐ¸ÑĢ": 6601,
      "ĠÐĹÐ´ÑĢÐ°Ð²ÑģÑĤÐ²ÑĥÐ¹": 6602,
      "ĠÑħÐ¾Ð´": 6603,
      "ĠÑħÐ°ÑĤÑĭ": 6604,
      "ĠÐ³ÑĢÐµÐ·Ñĭ": 6605,
      "ÑĥÐ¼ÑıÐ½": 6606,
      "ÐµÐºÑĢ": 6607,
      "Ð½ÑĥÐ»Ð¸ÑģÑĮ": 6608,
      "ÐºÐ°Ð½Ñĭ": 6609,
      "ÐºÐ°ÑıÑģÑĮ": 6610,
      "ĠÐºÑĢÐ¸ÑĤ": 6611,
      "ĠÐºÑĢÑıÑħ": 6612,
      "ĠÐĲÐ¿": 6613,
      "ĠÐĲÐ»Ð¸": 6614,
      "ĠÐĲÑĢÐ·": 6615,
      "ĠÐŁÑĢÐ¸Ð·": 6616,
      "ĠÐŁÑĢÐ¾Ñħ": 6617,
      "ĠÐŁÑĢÐ¸Ð³": 6618,
      "ĠÐ¾Ð½ÐµÐ¼": 6619,
      "ĠÐ£Ð³ÑĢ": 6620,
      "ĠÐ£Ð²Ð¸Ð¶Ñĥ": 6621,
      "ÑĭÐ»ÑĮ": 6622,
      "ĠÐ¯Ð²Ð¸ÑģÑĮ": 6623,
      "ĠÐ¯ÐºÑĥÐ±": 6624,
      "ĠÑģÐºÐ¾Ð¿": 6625,
      "ĠÑģÐºÑĢÐ¸": 6626,
      "ĠÑģÐºÑĥÐºÐ°": 6627,
      "ÑĥÑĩÐµÐ½Ð½ÑĭÐ¹": 6628,
      "ĠÐ²ÑģÐµÑĩÐ°ÑģÐ½Ð¾": 6629,
      "ĠÐ¿Ð¾Ñį": 6630,
      "ĠÐ¿Ð¾ÑĪÐ»Ð¸": 6631,
      "Ð°ÑıÐ»": 6632,
      "Ð°ÑıÐ½ÑĮÑı": 6633,
      "ÐµÐ¿ÑĤÐ°Ð»": 6634,
      "ÑģÐºÐ¾ÑĢÐ±": 6635,
      "ÑģÐºÐ¾ÑģÐµÐ»ÑĮ": 6636,
      "ĠÐ¾Ð±ÐµÑĢ": 6637,
      "ĠÐ¾Ð±Ð¾Ð¶": 6638,
      "ĠÐ¾Ð±Ð¾Ð»ÑĮ": 6639,
      "ĠÐ¾Ð±Ð²Ð¾ÑĢ": 6640,
      "ĠÐ¾Ð±Ð½ÑıÐ»": 6641,
      "ĠÐ¾Ð±ÑīÐ¸Ð¹": 6642,
      "ĠÐĽÐ°": 6643,
      "ĠÐĽÑĥÐ½Ð°": 6644,
      "Ð°ÑħÐ°": 6645,
      "ĠÐ¼Ð¾ÐµÑİ": 6646,
      "Ð¾Ð»ÑĮÑĪ": 6647,
      "ĠÐ¿Ð¾Ð´Ð³": 6648,
      "ĠÐ¿Ð¾Ð´ÑĥÑĪÐºÑĥ": 6649,
      "ÑģÑĤÐ²ÐµÐ½Ð½Ð¾Ð¹": 6650,
      "ÑģÑĤÐ²ÑĥÑİÑĤ": 6651,
      "ĠÑĪÐ»Ð°": 6652,
      "Ð¾Ð¿Ð»ÐµÐ½": 6653,
      "ĠÐłÐ¾Ð±": 6654,
      "ĠÐłÑĥÑģÑĮ": 6655,
      "ĠÐłÑĥÐ¼Ñı": 6656,
      "Ð°Ð³Ðµ": 6657,
      "ĠÐ¼Ð¾Ð»ÐµÐ½ÑĮÑı": 6658,
      "ĠÐ¼Ð¾Ð»Ð²Ñĭ": 6659,
      "Ð¸ÐºÐ¾Ð¹": 6660,
      "ĠÑĤÑĢÐ¾Ð½Ð°": 6661,
      "ÑĥÑģÑĤÑĮ": 6662,
      "ĠÐ²ÑĭÐ½ÑĥÐ»": 6663,
      "ĠÐ²ÑĭÐ¼Ð¾Ð»Ð²": 6664,
      "ĠÐ²ÑĭÑĪÐ»Ð¸": 6665,
      "ĠÐ³Ð¾ÑĢÐµÐ»": 6666,
      "ĠÐ³Ð¾ÑĢÐ¾Ñİ": 6667,
      "ĠÐ³Ð¾ÑĢÑıÑĤ": 6668,
      "ĠÐ³Ð¾ÑĢÐ¾Ð´Ð°": 6669,
      "ĠÑĢÐ°Ð·Ð´Ð°ÐµÑĤÑģÑı": 6670,
      "ĠÐ¿Ð»ÐµÑģ": 6671,
      "ĠÐ¿Ð»ÑĥÑĤ": 6672,
      "ĠÐ¿Ð»ÑĭÐ²": 6673,
      "ĠÐ¿Ð»ÑĥÐ³": 6674,
      "ĠÐ¿Ð¾Ð»Ñİ": 6675,
      "ĠÐ¿Ð¾Ð»Ð½Ñĭ": 6676,
      "ĠÐ¿Ð¾Ð»Ð¾ÑĤ": 6677,
      "ĠÐ±ÑĢÑı": 6678,
      "ĠÐ±ÑĢÐµÐ´": 6679,
      "ĠÐ±ÑĢÐµÐ¼Ñı": 6680,
      "Ð¸Ð·Ð¸Ñĩ": 6681,
      "ÑĥÐ¶Ð½ÑĭÐ¹": 6682,
      "ĠÐºÐ°ÐºÐ¸Ð¼": 6683,
      "ĠÐ²Ð·Ð²": 6684,
      "ĠÐ²Ð·ÑıÑĤ": 6685,
      "ĠÐ²Ð·Ð¸ÑĢÐ°Ð»": 6686,
      "ÑĥÑĢÐ¾Ð²": 6687,
      "ÑĥÑĢÐ¸Ð¹": 6688,
      "ÑĥÑĢÐ´Ð°Ð»": 6689,
      "ĠÐ´ÑĢÑĥÐ³Ð¾Ð¼": 6690,
      "ĠÐ´ÑĢÑĥÐ³Ð¾Ð³Ð¾": 6691,
      "ĠÐ´ÑĢÑĥÐ³ÑĥÑİ": 6692,
      "ĠÑĨÐ°ÑĢÑıÐ¼": 6693,
      "ĠÐ¡ÑĤÐµÐº": 6694,
      "ĠÐ¡ÑĤÐ¾Ð»ÑĮ": 6695,
      "ĠÐ¡ÑĤÑĢÐ°Ð½": 6696,
      "ĠÐ¡ÑĤÑĢÑĥ": 6697,
      "ĠÐ¡ÑĤÑĢÐ¾Ð³": 6698,
      "ĠÐ¡ÑĤÐ¾ÐºÑĢÐ°ÑĤ": 6699,
      "ĠÐ¼Ð¸Ð»Ð¾Ñİ": 6700,
      "ĠÐ¼Ð¸Ð»ÑĭÐ¼": 6701,
      "ĠÑģÑĤÑĢÐ°Ð¶Ð´": 6702,
      "ĠÑģÑĤÑĢÐµÐ»Ð°": 6703,
      "ĠÑģÑĤÑĢÑĥÐ½": 6704,
      "ĠÑģÑĤÑĢÐ°Ð½Ð°": 6705,
      "ĠÐ¿ÑĢÐ¸ÑĪÐ»Ð¸": 6706,
      "ĠÐ±ÐµÐ·Ð±": 6707,
      "ÐµÐ»Ð¸ÑģÑĮ": 6708,
      "ÑĭÐ²Ð°Ñİ": 6709,
      "Ð»Ð¸Ð²ÑĭÐ¼": 6710,
      "ĠÑĥÐ¶ÐµÐ»Ð¸": 6711,
      "Ð°ÑİÑīÐµÐ¹": 6712,
      "ĠÐ½Ð°Ð´Ð¼ÐµÐ½": 6713,
      "ĠÐ¿ÐµÑĢÐ¾": 6714,
      "ĠÐ¿ÐµÑĢÐ¾Ð¼": 6715,
      "ĠÐ¿ÐµÑĢÐµÐ²": 6716,
      "ĠÐ¿ÐµÑĢÐµÑģÑĤ": 6717,
      "ĠÐ¿ÐµÑĢÐµÐ¿": 6718,
      "ĠÐ¿ÐµÑĢÐ²Ð¾Ð¹": 6719,
      "ĠÐ¿Ð¾ÐºÐ°": 6720,
      "ĠÐ¿Ð¾ÐºÐ¾Ñİ": 6721,
      "ĠÐ¿Ð¾ÐºÑĢÐ¾": 6722,
      "ĠÐ¾Ð´Ñĥ": 6723,
      "ĠÐ¾Ð´ÐµÑĤ": 6724,
      "ĠÐ¾Ð´Ð½Ð¾Ñİ": 6725,
      "ĠÐ¾Ð´Ð½Ð¸Ñħ": 6726,
      "Ġder": 6727,
      "Ġdonn": 6728,
      "ĠÐ²Ð¾Ð»Ñİ": 6729,
      "ĠÐ²Ð¾Ð»Ð½Ð¸ÑģÑĤ": 6730,
      "Ð½Ð¾Ð¼Ð¾ÑĢ": 6731,
      "ĠÐ·Ð°Ð±Ð¾ÑĢÐ°": 6732,
      "ĠÑģÐ²ÐµÑĤÑĥ": 6733,
      "ĠÑģÐµÑĢÐ´ÐµÑĩÐ½Ð¾": 6734,
      "ĠÑĥÐ¼Ðµ": 6735,
      "ĠÑĥÐ¼ÐµÐ»": 6736,
      "ĠÑģÐ¿Ð°ÑĤÑĮ": 6737,
      "ĠÑģÐ¿ÑıÑī": 6738,
      "ÑĢÐ°Ð²Ð°": 6739,
      "Ð¸ÑĪÐµ": 6740,
      "ĠÐ½Ð¾ÑĩÐ°Ð¼": 6741,
      "ĠÑģÑĤÐ°ÑĢÑĨÐ°": 6742,
      "ĠÑģÑĤÐ°ÑĢÐµÑĨ": 6743,
      "ĠÑģÑĤÐ°ÑĢÐ°Ð½ÑĮÑı": 6744,
      "ÐµÑīÐ°": 6745,
      "Ã©r": 6746,
      "ĠÐ½Ð°ÑĪÐµ": 6747,
      "ĠÐºÑĢÐ°ÑģÐ½Ð¾": 6748,
      "ĠÐºÑĢÐ°ÑģÐ½Ð°Ñı": 6749,
      "ĠÐ¿Ð¾ÑĢÐ°Ð·": 6750,
      "ĠÐ¿Ð¾ÑĢÐ¾Ñİ": 6751,
      "ĠÐ¿Ð¾ÑĢÐ°Ð¶": 6752,
      "ĠÐ¿Ð¾ÑĢÐ¾Ð³Ð°": 6753,
      "ĠÑģÐ»Ð°Ð²ÐµÐ½": 6754,
      "ĠÑģÐ»Ð°Ð²Ð½ÑĭÑħ": 6755,
      "ĠÐ¼ÐµÑĩÐ¸": 6756,
      "ĠÐ¼ÐµÑĩÐ¾Ð¼": 6757,
      "ĠÐ¼ÐµÑĩÐ°Ð¼Ð¸": 6758,
      "ĠÑĥÑĤÑĢÐ°Ñĩ": 6759,
      "ĠÐ±Ð¾Ð³Ð¸Ð½": 6760,
      "ĠÐ±Ð¾Ð³Ð¾ÑĤÐ²Ð¾ÑĢ": 6761,
      "ĠÑĤÐ²Ð¾ÐµÐ³Ð¾": 6762,
      "ĠÐ²ÐµÑģÐµÐ»ÑĮÐµÐ¼": 6763,
      "ĠÐ¼Ð¸ÑĢÐ½ÑĭÑħ": 6764,
      "ĠÐ¼Ð¸ÑĢÐ½ÑĥÑİ": 6765,
      "ĠÐ²Ð¸Ð´Ñĥ": 6766,
      "ĠÐ²Ð¸Ð´Ñı": 6767,
      "ĠÐ²Ð¸Ð´ÑıÑĤ": 6768,
      "Ġsoi": 6769,
      "ĠÐŁÐ¾Ð´Ð¾Ð±": 6770,
      "ĠÐŁÐ¾Ð´ÑĭÐ¼": 6771,
      "ĠÐŁÐ¾Ð´ÑĬ": 6772,
      "ail": 6773,
      "aim": 6774,
      "ĠÐ·Ð»Ð°Ñı": 6775,
      "Ġpre": 6776,
      "ĠÐ²ÐµÑĢÐµÐ½": 6777,
      "ĠÐ»ÐµÑĤÐµÐ»Ð¸": 6778,
      "ĠÐ»ÐµÑĤÑĥÑĩÐ¸Ð¹": 6779,
      "Ð½Ð¸Ð¼Ð°ÐµÑĤ": 6780,
      "ĠÐ´Ð¾Ð»Ðµ": 6781,
      "ĠÐ´Ð¾Ð»Ñĥ": 6782,
      "ĠÐ´Ð¾Ð»Ð¸Ð½Ðµ": 6783,
      "ĠÐ´Ð¾Ð»Ð¸Ð½Ñĥ": 6784,
      "ĠÐ·Ð²ÐµÑĢ": 6785,
      "ĠÐ²Ð¾Ð·Ð½Ð¸Ðº": 6786,
      "ĠÐ²Ð¾Ð·Ð³Ð¾ÑĢ": 6787,
      "ĠÐ²Ð¾Ð·Ð´Ð¾ÑħÐ½ÑĥÑĤÑĮ": 6788,
      "ĠÐ²Ð¾Ð·Ð¶Ð¶": 6789,
      "est": 6790,
      "ÑĢÐ°Ð´Ð¸": 6791,
      "ĠÐ½ÐµÐ²ÐµÐ¶Ð´": 6792,
      "ĠÐ£Ð¶Ð°Ñģ": 6793,
      "ĠÐ½Ð¸Ð¼ÑĦ": 6794,
      "ĠÐ½Ð¸Ð³Ð´Ðµ": 6795,
      "Ð°Ð¶Ð´Ð°Ð½": 6796,
      "ĠÐ¾ÑĩÐ°Ñħ": 6797,
      "ĠÐ¾ÑĩÐºÐ°Ñħ": 6798,
      "ĠÑģÐ»Ð°Ð´ÐºÐ¾Ð³Ð¾": 6799,
      "ĠÐ¼Ð¾Ð»Ð¾Ð´ÑĨÐ°": 6800,
      "ĠÐ¿ÑĥÑģÑĤÐ¾Ðµ": 6801,
      "ĠÐ¿ÑĥÑģÑĤÐ¸Ð»ÑģÑı": 6802,
      "ĠÑģÑĩÐ°ÑģÑĤÐ¸Ðµ": 6803,
      "ĠÑĤÐµÐ¼Ð½Ñĥ": 6804,
      "ani": 6805,
      "ante": 6806,
      "ĠÑĥÑģÐ¼": 6807,
      "ĠÑĪÑĥÐ¼Ð½Ð¾Ð¹": 6808,
      "ĠÐ³Ð¾Ð»Ð¾Ð´": 6809,
      "ĠÐ»ÑİÐ±Ð¾Ð²Ð¸Ñİ": 6810,
      "ĠÐ»ÑİÐ±Ð¾Ð²Ð½Ð¸ÑĨ": 6811,
      "ĠÐ¡ÐºÑĥÑĩ": 6812,
      "ĠÐ¡ÐºÐ¾Ð»ÑĮÐ·": 6813,
      "ÑĥÐ³Ñĥ": 6814,
      "ÑĥÐ³ÑĥÐ½": 6815,
      "ĠÐ¸Ð¼ÐµÐ»": 6816,
      "ĠÐ¸Ð¼ÐµÐµÑĤ": 6817,
      "ÑĭÐ½ÑĮ": 6818,
      "oup": 6819,
      "ouche": 6820,
      "ĠÐŁÐ¾ÑįÐ·Ð¸Ð¸": 6821,
      "ĠÐ¼Ð¾Ð³ÑĥÑĩÐ¸Ð¹": 6822,
      "ĠÑĤÐ¾Ð¼Ð»ÐµÐ½ÑĮÑı": 6823,
      "ĠÐĸÐµÑģÑĤ": 6824,
      "ĠÐ¾Ð¿ÑĢÐµÐ´": 6825,
      "ĠÐ³ÑĢÐ¾Ð·ÐµÐ½": 6826,
      "ĠÐ³ÑĢÐ¾Ð·Ð½Ð¾Ð¹": 6827,
      "ĠÐ³ÑĢÐ¾Ð·Ð¾Ñİ": 6828,
      "ĠÐ³ÑĢÐ¾Ð·Ð½ÑĭÐ¼": 6829,
      "ons": 6830,
      "ĠÐ¼ÐµÑĩÑĤÑĥ": 6831,
      "ĠÐ½ÐµÐ¶Ð½Ð¾Ñİ": 6832,
      "ÐºÐ¾Ð²ÑģÐºÐ¸Ð¹": 6833,
      "ĠÐ¶Ð¸Ð²Ð¾": 6834,
      "ĠÐ¶Ð¸Ð²Ñĥ": 6835,
      "ĠÐ¦Ð°ÑĢÐ¸": 6836,
      "ÑĢÑıÐ´": 6837,
      "ĠÐ¿Ð¾Ð²ÐµÐ»": 6838,
      "ĠÐ¿Ð¾Ð²ÑģÑİÐ´Ñĥ": 6839,
      "ĠÐ¿ÑĢÐ°Ð²Ñĥ": 6840,
      "ĠÑĥÐ´Ð°ÑĢÑĭ": 6841,
      "ĠÑĩÐµÑĢÐ½Ð¾Ð¹": 6842,
      "ĠÑĩÐµÑĢÐµÐ·": 6843,
      "ĠÑĩÐµÑĢÐ½ÑĥÑİ": 6844,
      "ĠÐĽÑİÐ±Ð¸Ð»": 6845,
      "ĠÐ½Ð°Ð¿ÑĢÐ°Ð²": 6846,
      "ĠÐ½Ð°Ð¿ÑĢÑı": 6847,
      "ĠÐ½Ð°Ð¿Ð¾Ð»Ð½": 6848,
      "ĠÐ½Ð°Ð¿ÐµÑĩÐ°ÑĤ": 6849,
      "ĠÐ¼Ð»Ð°Ð´ÑĭÑħ": 6850,
      "Ð½ÑĮÐµÐ¼": 6851,
      "ĠÐ½ÐµÐ¼Ð½Ð¾Ð³": 6852,
      "ĠÐ½ÐµÐ¼Ð½Ð¾Ð¶ÐºÐ¾": 6853,
      "ĠÐ·Ð°Ð²ÑıÐ»": 6854,
      "ĠÐ·Ð½Ð°Ð¹": 6855,
      "ĠÐ´ÑĢÑĥÐ¶Ð¸Ð½": 6856,
      "ĠÐ´ÑĢÑĥÐ¶ÐµÑģÑĤÐ²Ð°": 6857,
      "ĠÐ²ÐµÑĤÐ²ÐµÐ¹": 6858,
      "ĠÐŀÐ´Ð½Ñĥ": 6859,
      "ĠÐ¼Ð¾Ð»ÑĩÐ°ÑĤ": 6860,
      "ilement": 6861,
      "ĠÑĤÐ¸ÑĪÐ¸Ð½Ð¾Ð¹": 6862,
      "ĠÐ±ÐµÑĢÐµÑĤ": 6863,
      "ĠÐ¿Ð¾Ð¼Ð¾Ñī": 6864,
      "ĠÐ¿Ð¾Ð¼Ð¸Ð»ÑĥÐ¹": 6865,
      "ĠcÃ©": 6866,
      "Ġcar": 6867,
      "Ġcette": 6868,
      "ĠÑĥÐ¿ÑĢÐ°Ð²": 6869,
      "Ġal": 6870,
      "Ġam": 6871,
      "Ġaut": 6872,
      "ĠÐ½ÐµÑģÐº": 6873,
      "ĠÐ¿ÐµÑĩÐ°Ð»ÑĮÐ½Ð°Ñı": 6874,
      "ettre": 6875,
      "ÐµÑĤÑĮÑģÑı": 6876,
      "Ð¸Ð¿Ð¸ÑĤ": 6877,
      "ĠÐ²ÐµÐ½ÑĨÐµ": 6878,
      "ĠÐ²ÐµÐ½ÐºÐ¾Ð¼": 6879,
      "Ð¡Ð²ÐµÑĤ": 6880,
      "ĠÐ¿ÐµÐ²Ð¸ÑĨÐ°": 6881,
      "ĠÐ¿ÐµÐ²ÑĨÐ¾Ð²": 6882,
      "ĠÐ¡Ð¿ÐµÑģ": 6883,
      "ĠÐ¡Ð¿Ð¾ÑĢÐ¸ÑĤÑĮ": 6884,
      "ÐŁÐ¾ÑģÐ»ÑĥÑĪ": 6885,
      "ÐŁÐ¾ÑģÑĤÐ¾Ð¹": 6886,
      "ĠÐ¼ÑĥÐ·Ñĥ": 6887,
      "ĠÐ¼ÑĥÐ·Ð¾Ð¹": 6888,
      "ĠÐ¼ÑĥÐ·Ð¾Ñİ": 6889,
      "ĠÐ¼ÑĥÐ·Ð°Ð¼Ð¸": 6890,
      "ĠÐ¨Ð°Ð¿": 6891,
      "ĠÐ¨Ð»ÐµÑĤ": 6892,
      "ĠÐ¨ÑĥÑĤÑı": 6893,
      "ĠÐ»ÐµÑģÐ°Ð¼": 6894,
      "ĠÐ»ÐµÑģÐ°Ñħ": 6895,
      "ĠÐ´ÑĥÐ¼Ð°ÐµÑĤ": 6896,
      "ĠÐ±ÐµÐ´Ñĥ": 6897,
      "ĠÐ¿Ð¸ÑĢÑĭ": 6898,
      "ĠÐ½ÐµÐ±ÐµÑģÐ°Ñħ": 6899,
      "ĠÐĴÐ¾Ð¾Ð±ÑĢÐ°Ð¶": 6900,
      "ĠÐĴÐ·Ð¾ÑĪÐ»Ð°": 6901,
      "ĠÐ±ÐµÑĢÐµÐ³Ð°Ð¼": 6902,
      "ĠÑĦÑĢÐ°Ð½ÑĨÑĥÐ·": 6903,
      "ĠÐ¿ÐµÑģÐ½Ñı": 6904,
      "ĠÑĥÐ·Ð´": 6905,
      "ĠÑĥÐ·Ð½Ð°ÑĤÑĮ": 6906,
      "ĠÑįÐ»ÐµÐ³": 6907,
      "ĠÐ¿ÑĢÐ¾ÑģÑĤÐ¾": 6908,
      "ĠÐ¿ÑĢÐ¾ÑģÑĤÑĭÐµ": 6909,
      "ĠÐĳÐ»ÐµÑģ": 6910,
      "Ð¾Ð¶Ð´ÐµÐ½Ð½ÑĭÐ¹": 6911,
      "Ð¸Ð³Ð»Ñı": 6912,
      "ĠÑĢÐ¾Ð´Ð½ÑĭÑħ": 6913,
      "ĠÑĥÐ½ÑĭÐ»Ð°": 6914,
      "ĠÑĥÐ½ÑĭÐ»Ð¾": 6915,
      "ĠÐ¿Ð¾ÑģÐ²ÑıÑī": 6916,
      "Ġfort": 6917,
      "Ġfaire": 6918,
      "ĠÐ¿ÑĢÐ¸Ð²Ð¸Ð´": 6919,
      "ĠÐ¿ÑĢÐµÐ»ÐµÑģÑĤÐ½ÑĭÑħ": 6920,
      "ĠÐ¿ÑĢÐµÐ»ÐµÑģÑĤÐ½Ð°Ñı": 6921,
      "ĠÐĳÐ¾Ð³Ð¾Ð¼": 6922,
      "ĠÐ½ÐµÐ´Ð¾ÑģÑĤ": 6923,
      "ĠÐ¡Ð²ÑıÑī": 6924,
      "Ð¿Ð¾Ð»Ð¾Ð¶": 6925,
      "Ð»ÐµÐµÑĤ": 6926,
      "ÑĥÑīÐµÑģÑĤÐ²": 6927,
      "ĠÐ±Ð»Ð¸Ð¶Ðµ": 6928,
      "ÐĴÐ¾ÑĢÐ¾ÑĤ": 6929,
      "ÐĴÑģÑĳ": 6930,
      "Ġquit": 6931,
      "ÑıÐ¶ÐµÑĤ": 6932,
      "ĠÑĥÐ²Ñı": 6933,
      "ĠÑĥÐ²Ð»ÐµÐº": 6934,
      "ĠÑĥÐ²Ð»ÐµÑĩ": 6935,
      "ĠÐłÐ°Ð·Ð»": 6936,
      "ĠÐ²Ð¾ÑģÑĤÐ¾ÑĢÐ¶": 6937,
      "ĠÐ²Ð¾ÑģÐ¿ÐµÑĤ": 6938,
      "ĠÐºÐ¾Ð»ÐµÐ±": 6939,
      "ĠÐºÐ¾Ð»ÐµÐ½Ð¸": 6940,
      "ĠÐºÐ¾Ð»ÐµÐ½Ð°": 6941,
      "ĠÐ³Ð¾Ð²Ð¾ÑĢÑİ": 6942,
      "ĠÐ³Ð¾Ð²Ð¾ÑĢÑıÑĤ": 6943,
      "ĠÐ³Ð¾Ð²Ð¾ÑĢÐ¸Ð»Ð°": 6944,
      "Ð¸Ð»ÑĮÐ½Ð¾": 6945,
      "ĠÐ³ÑĢÐ¾Ð¼Ð°Ð´Ñĭ": 6946,
      "ĠÐ²Ð¾Ð´Ñı": 6947,
      "ĠÐ²Ð¾Ð´Ð°Ð¼Ð¸": 6948,
      "ĠÐ²Ð¾Ð´Ð¾Ð¿": 6949,
      "ĠÐĿÐµÑĤÐµÑĢÐ¿ÐµÐ»": 6950,
      "ĠÑħÐ»Ð°Ð´Ð½Ð¾": 6951,
      "ĠÐ³ÑĢÐ¾Ð±Ñĥ": 6952,
      "ĠÐ³ÑĢÐ¾Ð±Ð½Ð¸ÑĨÑĭ": 6953,
      "ĠÐ¿Ð»Ð°Ð¼ÐµÐ½Ð½Ð¾Ð¼": 6954,
      "ents": 6955,
      "ĠÑģÐ»Ð°Ð´Ð¾ÑģÑĤÐ½ÑĭÐ¹": 6956,
      "ĠÑģÐ»Ð°Ð´Ð¾ÑģÑĤÐ½ÑĭÑħ": 6957,
      "ĠÐ»ÐµÐ³ÐºÐ¸Ðµ": 6958,
      "ĠÑģÑĤÑĢÐ°ÑģÑĤÐ½Ð¾Ð¹": 6959,
      "ĠÐ½Ð°Ð²ÐµÑģÑĤ": 6960,
      "ĠÐ½Ð°Ð²ÐµÑī": 6961,
      "ĠÐ½Ð°Ð²ÑģÑĤÑĢÐµÑĩÑĥ": 6962,
      "ÑĩÐ¸Ð²Ð¾Ð¹": 6963,
      "ĠÐ¶ÐµÐ»Ð°Ð½Ð½ÑĭÐ¹": 6964,
      "ÑģÐ¼Ð°Ð½": 6965,
      "ĠÐ´Ð¸Ð²Ð½ÑĭÐ¹": 6966,
      "ĠÐ·Ð¾Ð»Ð¾ÑĤÐ¾Ðµ": 6967,
      "ĠÐ½Ð¾Ð²ÑĭÐ¼": 6968,
      "ĠÐ¾Ð³Ð½Ðµ": 6969,
      "ĠÐ¾Ð³Ð½ÑĮ": 6970,
      "ĠÐ±ÑĥÑĢÐ½ÑĭÑħ": 6971,
      "ĠÑĥÐ±ÐµÐ³": 6972,
      "ĠÑĥÐ¶Ð°ÑģÐ¾Ð¼": 6973,
      "ĠÐ²ÑĢÐµÐ¼ÐµÐ½Ð¸": 6974,
      "ĠÐ´Ð°ÑĢÑĭ": 6975,
      "ĠÐ¸Ð³ÑĢÐ°Ð»": 6976,
      "ĠÐ¸Ð³ÑĢÐ°ÑĤÑĮ": 6977,
      "ĠÐ·Ð°Ð¼ÐµÑĤ": 6978,
      "ĠÐ¼ÑĢÐ°ÑĩÐ½Ð°Ñı": 6979,
      "ĠÐ²Ð¾ÑģÑħÐ¾Ð´": 6980,
      "ĠÐ²Ð¾ÑģÐµÐ¼ÑĮ": 6981,
      "ĠÐ·Ð»Ð°ÑĤÐµ": 6982,
      "ĠÐ·Ð»Ð°ÑĤÐ¾Ð³Ð»Ð°Ð²": 6983,
      "ĠÐ½ÐµÐ¿Ð¾Ð³": 6984,
      "ĠÐ½ÐµÐ¿ÑĢÐ°Ð²ÐµÐ´": 6985,
      "ĠÐ½ÐµÐ¿Ð¾Ð´Ð²Ð¸Ð¶": 6986,
      "ĠÐ½ÐµÐ¿Ð¾Ð½ÑıÑĤ": 6987,
      "Ð°Ð·Ð´Ñĭ": 6988,
      "ĠÐ¿Ð¾ÑĩÐ¸Ð»": 6989,
      "ĠÐ¿Ð¾ÑĩÐ¸Ð²": 6990,
      "ĠÐ¿Ð¾ÑĩÑĤÐ¾": 6991,
      "ĠÐŁÐ¾Ð»Ñı": 6992,
      "ĠÑįÑĤÐ°": 6993,
      "ĠÑįÑĤÐ¸Ñħ": 6994,
      "ĠÑįÑĤÐ¾Ð³Ð¾": 6995,
      "ĠÐĹÐ°Ð±ÑĥÐ´Ñĥ": 6996,
      "ĠÐ¿Ð¾ÑģÐ»ÐµÐ´Ð½Ð¸Ðµ": 6997,
      "ĠÑģÐ¸Ð´ÑıÑĤ": 6998,
      "ĠÑģÐ¸Ð´ÐµÑĤÑĮ": 6999,
      "ĠÑģÐ½Ð¾Ð²Ð¸Ð´ÐµÐ½ÑĮÐµ": 7000,
      "ĠÑģÐ½Ð¾Ð²Ð¸Ð´ÐµÐ½ÑĮÑı": 7001,
      "ĠÐ²Ð¾ÑĤÑīÐµ": 7002,
      "ĠÐ´Ð¾Ð±ÑĢÑĭÐµ": 7003,
      "ĠÑĩÐ°ÑĪÐµ": 7004,
      "ĠÑĩÑĥÐ²ÑģÑĤÐ²Ð¾Ð²Ð°ÑĤÑĮ": 7005,
      "ĠĠĠĠĠĠĠĠĠĠĠĠĠĠĠĠĠĠĠĠĠĠĠĠĠĠ": 7006,
      "ĠÐ²Ð´Ð¾ÑħÐ½Ð¾Ð²ÐµÐ½ÑĮÐµÐ¼": 7007,
      "Ġvu": 7008,
      "Ġvou": 7009,
      "ĠÐĿÐµÐ²Ð¸Ð´": 7010,
      "ĠÑĥÐ»ÑĭÐ±ÐºÑĥ": 7011,
      "ĠÐ½Ð¾Ð³Ð°": 7012,
      "ĠÐ½Ð¾Ð³Ð°Ð¼": 7013,
      "ĠÐ½Ð¾Ð³Ð°Ñħ": 7014,
      "ĠÑģÑĤÐ¾Ð»Ð±Ð¾Ð²": 7015,
      "Ð¼ÑĥÑĢÑıÑģÑĮ": 7016,
      "ĠÐ¿ÑĢÐ¸Ð·ÑĭÐ²Ð°Ð»": 7017,
      "Ð´Ð°Ð»ÑĭÐ¹": 7018,
      "ĠÐ»ÑĥÑĩÐ°Ð¼Ð¸": 7019,
      "ĠÐ·Ð°ÐºÐ¾Ð½Ñĭ": 7020,
      "ĠÐ³ÑĢÑĥÐ´Ñĭ": 7021,
      "ĠÑĤÑĢÑĥÐ´Ð°Ð¼": 7022,
      "ĠÐ³Ð»ÑĥÐ±Ð¸Ð½Ñĭ": 7023,
      "ĠÐ³Ð»ÑĥÐ±Ð¾ÐºÐ¸Ð¹": 7024,
      "Ð°Ð½Ð¸Ð¸": 7025,
      "ĠÑĤÐ°Ñī": 7026,
      "ĠÐ´Ð²Ð¾ÑĢÐ°": 7027,
      "ÐļÑĥÐ´Ð°": 7028,
      "ĠÐ¿Ð¾ÑģÑĤÑĥÐ¿": 7029,
      "ĠÐ¿Ð¾ÑģÑĤÑĭÐ´": 7030,
      "ĠÐ¼ÑĥÐ¶Ñĩ": 7031,
      "ĠÑĤÑĮÐ¼Ð¾Ð¹": 7032,
      "ĠÐ´ÑĥÑħÐ¾Ð¼": 7033,
      "ĠÑĢÐµÑĩÐºÐ¸": 7034,
      "ĠÑģÐ»ÐµÐ´Ñĭ": 7035,
      "ĠÐĵÐ¾ÑĢÐµ": 7036,
      "ĠÐĵÐ¾ÑĢÑı": 7037,
      "ĠÐĵÐ¾ÑĢÐ¾Ð´": 7038,
      "ĠÐ¿Ð¾ÐºÐ»Ð¾Ð½Ð½Ð¸Ðº": 7039,
      "ĠÑģÑĤÑĢÐ°ÑĪÐ¸ÑĤ": 7040,
      "ĠÐ¼ÑĥÑĩÐ¸ÑĤ": 7041,
      "ĠÐ¼ÑĥÑĩÐµÐ½Ð¸Ð¹": 7042,
      "Ð¼Ð°Ð½Ð°Ñħ": 7043,
      "ĠÑĥÐºÑĢÐ°Ñģ": 7044,
      "ĠÑĨÐ°ÑĢÐµÐ²Ð½Ñĭ": 7045,
      "ĠÑĨÐ°ÑĢÐµÐ²Ð½Ð¾Ð¹": 7046,
      "Ġbal": 7047,
      "ĠÐ¿Ð¾Ð±ÐµÐ³": 7048,
      "ĠÐºÐ°Ð¼Ð½Ð¸": 7049,
      "ĠÐºÐ°Ð¼ÐµÐ½ÑĮÑı": 7050,
      "ĠÑģÐ²Ð¾Ð±Ð¾Ð´Ðµ": 7051,
      "ĠÑģÐ²Ð¾Ð±Ð¾Ð´Ñĥ": 7052,
      "ĠÑĢÑĭÐ±ÐºÐµ": 7053,
      "ĠÑģÐµÐ¼ÑĮÐµ": 7054,
      "ĠÑĤÑĢÐµÐ¿ÐµÑĤÐ°Ð»": 7055,
      "ĠÑĤÑĢÐµÐ¿ÐµÑĤÐ½ÑĭÐ¼": 7056,
      "ĠÐ²ÑĭÑģÐ¾ÐºÐ¸Ð¹": 7057,
      "ĠÑĥÐ³ÑĢÐ¾Ð¶": 7058,
      "ĠÑĥÐ³ÑĢÐ¾Ð·Ñĭ": 7059,
      "ĠÑĩÐ¸ÑģÑĤÐ¾Ð¼": 7060,
      "ĠÑĩÐ¸ÑģÑĤÑĭÑħ": 7061,
      "ĠÐĶÑĥÑĪÐ¸": 7062,
      "ÐµÑģÑĤÐ²Ð¾Ð¼": 7063,
      "ÐĺÐ·": 7064,
      "ÐŀÐ½": 7065,
      "ĠÐ¸ÑģÐºÐ°ÑĤÑĮ": 7066,
      "ĠÐŁÐ¾ÐºÐ»Ð¾Ð½": 7067,
      "ĠÐ¼Ð¾Ð»Ð²Ð¸Ð»Ð°": 7068,
      "ĠÐ¾Ð·ÐµÑĢÐ¾Ð¼": 7069,
      "ĠÐ³Ð¾Ð½Ð¸ÑĤÐµÐ»ÑĮ": 7070,
      "ĠÐĴÐµÑģÐµÐ»ÑĮÑı": 7071,
      "ĠÐĴÐµÑģÐµÐ»ÑĭÑħ": 7072,
      "ĠÐ·Ð°ÑģÑĭÐ¿": 7073,
      "ĠÑĢÑĥÑģÑģÐºÐ¸Ñħ": 7074,
      "ĠÐļÑĢÐ°ÑģÑĥ": 7075,
      "ĠÐłÐ°ÑģÑģÑĤ": 7076,
      "ĠÐ´ÑĢÑĥÐ¶Ð±Ñĥ": 7077,
      "ÑĩÐµÐ½ÑĭÐ¹": 7078,
      "ĠÑĤÐ¾ÑģÐºÐ¸": 7079,
      "ĠÑĤÐ¾ÑģÐºÐ°": 7080,
      "ĠÐ±ÐµÐ³Ðµ": 7081,
      "ĠÐ¿ÑĢÐµÐ·ÑĢÐµÐ²": 7082,
      "ĠÐĶÑĢÑĥÐ³Ð¸Ðµ": 7083,
      "ĠÑħÐ¾Ð»Ð¼Ð°": 7084,
      "ĠÑħÐ¾Ð»Ð¼Ð¾Ð²": 7085,
      "ĠÑħÐ¾Ð»Ð¼Ð¾Ð¼": 7086,
      "ĠÑıÑģÐ½Ñĭ": 7087,
      "ĠÐľÐ¾ÐµÐ¹": 7088,
      "ĠÑģÐ¼Ð¸ÑĢÐµÐ½Ð½Ð¾Ð¹": 7089,
      "ĠÐ±ÐµÐ·ÑĥÐ¼Ð½ÑĭÑħ": 7090,
      "ĠÐºÑĢÐ°ÑģÐ°Ð²ÑĨÑĭ": 7091,
      "ĠÐºÑĢÐ°ÑģÐ°Ð²Ð¸ÑĨÑĥ": 7092,
      "ĠÐºÑĢÐ°ÑģÐ¾ÑĤÐ°": 7093,
      "ĠÐ¾ÑħÐ¾ÑĤ": 7094,
      "ĠÐ·ÑĢÐµÐ»Ð¸": 7095,
      "ĠÐ·ÑĢÐ¸ÑĪÑĮ": 7096,
      "ĠÑĢÐ¾ÑīÐ°Ñħ": 7097,
      "ĠÐŁÐ»Ð°ÑĤ": 7098,
      "ĠÐŁÐ»Ð¾Ð´Ñĭ": 7099,
      "ĠÐ¡ÑĤÐ°ÑĢÐ¸Ðº": 7100,
      "ĠÐ¡ÑĤÐ°ÑĢÑĪÐ¸Ð¹": 7101,
      "ĠÐ±ÑĭÑģÑĤÑĢÑĭÐµ": 7102,
      "ĠÑĤÑıÐ¶ÐµÐ»": 7103,
      "ĠÑĤÑıÐ¶ÐºÐ¾": 7104,
      "ĠÑĤÑıÐ¶ÐºÐ¸Ðµ": 7105,
      "ĠÐ±Ð¾Ð»ÑĮÐ½Ð¾Ð¹": 7106,
      "ĠÐ¿ÑĢÐ°Ð·Ð´Ð½Ð¾ÑģÑĤÐ¸": 7107,
      "ĠÐŀÑģÑĤÐ°Ð²Ð¸Ð¼": 7108,
      "ĠÑĢÐ°Ð·Ð»ÑĥÑĩ": 7109,
      "ĠÐ±ÐµÑģÐ¿ÐµÑĩÐ½Ð¾ÑģÑĤÐ¸": 7110,
      "ÐĶÐ°": 7111,
      "ÐĶÐ¾Ð±ÑĢÑĭÐ¹": 7112,
      "ĠÐ¿ÑĢÐ¸Ð¼ÐµÑĢÐ¾Ð¼": 7113,
      "ĠÑģÑĤÐ°Ð½Ñĥ": 7114,
      "Ð²ÐµÑģÑĤÐ½Ð¾Ð¹": 7115,
      "ĠÐŁÐ¾ÑĤÐ¸Ñħ": 7116,
      "ĠÐĳÐµÑģÐµÐ´": 7117,
      "ĠÑĢÐµÐ·Ð²ÑĭÑħ": 7118,
      "ĠÑĢÐµÐ·Ð²Ð¾ÑģÑĤÐ¸": 7119,
      "ĠÐ²ÑĢÐ°Ð³Ð°": 7120,
      "ĠÐ¿ÑĢÐ¸Ð´ÑĥÑĤ": 7121,
      "ĠÑĢÐµÐºÐµ": 7122,
      "ĠÑĢÐµÐºÐ¾Ð¹": 7123,
      "ĠÐĽÐµÑĤÐ¸ÑĤÐµ": 7124,
      "ĠÑĥÐ´Ð°Ð»Ð¾Ð¹": 7125,
      "ĠÑĥÐ¿Ð¾ÐµÐ½ÑĮÐµÐ¼": 7126,
      "ors": 7127,
      "ĠÐ¼Ð½Ð¸Ð»": 7128,
      "ĠÑĤÐµÐ°ÑĤ": 7129,
      "ĠÐºÐ°Ð·Ð°Ðº": 7130,
      "ĠÐºÐ°Ð·Ð½ÑĮ": 7131,
      "ĠÐ¿ÑĢÐ¾Ð·Ñĭ": 7132,
      "ĠÐľÐ¾Ð»Ð²": 7133,
      "ĠÑİÐ½Ð¾ÑĪÐ¸": 7134,
      "ĠÑİÐ½Ð¾ÑĪÑĥ": 7135,
      "ĠÐ¾ÑĢÐµÑħ": 7136,
      "ĠÐ¿ÑĢÐ¾Ð¸Ð·": 7137,
      "ĠÐŁÐ¾Ð²ÑģÑİÐ´Ñĥ": 7138,
      "Ã¨re": 7139,
      "ĠÐ½Ð¸ÑĩÐµÐ¼": 7140,
      "ĠÑĥÐ³ÑĢÑİÐ¼Ð¾": 7141,
      "ĠÑģÐ¾Ð²ÐµÑĤÐ°": 7142,
      "ĠÐ¿ÑĢÐ¸ÑĢÐ¾Ð´Ðµ": 7143,
      "ĠÐĳÑĢÐ¾Ð´Ð¸ÑĤÑĮ": 7144,
      "ĠÑģÐºÑĥÑĩÐµÐ½": 7145,
      "ĠÑĢÐ°Ð·Ð²ÑĢÐ°ÑĤ": 7146,
      "ĠÐ±Ð»ÐµÑģÐ½ÑĥÐ»": 7147,
      "Ð°ÑĦÐ°": 7148,
      "ĠÐºÐ»ÐµÐ²": 7149,
      "ĠÐºÐ»ÑĥÐ±": 7150,
      "ĠÐ¾ÑĤÐºÑĢÑĭÐ»": 7151,
      "ĠÑĢÐ°Ð·Ð³ÑĥÐ»ÑĮ": 7152,
      "ĠII": 7153,
      "ĠÑģÑĤÑĢÑĥÐ¸": 7154,
      "ĠÑģÑĤÑĢÑĥÐµÐ¹": 7155,
      "ĠÑĤÑĥÐ¼Ð°Ð½Ð°Ñħ": 7156,
      "ĠÐ³Ð¾ÑĤÐ¾Ð²Ð¾": 7157,
      "ĠÐ¿ÑĢÐ¾Ð¼ÑĩÐ°Ð»ÑģÑı": 7158,
      "ĠÑģÑĤÑĭÐ´Ð»Ð¸Ð²Ð¾Ð¹": 7159,
      "ĠÐľÐ»Ð°Ð´ÑĭÐµ": 7160,
      "ĠÐ§ÐµÑĢÐ½Ð¾Ð¼Ð¾ÑĢ": 7161,
      "ĠÐ¸Ð·Ð¼ÐµÐ½Ð¸Ð»Ð°": 7162,
      "ĠÐ¿ÑĢÐ¸ÑıÑĤÐ½ÑĭÐ¹": 7163,
      "ĠÐ±ÐµÑģÑģÐ¼ÑĭÑģ": 7164,
      "ĠÐ´Ð¾Ð»Ð³Ð¸Ñħ": 7165,
      "ĠÐ´Ð¾Ð»Ð³ÑĥÑİ": 7166,
      "ĠÐ´Ð¾Ð»Ð³Ð¸Ðµ": 7167,
      "ĠÐ¤ÐµÐ±Ð¾Ð¼": 7168,
      "ĠÑĥÑģÐ»Ð°Ð¶Ð´": 7169,
      "ĠÐ²ÑģÑıÐºÐ¸Ð¹": 7170,
      "ĠÐ²ÑģÑıÐºÐ¾Ð³Ð¾": 7171,
      "ĠÐºÐ¾ÑĤÐ¾ÑĢÐ¾Ð¹": 7172,
      "ĠÐĴÐµÐ½ÐºÐ¸": 7173,
      "ĠÐĴÐµÐ½ÐµÑĢÐ¾Ð¹": 7174,
      "ĠÐĸÐ¸Ð²ÐµÑĤ": 7175,
      "ÐĵÑĢ": 7176,
      "ĠÑģÐ¾ÐºÑĢÑĭÐ»ÑģÑı": 7177,
      "ĠÐ»Ð¸ÑģÑĤÑĭ": 7178,
      "ĠÐ·Ð²ÑĥÐºÐµ": 7179,
      "omme": 7180,
      "ĠÐ¿ÑĢÐ¾Ð¿Ð°Ð»": 7181,
      "Ð»Ð¸Ð·Ð¸": 7182,
      "ĠÐ¾ÑĤÐ´Ð°Ð»ÐµÐ½Ð½ÑĭÐ¹": 7183,
      "ĠÐ¾ÑĤÐ´Ð°Ð»ÐµÐ½Ð½Ð¾Ð¹": 7184,
      "ĠÐ¾ÑĤÐ´Ð°Ð»ÐµÐ½ÑĮÐ¸": 7185,
      "ĠÐĵÐ»ÑĥÑħ": 7186,
      "ĠÐĵÐ»Ð°Ð·Ð°": 7187,
      "ĠÑģÐºÑĢÑĭÑĤ": 7188,
      "ĠÐ¾Ð±ÑĢÐ°Ð·Ð¾Ð¼": 7189,
      "Ġchose": 7190,
      "ĠÑĢÐ°Ð½Ð½Ð¸Ð¹": 7191,
      "ĠÐ¶Ð°Ð»Ð¾Ð±": 7192,
      "ĠÐ£Ð¼Ð½Ð¾Ð¶": 7193,
      "ĠÐ±ÐµÐ·Ð´Ð½Ð¾Ð¹": 7194,
      "ĠÐ½Ð°Ð´ÐµÐ¶Ð½Ð¾Ð¹": 7195,
      "ĠÐ½Ð°Ð´ÐµÐ¶Ð´Ð°": 7196,
      "ĠÐ½Ð°Ð´ÐµÐ¶Ð´Ñĥ": 7197,
      "ĠÐºÐ¾ÑĢÐ°Ð±Ð»ÐµÐ¹": 7198,
      "ĠÐ²Ð¾ÑĢÐ¾ÑĤÐ¸Ð»ÑģÑı": 7199,
      "ĠÐ»ÑĥÐ³Ð°Ñħ": 7200,
      "ĠÐłÐ°Ð´Ð¸Ð²Ð¾Ñİ": 7201,
      "ĠÐ¿ÑĢÐ¸Ð²ÐµÑĤÐ°": 7202,
      "ĠÐ·Ð°Ð´ÑĥÐ¼ÑĩÐ¸Ð²ÑĭÐ¹": 7203,
      "ĠÐ¿Ð¾Ð½ÐµÐ¼Ð½": 7204,
      "ĠÐ¿Ð¾Ð½ÐµÐ²Ð¾Ð»Ðµ": 7205,
      "ÐµÐ»Ð¸ÐºÐ¾Ð¹": 7206,
      "ĠÐ¶ÐµÑģÑĤÐ¾ÐºÐ¾": 7207,
      "ĠÑģÐºÑĢÐ¾Ð¼Ð½ÑĭÐ¹": 7208,
      "ĠÑģÐºÑĢÐ¾Ð¼Ð½Ð¾Ð¹": 7209,
      "ĠÑĤÑĢÐ¾Ð½Ðµ": 7210,
      "Ð¸ÑĩÐµÑģÐºÐ¸Ñħ": 7211,
      "ĠÐŁÐ¾ÑįÑĤÐ¾Ð²": 7212,
      "ĠÑĤÐ°Ð¸Ð½ÑģÑĤÐ²ÐµÐ½Ð½Ð¾Ð¹": 7213,
      "Ġ18": 7214,
      "ĠÐ¿ÐµÐ½Ð¸ÑģÑĤÑĭÐ¹": 7215,
      "ĠÐ½Ð°Ð±Ð»Ñİ": 7216,
      "ĠÐ´Ð¸ÐºÐ¸Ñħ": 7217,
      "ĠÐ·Ð°Ð»Ð¸Ð²": 7218,
      "ĠÐŁÐµÐ²ÑĨÑĭ": 7219,
      "ĠÑģÐ²Ð¸Ð´Ð°Ð½ÑĮÐµ": 7220,
      "ĠÑģÐ²ÑıÑīÐµÐ½Ð½Ð¾Ð¹": 7221,
      "ĠÐĹÐ»Ð¾Ð´ÐµÐ¹": 7222,
      "ĠÐºÑĢÐ¸ÐºÐ¾Ð¼": 7223,
      "ĠÐ½ÐµÐ²Ð¸Ð½Ð½Ð¾Ð¹": 7224,
      "ĠÐ±Ð»Ð¸ÑģÑĤÐ°ÑİÑĤ": 7225,
      "ĠÐ´Ð¾ÑģÑĤÐ¾Ð¹": 7226,
      "ĠÐ´Ð²ÐµÑĢÑıÑħ": 7227,
      "ĠÐĿÐ°ÑĢÐ¾Ð´Ñĭ": 7228,
      "ĠÐ¶ÐµÑĢÑĤÐ²Ñĥ": 7229,
      "Ð»ÑıÐ»ÑģÑı": 7230,
      "ĠÑĤÑĢÐµÐ²Ð¾Ð¶Ð¸ÑĤÑĮ": 7231,
      "ĠÑĥÐ¼ÐµÑĢÐ»Ð°": 7232,
      "ĠÐ½Ð°Ð²ÐµÐºÐ¸": 7233,
      "ass": 7234,
      "ĠÑģÐ¸Ð½Ñı": 7235,
      "ĠÐ¿ÑĥÑĤÐµÐ¼": 7236,
      "ĠÐ»Ð¾Ð²Ð¸ÑĤ": 7237,
      "ĠÐĿÐµÐ´Ð°Ð²Ð½Ð¾": 7238,
      "ĠÐŁÐ¾ÐºÑĢÑĭÑĤÑĭÐ¹": 7239,
      "ĠÐ¿Ð¾Ð´ÑĢÑĥÐ³Ð°": 7240,
      "ĠÐ¼Ð¾Ð»Ð¸ÑĤÐ²Ð¾Ð¹": 7241,
      "ĠÐ¿ÑĢÐ¸Ð±ÑĢÐµÐ¶": 7242,
      "ĠÐ²ÐµÑĤÑĢÐµÐ½Ð¾Ð¹": 7243,
      "ĠÐ²ÐµÑĤÑĢÐµÐ½ÑĭÑħ": 7244,
      "ĠÐ´ÐµÑĢÐµÐ²Ð½Ðµ": 7245,
      "ĠÑģÐµÐ²ÐµÑĢÐ½Ð¾Ð¹": 7246,
      "ĠÐ²Ð»Ð°Ð´Ñĭ": 7247,
      "ĠÐ¿Ð¾Ð¹Ð¼": 7248,
      "ĠÐ¿ÐµÑīÐµÑĢÑĭ": 7249,
      "ĠÑĤÐ¾Ð¿Ð¾Ð»": 7250,
      "ĠÐ¾ÐºÑĢÐ¸Ð»": 7251,
      "ĠÐ±Ð¾Ð¸ÑĤÑģÑı": 7252,
      "ĠÐºÑĢÐ°Ñİ": 7253,
      "Ð¾ÑĢÐ¾ÑĪÐ¾": 7254,
      "ĠÑĢÑĥÐ¼ÑıÐ½ÑĭÐ¹": 7255,
      "ĠÑģÐ»ÑĥÑĪÐ°ÐµÑĤ": 7256,
      "ĠÐ¾ÑĤÐºÐ°Ð·": 7257,
      "ĠÑħÐ²Ð°Ð»Ñĭ": 7258,
      "ĠÑħÐ²Ð°Ð»Ð¸ÑĤ": 7259,
      "ĠÐ²ÑģÑİÐ´Ñĥ": 7260,
      "ĠÐ¿Ð¾Ð»ÐµÑĤÐµÐ»": 7261,
      "ĠÐ¿ÑĢÐ¸ÑģÑĤÐ°ÑĤÑĮ": 7262,
      "ĠÐ¿Ð°Ð¼ÑıÑĤÐ¸": 7263,
      "ĠSa": 7264,
      "ĠÃ©taient": 7265,
      "ĠÐ½ÑĢÐ°Ð²Ñĭ": 7266,
      "ĠÐ½ÑĢÐ°Ð²Ð¸ÑĤÑģÑı": 7267,
      "ĠÐ³ÑĥÐ±Ð¸ÑĤÐµÐ»ÑĮ": 7268,
      "ĠÐ¢Ð²Ð¾Ñİ": 7269,
      "ĠÐ¢Ð²Ð¾Ðµ": 7270,
      "ĠÐ¢Ð²Ð¾ÐµÑİ": 7271,
      "ĠÑĪÐ°Ð»Ð¾ÑģÑĤÐ¸": 7272,
      "ĠÐ¿ÐµÑĢÑģÑĤÐ¾Ð¼": 7273,
      "ĠÑĥÐ¼Ð¸Ð»ÐµÐ½ÑĮÑı": 7274,
      "ĠÐĳÐ»Ð°Ð³Ð¾ÑģÐ»Ð¾Ð²Ð¸": 7275,
      "ĠÐ¿Ð¾Ð»ÑĥÐ½Ð¾Ñī": 7276,
      "ĠEn": 7277,
      "ĠEt": 7278,
      "ĠÐ²ÑĢÑĥÑĩ": 7279,
      "ĠÐ¸ÑīÑĥ": 7280,
      "ĠÐļÐ°ÑĢÑĤ": 7281,
      "ĠÐ¢ÐµÐ¼Ð¸ÑĢ": 7282,
      "ĠÐľÐ¸Ð½ÑĥÑĤÐ½Ð¾Ð¹": 7283,
      "ĠÐĳÐµÐ´Ð½ÑĭÐ¹": 7284,
      "ĠÐĳÑĥÐ´ÐµÑĪÑĮ": 7285,
      "ĠÐ³ÑĢÑıÐ´Ñĥ": 7286,
      "ĠÐ¯Ð²Ð¸Ð»ÑģÑı": 7287,
      "ĠÑĪÐ¸ÑĢÐ¾ÐºÐ¾Ð¹": 7288,
      "ĠÑģÐ¼ÐµÑħÐ¾Ð¼": 7289,
      "ĠÐ¿Ð¾ÐºÑĢÑĭÐ²Ð°Ð»": 7290,
      "ĠÐ·Ð½Ð°ÐºÐ¾Ð¼ÑĭÐµ": 7291,
      "ĠÐ¡Ð¿ÐµÑĪÐ¸ÑĤ": 7292,
      "ĠÐ»ÑİÐ´ÑıÐ¼": 7293,
      "ĠÐ¾Ð±Ð»Ð°ÐºÐ¾Ð²": 7294,
      "ĠÐ´Ð¾Ð±ÑĭÑĩ": 7295,
      "ĠÐ·Ð¸Ð¼Ð½Ð¸Ð¹": 7296,
      "ĠÐ·Ð°Ð±ÑĭÐ²Ð°Ñİ": 7297,
      "ĠÐ¿Ð¾Ð²ÐµÑĢÑħ": 7298,
      "ĠÐ¿Ð¾Ð²ÐµÑĢÐ¸Ð»": 7299,
      "ĠÐ¿Ð¾Ð·Ð´Ð½Ð¾": 7300,
      "ĠÑĤÐ¾ÑĢÐ¶ÐµÑģÑĤÐ²Ð¾": 7301,
      "ĠÑĨÐµÐ½Ñĥ": 7302,
      "ĠÐ¾Ð±Ð½Ð°Ð¶ÐµÐ½": 7303,
      "ĠÐ³Ð¾ÑĢÐµÑģÑĤÐµÐ¹": 7304,
      "ĠÐ¿Ð»ÐµÑĩÐ°Ñħ": 7305,
      "ĠÐ¿Ð»ÐµÐ½ÑıÐµÑĤ": 7306,
      "ĠÐ½Ð°Ð¿ÑĢÐ°ÑģÐ½Ð¾Ð¹": 7307,
      "ĠÑģÐ¾Ð»Ð¾Ð²": 7308,
      "ĠÐ½ÑĥÐ¶ÐµÐ½": 7309,
      "ĠÐ½ÑĥÐ¶Ð½Ñĭ": 7310,
      "ĠÐ´ÐµÐ½ÐµÐ³": 7311,
      "ĠÐ±ÑĥÐ¹Ð½ÑĭÐ¹": 7312,
      "ĠÐºÑĥÐ´ÑĢÐ¸": 7313,
      "ĠÐ½ÐµÑĩÐ°ÑıÐ½": 7314,
      "ĠÐĵÐ»ÑıÐ´ÑĮ": 7315,
      "ĠÐºÑĢÐµÐ¿ÐºÐ¾": 7316,
      "ĠÑĤÑĢÐµÐ¿ÐµÑī": 7317,
      "ĠÐ¿ÑĢÐµÐ´ÐµÐ»Ñĭ": 7318,
      "ĠÐ¼ÑĭÑģÐ»Ð¸ÑĤ": 7319,
      "ĠÑĢÐ°Ð´Ð¾ÑģÑĤÐµÐ¹": 7320,
      "ĠÐ¾ÑĤÐ²ÐµÑĩÐ°Ð»": 7321,
      "ĠÐ¾ÑĤÐ²ÐµÑĩÐ°ÑĤÑĮ": 7322,
      "ĠÐ½ÐµÐ½Ð°Ð²Ð¸ÑģÑĤ": 7323,
      "ĠÐ½ÐµÐ½Ð°Ð²Ð¸Ð¶Ñĥ": 7324,
      "ĠÐ²Ð½ÐµÐ·Ð°Ð¿": 7325,
      "ĠÐ¿ÑĢÐ¾Ð»ÐµÑĤ": 7326,
      "ĠÐ¿ÑĢÐ¾ÑĤÐµÐº": 7327,
      "ĠÑĢÑĭÑĨÐ°ÑĢ": 7328,
      "Ð¾Ð¶Ð°Ð»ÑĥÐ¹": 7329,
      "ĠÐ¿Ð¾ÐºÑĢÐ¾Ð²Ð¸ÑĤÐµÐ»ÑĮ": 7330,
      "ĠÐŀÑĤÐ´Ð°Ð¹": 7331,
      "ĠÐĿÐ°Ð´ÐµÐ¶Ð´Ð¾Ð¹": 7332,
      "ĠĠĠĠĠĠĠĠĠĠĠĠĠĠĠĠĠĠĠĠĠ": 7333,
      "ĠÐ¿Ð°ÑĢÐ½Ð°ÑģÑģÐºÐ¸Ñħ": 7334,
      "ĠÐļÑĥÐ¿Ð¸Ð´Ð¾Ð½Ð°": 7335,
      "ĠÐĴÐ½ÐµÐ¼Ð»Ð¸ÑĤÐµ": 7336,
      "ĠÐ¡ÑĥÐ´ÑĮÐ±Ñĭ": 7337,
      "ĠÑĥÑħÐ²Ð°ÑĤ": 7338,
      "ĠÑıÐ´Ð¾Ð¼": 7339,
      "ĠÑĢÐ°Ð·ÑĢÐµÑĪ": 7340,
      "ĠÐ¿Ð»ÐµÐ¼Ñı": 7341,
      "Ġpeut": 7342,
      "ĠÑĥÐ³Ð°ÑģÐ°Ð»": 7343,
      "ĠÐ¨ÑĥÐ¼Ð¸ÑĤ": 7344,
      "ĠÐ²Ð¿ÐµÑĢÐµÐ´": 7345,
      "ĠÐ½ÐµÐ½Ð°ÑģÑĤÐ½ÑĭÐ¹": 7346,
      "Ð½Ð°Ð´ÑĨÐ°ÑĤÑĮ": 7347,
      "ĠÑģÐºÐ°ÑĩÐµÑĤ": 7348,
      "ĠÐ¿ÐµÐ¿ÐµÐ»": 7349,
      "ĠÐ¿ÐµÐ¿ÐµÐ»Ð¸": 7350,
      "ĠÐ³Ð¸Ð¼Ð½Ñĭ": 7351,
      "ĠÐ¿ÑĢÐ¾ÑĢÐ¾Ñĩ": 7352,
      "ĠÐ¿ÑĢÐµÐ²ÑĢÐ°ÑĤ": 7353,
      "ĠÐŁÐ¸Ð½Ð´Ð°": 7354,
      "ĠÑħÐ¸ÑĤÑĢÑĭÐ¹": 7355,
      "ĠÐŁÑĢÐ¾Ð¸Ð·": 7356,
      "ĠÐŁÑĢÐ¸Ð±ÐµÐ³": 7357,
      "ĠÐŁÑĢÐ¸Ð±Ð»Ð¸Ð¶": 7358,
      "ĠÐ¾Ð±ÐµÑīÐ°Ð»": 7359,
      "ĠÐ¡ÑĤÑĢÐ°ÑĪÐ½Ð¾": 7360,
      "ĠÐ¾Ð´Ð½Ð°ÐºÐ¾": 7361,
      "ĠÐ¥Ð²Ð°Ð»Ñİ": 7362,
      "ĠÐ½ÐµÐ²Ð¸Ð´Ð¸Ð¼Ð¾": 7363,
      "ĠÐ¡ÐºÐ»Ð¾Ð½ÑıÑģÑĮ": 7364,
      "ĠÐ¸Ð¼ÐµÐ½Ð¸Ð½Ñĭ": 7365,
      "ĠÐĳÐµÑģÐ¿ÐµÑĩÐ½ÑĭÐ¹": 7366,
      "ĠâĢĶâĢĶâĢĶâĢĶâĢĶâĢĶ": 7367,
      "ĠÐ®Ð²ÐµÐ½": 7368,
      "ĠÐ¿ÐµÑģÑĤÑĢ": 7369,
      "Ð¾Ð»ÑİÐ±Ð¸Ð²Ð¾Ð¹": 7370,
      "ĠÐºÐ°ÑĤÐ¸ÑĤÑģÑı": 7371,
      "ĠÐ³Ð¾ÑģÑĥÐ´Ð°ÑĢÑĭÐ½Ñı": 7372,
      "ĠÐĴÐµÐ»Ð¸ÐºÐ¾Ð´ÑĥÑĪ": 7373,
      "ĠÐŁÐ°Ð´ÐµÑĤ": 7374,
      "ĠÐ¢Ð¾Ð»Ð¿Ð¾Ñİ": 7375,
      "ĠÐĹÐ°ÑĤÐ¾": 7376,
      "inthe": 7377,
      "ĠÐ²Ð¾Ð·Ð²ÑĭÑĪÐµÐ½Ð½Ð¾Ð¹": 7378,
      "ĠÐĿÐ°ÑĢÐ¾Ð´Ð¾Ð²": 7379,
      "ĠÐŁÐ¾ÑģÐ¼Ð¾ÑĤÑĢ": 7380,
      "ĠÐ¼Ð¸Ð½ÑĥÐ²ÑĪÐ¸Ñħ": 7381,
      "ĠÐ´Ð¾ÐºÑĥÑĩÐ½ÑĭÐ¹": 7382,
      "ĠÐ·Ð°Ð½ÑıÑĤ": 7383,
      "ĠÐ¡Ð°ÑĤÐ¸ÑĢ": 7384,
      "ĠÐ¡Ð¾ÐºÑĢÑĭÑĤ": 7385,
      "ĠÐļÑĢÐ¾Ð²ÑĮ": 7386,
      "ĠÐĽÐ¸Ð»Ñĥ": 7387,
      "ĠÑĤÑĢÐµÑĤÐ¸Ð¹": 7388,
      "ĠÑĤÑĢÐµÑĤÑĮÑİ": 7389,
      "ĠÑģÐ¿ÑĢÐ¾ÑģÐ¸Ð»Ð°": 7390,
      "ĠÐ¤ÐµÐ¾Ð´Ð¾ÑĢ": 7391,
      "ĠÐ¿Ð¾Ð³ÑĢÑĥÐ¶ÐµÐ½": 7392,
      "Ġquelques": 7393,
      "ĠÐ·Ð°ÑĤÐ¾ÑĩÐµÐ½ÑĮÐµ": 7394,
      "ĠÑĤÐ¾ÑģÐºÑĥÑı": 7395,
      "ĠÐĵÑĢÑĥÑģÑĤÐµÐ½": 7396,
      "ĠÐºÑĥÐ¿Ð»ÐµÑĤÑĭ": 7397,
      "able": 7398,
      "ĠÐ»ÐµÐ»ÐµÑı": 7399,
      "ĠÐ»Ð°Ð¼Ð¿Ð°Ð´Ñĥ": 7400,
      "ĠÐ³ÑĥÐ»ÑıÑĤÑĮ": 7401,
      "ĠÐŀÐºÐ¾Ð²Ð°Ð½": 7402,
      "ĠÐµÐ²ÑĢÐµÐ¹": 7403,
      "ĠÑħÑĥÐ´Ð¾Ð¶Ð½Ð¸Ðº": 7404,
      "ĠÐŁÑĢÐµÐ·ÑĢÐµÐ²": 7405,
      "ĠÐ¿Ð¾Ð´ÑĬÐµÐ¼Ð»ÐµÑĤ": 7406,
      "ĠÑģÐ²ÐµÑĤÐ»ÑĭÐµ": 7407,
      "ĠÐ¥ÑĢÐ¸ÑģÑĤÐ°": 7408,
      "ĠÐŁÐ¾Ð½Ð¸ÐºÐ½ÑĥÐ²": 7409,
      "Ġcomme": 7410,
      "ĠÐĴÐµÑĩÐµÑĢÐ½ÐµÑİ": 7411,
      "ÑĥÑĢÐ°ÑĩÐ¸Ð½Ð°": 7412,
      "ĠÐ²Ð»Ð°ÑĩÐ¸Ð»": 7413,
      "ĠÐ¿Ð»ÑıÑģ": 7414,
      "ĠÑĤÐ¸ÑĢÐ°Ð½": 7415,
      "ĠÐĴÐ¾Ð»ÑĮÑĤ": 7416,
      "ĠÐĴÑĢÐ°Ð³Ð¸": 7417,
      "ĠÐ¶ÐµÑĢÑĤÐ²Ð°": 7418,
      "ĠÐĶÐ²ÐµÑĢÑĮ": 7419,
      "ĠÐŁÑĢÐ¾Ð·ÑĢÐ°Ñĩ": 7420,
      "ĠÐ¿Ð¾Ð´Ð±Ð¾ÑĢ": 7421,
      "ĠÐ²Ð¾Ð»Ð½ÑĥÐµÑĤ": 7422,
      "ĠÑģÐ²ÐµÑĤÐ»Ð¸ÑĨÑĥ": 7423,
      "ĠÐºÐ¾Ð½ÑİÑĪÐ½Ð¸": 7424,
      "ĠÑģÐµÑģÑĤÑĢÐ¸ÑĨÐ°": 7425,
      "ĠÐ²Ð¾Ð¿ÑĢÐ¾ÑĪÐ°ÐµÑĤ": 7426,
      "ĠÐºÑĥÐ´ÑĢÑıÐ²ÑĭÐ¹": 7427,
      "ĠÐ²Ð¸ÑħÐ¾ÑĢÑĮ": 7428,
      "ĠÐ²ÐµÑĪÐ½Ð¸Ð¹": 7429,
      "ĠÐºÐ°Ð±Ð¸Ð½ÐµÑĤ": 7430,
      "ĠÐºÐ½ÑıÐ·Ñİ": 7431,
      "ĠÐºÐ°ÑĦÑĤÐ°Ð½": 7432,
      "ĠÐĴÐ±Ð»Ð¸Ð·Ð¸": 7433,
      "ĠÐĴÐµÐ»Ð¸ÐºÐ°Ð½Ñĭ": 7434,
      "ĠÑĢÐµÐ²Ð½Ð¾ÑģÑĤÐ¸": 7435,
      "ĠÐ¢Ð¾ÑģÐºÑĥ": 7436,
      "ĠÑĩÐµÑĢÐ´Ð°Ðº": 7437,
      "ĠÐĵÐµÐ»Ð¸ÐºÐ¾Ð½Ð°": 7438,
      "ĠÐŁÑĢÐ¸Ð¿Ð»ÑĭÐ»Ð°": 7439,
      "ĠÐĽÑĥÐºÐ°Ð²ÑĭÐ¹": 7440,
      "ĠÐ¿Ð¾Ð´Ð¶Ð¸Ð´": 7441,
      "ĠÐ²Ð¾Ð·Ð¼ÑĥÑĤ": 7442,
      "ĠÐ½Ð°Ð¿ÐµÑĢÑģÐ½Ð¸Ðº": 7443,
      "ĠÑĥÐ·Ð½Ð°ÐµÑĤ": 7444,
      "ĠÐ´ÑĢÐµÐ¼Ð»ÑİÑīÐ¸Ð¹": 7445,
      "ĠÐ´Ð²Ð¾ÑĢÑıÐ½ÐºÐ¾Ð¹": 7446,
      "ĠÐ¿ÑĢÐ¾ÑħÐ¾Ð¶Ð¸Ð¹": 7447,
      "ĠÑħÑĢÐ°Ð±ÑĢ": 7448,
      "ĠÐĴÐ°ÑĢÑĪÐ°Ð²Ñĭ": 7449,
      ".></": 7450,
      "ĠHyac": 7451,
      "ĠÐ²ÐµÑģÑĤÐµÐ¹": 7452,
      "ĠÐ²ÑĮÑİÑĤÑģÑı": 7453,
      "ĠÐ¿Ð¸ÑīÑĥ": 7454,
      "ĠÐ¿Ð¾Ð»ÑĮÐ·Ñĭ": 7455,
      "Ð´ÐµÐ²Ð¸ÑĨÐ°": 7456,
      "ĠÐ´Ð»Ð°Ð½ÑĮ": 7457,
      "ĠÐ±Ð°ÑĤÑİÑĪÐºÐ°": 7458,
      "ĠÑĩÐµÑĪÑĥÐµ": 7459,
      "ĠÐ¯Ð½ÐºÐ¾": 7460,
      "ĠÐ¥ÑĢÐ¸Ð·Ð¸Ñĩ": 7461,
      "Ð¡Ð¼Ð¸Ð»ÑĥÐ¹ÑģÑı": 7462,
      "ĠÐ½Ð¾Ð²Ð¾ÑģÐµÐ»ÑĮÐµ": 7463,
      "ĠÐ·Ð°ÑĤÐ¼ÐµÐ²Ð°ÐµÑĤ": 7464,
      "Ġjeune": 7465,
      "ĠÐ²Ð»Ð°ÑģÑĤÐµÐ»Ð¸Ð½": 7466,
      "ĠÑģÑĤÐ°Ð½Ð¾Ð²Ð¸ÑĤÑģÑı": 7467,
      "Ġguzla": 7468,
      "ĠÑĢÐ¾ÑģÐºÐ¾ÑĪÑĮ": 7469,
      "ĠÑħÐ¾Ð·ÑıÐ¹ÐºÐ°": 7470,
      "ĠÑģÐ½Ð¸ÑģÑħ": 7471,
      "ĠÐ¿Ð°ÑģÐ¼ÑĥÑĢ": 7472,
      "ĠÐ±ÑĭÑĤÐ¸Ñı": 7473,
      "ĠÐºÐ¸Ð½ÑĥÐ»ÑģÑı": 7474,
      "ĠÑıÐ±Ð»": 7475,
      "ĠÑħÐ°Ð»Ð°ÑĤ": 7476,
      "ĠÐ§Ð°ÑģÑĤÐ¾": 7477,
      "ĠÐ»Ð¸ÑĨÐµÐ¼ÐµÑĢ": 7478,
      "ĠÐ¿ÑĢÐµÐ´ÑĢÐ°ÑģÑģÑĥÐ¶Ð´ÐµÐ½Ð¸Ð¹": 7479,
      "ĠÐ±ÐµÑģÐ¿Ð¾Ð»ÐµÐ·": 7480,
      "ĠÐŃÐ¿Ð¸Ðº": 7481,
      "ĠÐºÐ¾Ð»ÑĭÐ±ÐµÐ»ÑĮ": 7482,
      "ĠÑıÐ·Ð²Ð¸ÑĤÐµÐ»ÑĮ": 7483,
      "ĠÐļÐ¾Ð»Ð¾ÐºÐ¾Ð»ÑĮÑĩÐ¸Ðº": 7484,
      "ĠÐ±Ð»Ð°Ð³Ð¾Ð¿Ð¾Ð»ÑĥÑĩÐ½Ð¾": 7485,
      "ĠÐ¼Ð¾ÑĩÐ¸": 7486,
      "ĠÑĤÐ°Ð»Ð¸ÑģÐ¼Ð°Ð½": 7487,
      "ÑĨÐµÐ¿ÐµÐ½ÐµÐ»": 7488,
      "ĠÐŀÐ´ÑĥÐ»ÑĮ": 7489,
      "ĠÐĳÐ°Ð¹ÑĢ": 7490,
      "ĠÐ¯ÐºÑĥÐ±Ð¾Ð²Ð¸Ñĩ": 7491,
      "ĠÑģÐºÑĢÐ¸Ð¶Ð°Ð»Ð¸": 7492,
      "ĠÐ¿Ð¾Ð½ÐµÐ¼Ð½Ð¾Ð³Ñĥ": 7493,
      "ĠHyacinthe": 7494,
      "ĠÑģÐ½Ð¸ÑģÑħÐ¾Ð¶Ð´": 7495,
      ",*": 7496,
      ".<": 7497,
      ".****": 7498,
      ">]": 7499,
      "?)": 7500,
      "?....": 7501,
      "?>,": 7502,
      "An": 7503,
      "ale": 7504,
      "bre": 7505,
      "du": 7506,
      "der": 7507,
      "em": 7508,
      "ff": 7509,
      "gu": 7510,
      "ian": 7511,
      "ient": 7512,
      "lÃ©": 7513,
      "ni": 7514,
      "oc": 7515,
      "par": 7516,
      "um": 7517,
      "uv": 7518,
      "uis": 7519,
      "vo": 7520,
      "yeux": 7521,
      "®tre": 7522,
      "´t": 7523,
      "Ã´t": 7524,
      "ÌĢ": 7525,
      "Ġ3": 7526,
      "ĠX": 7527,
      "Ġ...": 7528,
      "Ġin": 7529,
      "Ġans": 7530,
      "Ġ................": 7531,
      "ĠÐ©": 7532,
      "Ð¾Ð¸": 7533,
      "Ð¾Ð½Ð¾": 7534,
      "ÑĤÐ°Ð²": 7535,
      "ÑĤÐ¾Ñģ": 7536,
      "ÑĤÐ°ÑĢÐ°": 7537,
      "Ð¸Ð°Ð»": 7538,
      "Ð¸Ð½Ð¸": 7539,
      "Ð¸ÑīÐµ": 7540,
      "Ð½ÐµÐ½": 7541,
      "Ð½Ð°Ð¼": 7542,
      "Ð½Ð½ÑĭÐ¹": 7543,
      "Ð½ÑıÑĤ": 7544,
      "Ð½Ð°Ð³": 7545,
      "Ð½Ð°ÑĤÑĭÐ¹": 7546,
      "ÑģÐºÐ°": 7547,
      "ÑĢÐ¾ÑĤ": 7548,
      "ÑĢÐ¸Ð²": 7549,
      "ÑĢÐ¾ÑģÑĤ": 7550,
      "ÑĢÐ¾Ð·": 7551,
      "ÑĢÐ°Ð¼Ð¸": 7552,
      "ÑĢÐ°Ð¶ÐµÐ½": 7553,
      "ÑĢÑĭÐ²Ð°Ð»": 7554,
      "Ð»Ð°ÑĤ": 7555,
      "Ð»Ð°Ð·": 7556,
      "Ð»Ð°Ñħ": 7557,
      "Ð»ÑĥÐ±": 7558,
      "Ð»Ð¾Ðµ": 7559,
      "Ð»ÐµÑĤÑģÑı": 7560,
      "Ð»ÐµÑĩÑĥ": 7561,
      "ÑĥÑģÑı": 7562,
      "ÑĭÐ½Ñı": 7563,
      "ÑĭÐ½ÐµÐ¹": 7564,
      "ÑĭÑĢÑı": 7565,
      "ÑĮÑģÑĤ": 7566,
      "ÑĮÑģÑı": 7567,
      "ÑĮÐ¼Ñĥ": 7568,
      "ÑıÐµÑĪÑĮ": 7569,
      "ÑıÐ´Ñĥ": 7570,
      "ÑıÑīÐµ": 7571,
      "ÑıÐ½ÑĥÐ»": 7572,
      "ĠÑģÐºÐ¸": 7573,
      "ĠÑģÐ¾Ð¶": 7574,
      "ĠÑģÐ¾Ñĩ": 7575,
      "ĠÑģÑĥÑĪ": 7576,
      "ĠÑģÑĥÐº": 7577,
      "ĠÑģÐ¸Ð»Ð°": 7578,
      "ĠÑģÑĢÑı": 7579,
      "ĠÑģÐ¸Ð¸": 7580,
      "ĠÑģÐ¸Ð¶Ñĥ": 7581,
      "ĠÑģÐ³Ð¾ÑĢ": 7582,
      "ĠÑģÑĩÐµÑĤ": 7583,
      "ĠÑģÑĢÐ°Ð²Ð½": 7584,
      "ĠÑģÑĥÑīÐµÑģÑĤÐ²": 7585,
      "ĠÐ²ÑĤ": 7586,
      "ĠÐ²Ñı": 7587,
      "ĠÐ²ÐµÑĢÑĤ": 7588,
      "ĠÐ²Ð¸ÑĪ": 7589,
      "ĠÐ²Ð¾Ð´Ð¸ÑĤ": 7590,
      "ĠÐ²ÑĢÐµÐ´": 7591,
      "ĠÐ²Ð¸Ð½Ðµ": 7592,
      "ĠÐ²Ð²ÐµÑĢ": 7593,
      "ĠÐ²ÑĤÐ¾ÑĢ": 7594,
      "ĠÐ²Ð½ÑĥÐº": 7595,
      "ĠÐ²ÑĥÑĢÐ´Ð°Ð»": 7596,
      "ĠÐ¿ÐµÐ¹": 7597,
      "ĠÐ¿ÑĥÑĪ": 7598,
      "ĠÐ¿Ð¾Ð³Ð¾": 7599,
      "ĠÐ¿ÑĥÐº": 7600,
      "ĠÐ¿ÑĥÐ±": 7601,
      "ĠÐ¿ÑĥÑģ": 7602,
      "ĠÐ¿Ð°Ð»Ð¾": 7603,
      "ĠÐ¿ÑĥÐ½": 7604,
      "ĠÐ¿Ð¾ÑģÑĤÐ¸Ð³": 7605,
      "ĠÐ¿Ð°Ð²Ð°": 7606,
      "Ð²Ð¸ÑĢ": 7607,
      "Ð²Ð°Ñı": 7608,
      "Ð²ÐµÑģÑĤÐ¸": 7609,
      "Ð´Ð¼": 7610,
      "Ð´Ð¾Ð¼": 7611,
      "Ð´Ð¶": 7612,
      "Ð´Ð°ÑĤÐµÐ»ÑĮ": 7613,
      "ĠÐ½Ð°Ð»ÑĮ": 7614,
      "ÐºÐ¸Ð¼Ð¸": 7615,
      "ÑĩÐ°Ð»": 7616,
      "ÑĩÐ½Ð¾Ð¼": 7617,
      "ÑħÐ¾": 7618,
      "ÑħÐ¸": 7619,
      "ÑħÐ°ÑĤ": 7620,
      "ÑħÐ²Ð°ÑĤ": 7621,
      "ÑħÐ¾ÑĢÐ¾ÑĪÐ¾": 7622,
      "ĠÐ¼ÐµÐ½": 7623,
      "ĠÐ¼Ð°Ð´": 7624,
      "ĠÐ¼Ð¾Ñģ": 7625,
      "ĠÐ¼Ð°Ð½": 7626,
      "ĠÐ¼Ð¾Ð´Ñĭ": 7627,
      "ĠÐ¼ÑĥÐºÑĥ": 7628,
      "ĠÐ¼ÑĥÐ´ÑĢÐµÐ½": 7629,
      "ÑģÑĤÑĭ": 7630,
      "ÑģÑĤÐµÑĢ": 7631,
      "ÑģÑĤÐ°ÑĤÐ¸": 7632,
      "ÐµÐ½Ð¾Ñİ": 7633,
      "ÐµÐ½Ð½ÑĭÐ¼Ð¸": 7634,
      "Ð¼Ð¾Ð¹": 7635,
      "Ð¼ÐµÐ½Ð½Ð¾Ð¹": 7636,
      "Ð¼Ð¾Ð½Ð¸": 7637,
      "ÑİÑĤÐµ": 7638,
      "ÑİÑĩÐ¸": 7639,
      "ÑİÑĢÑĮÐ¼": 7640,
      "ĠÑĤÐµÑĪ": 7641,
      "ĠÑĤÑıÐ½ÐµÑĤ": 7642,
      "ĠÑĤÑīÐµÑģÐ»Ð°Ð²": 7643,
      "ĠÑĤÐ»ÐµÐµÑĤ": 7644,
      "ĠÑĤÑİÑĢÑĮÐ¼": 7645,
      "ÑĪÑĥÐ¼": 7646,
      "ÑĪÐºÐ°": 7647,
      "ÑĪÐµÐµ": 7648,
      "ÐµÑĤÐ¸": 7649,
      "ÐµÑĤÐ¾Ð²": 7650,
      "ĠÐ´Ð¾Ðº": 7651,
      "ĠÐ´ÑĮÑı": 7652,
      "ĠÐ´ÑıÐ´": 7653,
      "ĠÐ´Ð°Ð¹ÑĤÐµ": 7654,
      "ĠÐ¾Ð»": 7655,
      "ĠÐ¾Ð½Ðµ": 7656,
      "ĠÐ±Ð°Ñģ": 7657,
      "ĠÐ±Ð¾ÑĢÐ¾Ð´": 7658,
      "ĠÐ±Ð¾ÑİÑģÑĮ": 7659,
      "Ð¾Ð»Ð½Ð¸": 7660,
      "Ð¾Ð»ÐµÐ¿": 7661,
      "Ð¾Ð»Ð¶Ð°Ð»": 7662,
      "ĠÐ¸Ð½ÑĭÐµ": 7663,
      "ĠÐ¸ÑģÑĤÑĢÐµÐ±": 7664,
      "ĠÐºÐ½Ñı": 7665,
      "ĠÐºÑĥÑħ": 7666,
      "ĠÐºÑĥÑģ": 7667,
      "ĠÐºÐ»ÐµÐ½": 7668,
      "ĠÐºÐµÐ»ÑĮÐµ": 7669,
      "ĠÐºÐµÐ»ÑĮÐ¸": 7670,
      "ÐµÑĢÐ½": 7671,
      "ÐµÑĢÐµÑĤ": 7672,
      "ÐµÑĢÐ¸Ð½": 7673,
      "ÐµÑĢÐµÐ±": 7674,
      "ÐµÑĢÐ¸Ð¼": 7675,
      "ÐµÑĢÐµÐ´ÑĮ": 7676,
      "ÐµÑĢÐµÑĩÑĮ": 7677,
      "ĠÐĺÐ½Ð¾Ð¹": 7678,
      "Ð¾ÑĢÑĥ": 7679,
      "ÐµÐ»ÐµÐ¼": 7680,
      "ÐµÐ»ÐºÐ°": 7681,
      "ÐµÐ»ÐµÑĤÑģÑı": 7682,
      "Ð¸ÑĤÐµÐ¹": 7683,
      "Ð¸ÑĤÐ°Ñı": 7684,
      "ĠÐ»ÐµÑģÑĤ": 7685,
      "ĠÐ»ÐµÐº": 7686,
      "ĠÐ»Ð¾Ð¿": 7687,
      "ĠÐ»ÑĮÑİ": 7688,
      "ĠÐ»Ð¸Ð»Ð¸": 7689,
      "ĠÐ»Ð¾ÑĪ": 7690,
      "ĠÐ»ÐµÐ½ÑĮÑİ": 7691,
      "ĠÐ»Ð¾ÑģÐ½": 7692,
      "ĠÐ»Ð¾Ð½Ðµ": 7693,
      "ĠÐ³Ð°ÑĢ": 7694,
      "ĠÐ³Ð°Ð·": 7695,
      "ĠÐ³ÑĢÑĥÐ·": 7696,
      "ĠÐĴÐ²": 7697,
      "ĠÐĴÐ¾ÑĢ": 7698,
      "ĠÐĴÑĢÐµÐ¼": 7699,
      "ĠÐĴÑĭÐ±": 7700,
      "ĠÐĴÐ¾ÑģÐ»ÐµÐ´": 7701,
      "ĠÐĴÐºÑĥÑģ": 7702,
      "ĠÐĴÐ¾ÐºÑĢÑĥÐ³": 7703,
      "ÑĨÐ¸ÑĤ": 7704,
      "Ð¾Ð´Ð¾Ð±": 7705,
      "Ð¾Ð´Ð½Ð¸Ðº": 7706,
      "ĠÐ·Ð¾ÑĢ": 7707,
      "ĠÐĿÐµÐ·": 7708,
      "ĠÐĿÐ°Ð³": 7709,
      "ĠÐ¿ÑĢÐµÐ»": 7710,
      "ĠÐ¿ÑĢÐµÐ»ÑĮ": 7711,
      "ĠÐ¿ÑĢÐ¾Ð²Ð¾ÑĢ": 7712,
      "ĠÐ¿ÑĢÐµÐ¼ÐµÐ½": 7713,
      "ĠÐ¿ÑĢÐ°Ñī": 7714,
      "Ð¸Ð»Ñĥ": 7715,
      "Ð±Ð°ÑĪ": 7716,
      "Ð±Ð¾Ð³Ñĥ": 7717,
      "ĠÑĢÐ¾Ð²": 7718,
      "ĠÑĢÐ¸Ð·": 7719,
      "ĠÑĢÐ¾Ð´Ð°": 7720,
      "ĠÑĢÐ¾Ð³Ð°": 7721,
      "ĠÑĢÐ¾Ð¼Ð°": 7722,
      "ĠÑĢÐ¾Ð¼Ð°Ð½": 7723,
      "ĠÐŁÐ¸": 7724,
      "ĠÐŁÐ°Ð½": 7725,
      "ĠÐŁÐ¾Ð½": 7726,
      "ĠÐŁÐµÑī": 7727,
      "ĠÐŁÑĥÑĤÑĮ": 7728,
      "ĠÐŁÑĥÐ³": 7729,
      "ĠÐŁÐ¾ÑĪÐµÐ»": 7730,
      "Ð¾Ð³Ðµ": 7731,
      "Ð·Ð³": 7732,
      "ĠÐ¡Ð½": 7733,
      "ĠÐ¡Ñĥ": 7734,
      "ĠÐ¡ÐµÐ±": 7735,
      "ĠÐ¡ÐµÑģÑĤ": 7736,
      "ĠÐ¡Ð¸Ð»ÑĮ": 7737,
      "ĠÐ¡Ð¾Ð¼Ð½": 7738,
      "ĠÐ¡Ð½Ð°ÑĩÐ°Ð»Ð°": 7739,
      "Ð°Ð²Ñĥ": 7740,
      "Ð°Ð²Ð½Ð¾Ð¹": 7741,
      "ÐµÐ¼Ð»Ñı": 7742,
      "Ð°ÑĤÑĢ": 7743,
      "Ð°ÑĤÑĭÑħ": 7744,
      "Ð°ÑĤÐµÐ»Ð¸": 7745,
      "Ð°ÑĤÐµÐ»ÐµÐ¹": 7746,
      "Ð°ÑĢÐ¸Ñģ": 7747,
      "Ð°Ð´Ð¸Ð¼": 7748,
      "Ð°Ð¼ÐµÑģÑĤ": 7749,
      "Ð°Ð¼Ð°Ñħ": 7750,
      "ÐµÐ´Ð°": 7751,
      "ÐµÐ´Ð°ÑĤÑĮ": 7752,
      "ÐµÐ´ÐºÐ¾": 7753,
      "ÐµÑģÐºÐ¸": 7754,
      "ÐµÑģÐ½Ð¸Ðº": 7755,
      "ÐµÑģÐºÐ¸Ñħ": 7756,
      "ÐµÑģÑıÑĤÐ¸": 7757,
      "Ð¿ÑĢ": 7758,
      "Ð¿Ð¾Ð¼": 7759,
      "Ð³Ðµ": 7760,
      "Ð³Ð»Ð¸": 7761,
      "Ð³ÐµÐ»ÑĮ": 7762,
      "Ð³ÑĥÑĩ": 7763,
      "Ð³Ð¸Ð¹": 7764,
      "Ð³ÑĢÐµÐ¼": 7765,
      "Ð³ÑĥÑģ": 7766,
      "Ð³Ð¾ÑģÐ¿": 7767,
      "Ð¾ÑģÐ°": 7768,
      "Ð¾ÑģÐ½ÐµÐ¶": 7769,
      "ĠÑĥÐ²Ñĭ": 7770,
      "ĠÑĥÑĢÐ¾Ð´": 7771,
      "ĠÑĥÐ½Ð¾ÑģÐ¸ÑĤ": 7772,
      "Ð°Ð½ÐºÐ°": 7773,
      "ĠÐļÐ¾ÑģÑĤ": 7774,
      "ĠÐļÐ»Ñı": 7775,
      "ĠÐļÑĥÑĢ": 7776,
      "ĠÐļÑĢÐµÐ¼": 7777,
      "ĠÐļÐ°Ð¶Ð´": 7778,
      "ĠÐļÑĢÐ¾": 7779,
      "ĠÐļÐ°Ð»Ð¾Ð¼": 7780,
      "ĠÐļÑĥÐ¼Ð¸ÑĢ": 7781,
      "ĠÐļÐ¾Ð²Ð°ÑĢ": 7782,
      "ĠÑģÑĤÐµÑģ": 7783,
      "ĠÑģÑĤÐ°ÑĤÑĮ": 7784,
      "ĠÑģÑĤÐ°Ð»Ð°": 7785,
      "ĠÑģÑĤÐ°Ð»Ð¾": 7786,
      "ĠÑģÑĤÐ°Ð½Ð°": 7787,
      "ĠÑģÑĤÑıÐ¶": 7788,
      "Ð¾Ð½ÑĤ": 7789,
      "Ð¾Ð½ÐµÑĤ": 7790,
      "ĠÐ¢Ðµ": 7791,
      "ĠÐ¢ÐµÑĤ": 7792,
      "ĠÐ¢Ð°Ð²": 7793,
      "ĠÐ¢ÑĢÐµÐ´": 7794,
      "ĠÐ¢ÐµÑĢÐ¿": 7795,
      "ĠÐŀÐ»ÑĮ": 7796,
      "Ð¸Ð½Ð°Ð¼": 7797,
      "Ð¸Ð½Ð³": 7798,
      "Ð¸Ð½Ð°ÑĤÑĮ": 7799,
      "Ð¸Ð½ÑĥÑĤÑĮ": 7800,
      "Ð¸Ð½ÑģÐºÐ¸Ñħ": 7801,
      "ĠÑĩÐ°Ð´": 7802,
      "ĠÑĩÑĥÐ¼": 7803,
      "ĠÑĩÑĮÑı": 7804,
      "ĠÑĩÐ»ÐµÐ½": 7805,
      "ĠÑĩÐµÐ»Ð°": 7806,
      "ĠÑĩÑĢÐµÐ´": 7807,
      "Ð¸Ð²ÑĭÐ¼": 7808,
      "Ð¸Ð²ÑĪÐ¸Ð¹": 7809,
      "ĠÐ¶Ð¸ÑĤÐµÐ»ÑĮ": 7810,
      "ĠÐ¶Ð´ÑĥÑĤ": 7811,
      "ĠÐ¶ÐµÐ¼ÑĩÑĥÐ³": 7812,
      "ÑīÐµÐ³Ð¾": 7813,
      "ÑīÐ¸Ð½Ñĭ": 7814,
      "ÑīÐ¸Ð½Ñĥ": 7815,
      "ĠÐ½ÐµÑıÑģ": 7816,
      "ÐµÑĩÐºÐ¸": 7817,
      "Ð¸ÑħÑĥ": 7818,
      "ÐµÐ½ÑĮÐºÐ¾Ð¹": 7819,
      "Ð°Ð·ÑĥÐ¼": 7820,
      "Ð°Ð·Ð¸Ð¸": 7821,
      "Ð¾ÑģÑĤÐ½Ð¾": 7822,
      "Ð¾ÑģÑĤÐ½Ð¸Ðº": 7823,
      "ĠÑģÐ²Ð¾Ð´Ð¸ÑĤ": 7824,
      "ĠÑģÐ²Ð¸Ñī": 7825,
      "Ð¶Ð¸Ð¼": 7826,
      "ĠÐľÐ¸ÑĤ": 7827,
      "ĠÐľÐµÐ²": 7828,
      "ĠÐľÐµÐ»ÑĮ": 7829,
      "ĠÐľÑĥÑĩ": 7830,
      "ĠÐľÐ½Ð¾Ð³Ð¾": 7831,
      "ĠÐľÐ¾Ð»ÑĮÐ±": 7832,
      "ĠÐľÐ°ÑĪÐ°": 7833,
      "Ð¸Ð¼Ð¾Ð³Ð¾": 7834,
      "Ð¸Ð¼ÑĭÑħ": 7835,
      "ĠÑģÐ»Ð¸Ð²Ñĥ": 7836,
      "Ð¸ÑĢÐ°Ñİ": 7837,
      "Ð¸ÑĢÐ°ÑıÑģÑĮ": 7838,
      "Ð½ÐµÑĨ": 7839,
      "Ð½ÐµÑİÑĤ": 7840,
      "ĠÐµÐ´Ñĥ": 7841,
      "ĠÐµÑħÐ°Ð»": 7842,
      "ÐµÐ³Ð¸": 7843,
      "ÐµÐ³ÑĢÐ°Ð´": 7844,
      "ĠÐĶÐ¾Ðº": 7845,
      "ĠÐĶÐ°ÐµÑĤ": 7846,
      "ĠÐĶÑĭÐ¼": 7847,
      "ĠÐĶÑĢÑĥÐ·": 7848,
      "ĠÐĶÐ¾ÑģÑĤÐ¾Ð¹": 7849,
      "ĠÐĶÐ¾Ð¼Ð°": 7850,
      "ĠÐĶÐ¾Ð»Ð¶": 7851,
      "Ð¾Ð·Ð´Ð°Ð»ÑĭÐ¹": 7852,
      "ÐµÐ¶Ð°": 7853,
      "ÐµÐ¶Ð½Ð¾": 7854,
      "ÐµÐ¶Ð°Ð»Ð¸": 7855,
      "ÐµÑģÑĤÐ¾Ð¿": 7856,
      "Ð¸Ð´ÐµÑģÑıÑĤÐ¸": 7857,
      "ĠÐĳÑĭ": 7858,
      "ĠÐĳÐµÐ¹": 7859,
      "ĠÐĳÑĢÐ°ÑĤ": 7860,
      "ĠÐĳÑĢÐ¾Ñģ": 7861,
      "ĠÐĳÐ¾ÑĢÐ¾Ð´": 7862,
      "ĠÐĳÐ¾ÑİÑģÑĮ": 7863,
      "ĠÐĳÑĥÑĤÑĭÐ»": 7864,
      "Ð¾Ð¶Ð¸": 7865,
      "Ð¾Ð¶ÐµÐ¹": 7866,
      "Ð¾Ð¶Ð°ÐµÑĤ": 7867,
      "ÑĢÐ°Ñı": 7868,
      "ÑĢÐ°ÑģÑĤÑĮ": 7869,
      "Ð¾ÑĩÐ¸ÑĤ": 7870,
      "Ð¾ÑĩÐµÑĪÑĮ": 7871,
      "ĠÐ¾ÑĤÐ²Ñĭ": 7872,
      "ĠÐ¾ÑĤÑģÑĤÑĥÐ¿": 7873,
      "ĠÐĵÐ¾Ð¼": 7874,
      "ĠÐĵÐ¾Ð½": 7875,
      "ĠÐĵÐ¾ÑģÑĤ": 7876,
      "ĠÐĵÐµÐ±": 7877,
      "ĠÐĵÑĢÐµÐ¼": 7878,
      "ĠÐĵÑĥÐ»Ñı": 7879,
      "ĠÐĵÐ»Ð¸ÑĨ": 7880,
      "ĠÐĹÐµÑĢ": 7881,
      "ĠÐĹÐ°Ð¹": 7882,
      "ĠÐĹÑĥÐ±": 7883,
      "ĠÐĹÐ¾Ð»Ð¾ÑĤ": 7884,
      "ÑĥÑĪÐµÐ²": 7885,
      "ÑĥÑĪÐºÐ¾Ñİ": 7886,
      "ĠÑħÐ°ÑĢ": 7887,
      "ĠÑħÑĢÐ¸ÑģÑĤ": 7888,
      "ĠÑħÐ¾Ð¶Ñĥ": 7889,
      "ĠÑħÐ¾Ð´Ð¸Ð»Ð°": 7890,
      "ĠÐ³ÑĢÐµÐ±": 7891,
      "ĠÐ³ÑĢÐµÐº": 7892,
      "ĠÐ³ÑĢÐ¾Ñħ": 7893,
      "ĠÐ³ÑĢÐµÑĪÐµÐ½": 7894,
      "ĠÐ³ÑĢÐ°Ð½Ð¸ÑĤ": 7895,
      "ÑĥÐ¼Ð¾Ð»": 7896,
      "ÑĥÐ¼ÐµÐ»": 7897,
      "ÑĥÐ¼Ð°Ð²": 7898,
      "ÑĥÐ¼Ð°ÑİÑģÑĮ": 7899,
      "Ð½ÑĥÑģÑı": 7900,
      "Ð½ÑĥÑıÑģÑĮ": 7901,
      "Ð°Ð¶ÐµÑĤ": 7902,
      "Ð°Ð¶ÐµÑĪÑĮ": 7903,
      "ĠÐºÑĢÐ¾Ð¿": 7904,
      "ĠÐºÑĢÐ°Ð¿": 7905,
      "ĠÐĲÑģ": 7906,
      "ĠÐĲÐ´": 7907,
      "ĠÐĲÐ»ÐµÐº": 7908,
      "Ð»ÑıÑı": 7909,
      "Ð»ÑıÑİ": 7910,
      "ĠÐŁÑĢÐµÑĢ": 7911,
      "ĠÐŁÑĢÐ¸ÑĤ": 7912,
      "ĠÐŁÑĢÐ¾Ð³": 7913,
      "ĠÐŁÑĢÐ¾Ðº": 7914,
      "ĠÐŁÑĢÐ¾ÑĪÐ»Ð¸": 7915,
      "ĠÐŁÑĢÐ¾Ð¹Ð´ÐµÑĤ": 7916,
      "Ð°Ð¹Ð´": 7917,
      "Ð°Ð¹ÑĤÐµÑģÑĮ": 7918,
      "ĠÐ£Ð¹": 7919,
      "ĠÐĿÐµÑħÐ¾ÑĢÐ¾ÑĪÐ¾": 7920,
      "ĠÑĨÐ¸ÑĢ": 7921,
      "ĠÐ¯ÑĢ": 7922,
      "ĠÑģÐºÑĥÐºÑĥ": 7923,
      "ĠÑģÐºÐµÐ»ÐµÑĤ": 7924,
      "ĠÐ²ÑģÐ°Ð´": 7925,
      "ĠÐ²ÑģÐµÐ»ÐµÐ½": 7926,
      "Ð¸Ð¹ÑģÐºÐ¸Ñħ": 7927,
      "ÐµÐ¿ÑĢÐ¸": 7928,
      "ÑģÐºÐ¾": 7929,
      "ĠÐ¾Ð±ÑıÐ·": 7930,
      "ĠÐ¾Ð±ÑĢÑĭ": 7931,
      "ĠÐ¾Ð±Ð¾ÑĢÐ¾ÑĤ": 7932,
      "ĠÐ¾Ð±ÑĭÑĩÐ°Ð¹": 7933,
      "ĠÐĽÐµÑģ": 7934,
      "ĠÐĽÐ¸Ñħ": 7935,
      "ĠÐĽÑĮÑģÑĤ": 7936,
      "Ð°ÑħÐ¾Ð²": 7937,
      "Ð°ÑħÐ¾Ð¼": 7938,
      "ĠÐ§ÐµÑĢÑĤ": 7939,
      "ĠÐ§Ð¸ÑģÑĤ": 7940,
      "ĠÐ¼Ð¾ÐµÐ¼Ñĥ": 7941,
      "Ð¾Ð»ÑĮÐµ": 7942,
      "ĠÐ¿Ð¾Ð´Ð¾": 7943,
      "ĠÐ¿Ð¾Ð´Ð²Ð°Ð»": 7944,
      "ĠÐ¿Ð¾Ð´Ð½ÐµÑģ": 7945,
      "ĠÐ¿Ð¾Ð´Ð½ÑıÐ²": 7946,
      "ĠÐ¿Ð¾Ð´ÐºÑĥÐ¿": 7947,
      "ĠÐ¿Ð¾Ð´Ð¾Ð·ÑĢ": 7948,
      "Ð°Ð»Ð¸Ð¸": 7949,
      "ÑģÑĤÐ²Ð¸Ñı": 7950,
      "ÑģÑĤÐ²Ð¸Ð¸": 7951,
      "ÑģÑĤÐ²Ð¸ÐµÐ¼": 7952,
      "ĠÑĪÐºÐ¸": 7953,
[...]
